{
  "version": "1.0",
  "truncation": null,
  "padding": null,
  "added_tokens": [
    {
      "id": 0,
      "content": "<UNK>",
      "single_word": false,
      "lstrip": false,
      "rstrip": false,
      "normalized": false,
      "special": true
    },
    {
      "id": 1,
      "content": "<SEP>",
      "single_word": false,
      "lstrip": false,
      "rstrip": false,
      "normalized": false,
      "special": true
    },
    {
      "id": 2,
      "content": "<MASK>",
      "single_word": false,
      "lstrip": false,
      "rstrip": false,
      "normalized": false,
      "special": true
    },
    {
      "id": 3,
      "content": "<CLS>",
      "single_word": false,
      "lstrip": false,
      "rstrip": false,
      "normalized": false,
      "special": true
    }
  ],
  "normalizer": null,
  "pre_tokenizer": {
    "type": "Whitespace"
  },
  "post_processor": null,
  "decoder": null,
  "model": {
    "type": "BPE",
    "dropout": null,
    "unk_token": "<UNK>",
    "continuing_subword_prefix": null,
    "end_of_word_suffix": null,
    "fuse_unk": false,
    "vocab": {
      "<UNK>": 0,
      "<SEP>": 1,
      "<MASK>": 2,
      "<CLS>": 3,
      "\u0001": 4,
      "\u0004": 5,
      "\u0005": 6,
      "\u0006": 7,
      "\u0007": 8,
      "!": 9,
      "\"": 10,
      "#": 11,
      "$": 12,
      "%": 13,
      "&": 14,
      "'": 15,
      "(": 16,
      ")": 17,
      "*": 18,
      "+": 19,
      ",": 20,
      "-": 21,
      ".": 22,
      "/": 23,
      "0": 24,
      "1": 25,
      "2": 26,
      "3": 27,
      "4": 28,
      "5": 29,
      "6": 30,
      "7": 31,
      "8": 32,
      "9": 33,
      ":": 34,
      ";": 35,
      "<": 36,
      "=": 37,
      ">": 38,
      "?": 39,
      "@": 40,
      "A": 41,
      "B": 42,
      "C": 43,
      "D": 44,
      "E": 45,
      "F": 46,
      "G": 47,
      "H": 48,
      "I": 49,
      "J": 50,
      "K": 51,
      "L": 52,
      "M": 53,
      "N": 54,
      "O": 55,
      "P": 56,
      "Q": 57,
      "R": 58,
      "S": 59,
      "T": 60,
      "U": 61,
      "V": 62,
      "W": 63,
      "X": 64,
      "Y": 65,
      "Z": 66,
      "[": 67,
      "\\": 68,
      "]": 69,
      "^": 70,
      "_": 71,
      "`": 72,
      "a": 73,
      "b": 74,
      "c": 75,
      "d": 76,
      "e": 77,
      "f": 78,
      "g": 79,
      "h": 80,
      "i": 81,
      "j": 82,
      "k": 83,
      "l": 84,
      "m": 85,
      "n": 86,
      "o": 87,
      "p": 88,
      "q": 89,
      "r": 90,
      "s": 91,
      "t": 92,
      "u": 93,
      "v": 94,
      "w": 95,
      "x": 96,
      "y": 97,
      "z": 98,
      "{": 99,
      "|": 100,
      "}": 101,
      "~": 102,
      "": 103,
      "": 104,
      "": 105,
      "¡": 106,
      "¢": 107,
      "£": 108,
      "¤": 109,
      "¥": 110,
      "§": 111,
      "¨": 112,
      "©": 113,
      "ª": 114,
      "«": 115,
      "¬": 116,
      "­": 117,
      "®": 118,
      "¯": 119,
      "°": 120,
      "±": 121,
      "²": 122,
      "³": 123,
      "´": 124,
      "µ": 125,
      "¶": 126,
      "·": 127,
      "¸": 128,
      "º": 129,
      "»": 130,
      "¼": 131,
      "½": 132,
      "¿": 133,
      "Á": 134,
      "Â": 135,
      "Ã": 136,
      "Ä": 137,
      "Å": 138,
      "Æ": 139,
      "É": 140,
      "Ê": 141,
      "Ì": 142,
      "Í": 143,
      "Ï": 144,
      "Ð": 145,
      "Ò": 146,
      "Ó": 147,
      "Ô": 148,
      "×": 149,
      "Ø": 150,
      "Ú": 151,
      "Þ": 152,
      "ß": 153,
      "à": 154,
      "á": 155,
      "â": 156,
      "ã": 157,
      "ä": 158,
      "å": 159,
      "æ": 160,
      "ç": 161,
      "è": 162,
      "é": 163,
      "ê": 164,
      "ë": 165,
      "í": 166,
      "ï": 167,
      "ð": 168,
      "ñ": 169,
      "ò": 170,
      "ó": 171,
      "ô": 172,
      "õ": 173,
      "ö": 174,
      "÷": 175,
      "ø": 176,
      "ù": 177,
      "ú": 178,
      "ü": 179,
      "þ": 180,
      "ÿ": 181,
      "ě": 182,
      "ı": 183,
      "Ł": 184,
      "ł": 185,
      "Œ": 186,
      "œ": 187,
      "ś": 188,
      "Š": 189,
      "š": 190,
      "ů": 191,
      "Ÿ": 192,
      "Ž": 193,
      "ƒ": 194,
      "ɛ": 195,
      "ˆ": 196,
      "˘": 197,
      "˙": 198,
      "˚": 199,
      "˛": 200,
      "˜": 201,
      "́": 202,
      "̂": 203,
      "̈": 204,
      "̊": 205,
      "̣": 206,
      "͘": 207,
      "ʹ": 208,
      "Α": 209,
      "Β": 210,
      "Δ": 211,
      "Θ": 212,
      "Ι": 213,
      "Κ": 214,
      "Λ": 215,
      "Μ": 216,
      "Π": 217,
      "Σ": 218,
      "Τ": 219,
      "Φ": 220,
      "Ψ": 221,
      "Ω": 222,
      "ΰ": 223,
      "α": 224,
      "β": 225,
      "γ": 226,
      "δ": 227,
      "ε": 228,
      "ζ": 229,
      "η": 230,
      "θ": 231,
      "ι": 232,
      "κ": 233,
      "λ": 234,
      "μ": 235,
      "ν": 236,
      "ξ": 237,
      "ο": 238,
      "π": 239,
      "ρ": 240,
      "σ": 241,
      "τ": 242,
      "φ": 243,
      "χ": 244,
      "ψ": 245,
      "ω": 246,
      "ϕ": 247,
      "Ϭ": 248,
      "Ϯ": 249,
      "ϵ": 250,
      "с": 251,
      "є": 252,
      "׳": 253,
      "߰": 254,
      "​": 255,
      "‐": 256,
      "‑": 257,
      "‒": 258,
      "–": 259,
      "—": 260,
      "―": 261,
      "‖": 262,
      "‘": 263,
      "’": 264,
      "‚": 265,
      "“": 266,
      "”": 267,
      "„": 268,
      "†": 269,
      "‡": 270,
      "•": 271,
      "‥": 272,
      "…": 273,
      "‰": 274,
      "′": 275,
      "″": 276,
      "‴": 277,
      "‹": 278,
      "⁁": 279,
      "⁄": 280,
      "⁎": 281,
      "€": 282,
      "℃": 283,
      "™": 284,
      "Å": 285,
      "ℳ": 286,
      "⅓": 287,
      "Ⅱ": 288,
      "←": 289,
      "↑": 290,
      "→": 291,
      "↓": 292,
      "↔": 293,
      "⇑": 294,
      "⇓": 295,
      "∂": 296,
      "∆": 297,
      "∈": 298,
      "∉": 299,
      "∊": 300,
      "∑": 301,
      "−": 302,
      "∕": 303,
      "∗": 304,
      "√": 305,
      "∝": 306,
      "∞": 307,
      "∣": 308,
      "∥": 309,
      "∧": 310,
      "∶": 311,
      "∷": 312,
      "∼": 313,
      "≅": 314,
      "≈": 315,
      "≠": 316,
      "≤": 317,
      "≥": 318,
      "≦": 319,
      "≪": 320,
      "≫": 321,
      "⊘": 322,
      "⊙": 323,
      "⊚": 324,
      "⋅": 325,
      "⋯": 326,
      "⌂": 327,
      "〈": 328,
      "〉": 329,
      "⎧": 330,
      "⎨": 331,
      "⎩": 332,
      "⎫": 333,
      "⎬": 334,
      "⎭": 335,
      "①": 336,
      "②": 337,
      "③": 338,
      "④": 339,
      "■": 340,
      "□": 341,
      "▨": 342,
      "▪": 343,
      "▲": 344,
      "▴": 345,
      "▵": 346,
      "▶": 347,
      "►": 348,
      "▼": 349,
      "▾": 350,
      "▿": 351,
      "◆": 352,
      "◇": 353,
      "◊": 354,
      "○": 355,
      "●": 356,
      "◦": 357,
      "☆": 358,
      "♢": 359,
      "♦": 360,
      "♯": 361,
      "✉": 362,
      "❚": 363,
      "➝": 364,
      "⟨": 365,
      "⟩": 366,
      "⧫": 367,
      "⩽": 368,
      "⩾": 369,
      "、": 370,
      "〈": 371,
      "〉": 372,
      "ꞌ": 373,
      "": 374,
      "": 375,
      "": 376,
      "": 377,
      "": 378,
      "": 379,
      "": 380,
      "": 381,
      "": 382,
      "": 383,
      "": 384,
      "": 385,
      "": 386,
      "": 387,
      "ﬁ": 388,
      "ﬂ": 389,
      "�": 390,
      "􀁂": 391,
      "􀁇": 392,
      "􀁋": 393,
      "in": 394,
      "th": 395,
      "re": 396,
      "on": 397,
      "ti": 398,
      "an": 399,
      "en": 400,
      "the": 401,
      "te": 402,
      "al": 403,
      "tion": 404,
      "or": 405,
      "of": 406,
      "as": 407,
      "er": 408,
      "ed": 409,
      "and": 410,
      "es": 411,
      "ro": 412,
      "is": 413,
      "ation": 414,
      "el": 415,
      "at": 416,
      "ing": 417,
      "ar": 418,
      "to": 419,
      "ic": 420,
      "ut": 421,
      "ac": 422,
      "si": 423,
      "le": 424,
      "ted": 425,
      "ent": 426,
      "res": 427,
      "om": 428,
      "it": 429,
      "wi": 430,
      "mut": 431,
      "ly": 432,
      "se": 433,
      "st": 434,
      "we": 435,
      "ig": 436,
      "tiv": 437,
      "with": 438,
      "ec": 439,
      "ou": 440,
      "for": 441,
      "ell": 442,
      "pro": 443,
      "ter": 444,
      "de": 445,
      "ant": 446,
      "ex": 447,
      "ul": 448,
      ").": 449,
      "mutation": 450,
      "lo": 451,
      "he": 452,
      "tr": 453,
      "con": 454,
      "su": 455,
      "ated": 456,
      "di": 457,
      "cell": 458,
      "ab": 459,
      "ho": 460,
      "am": 461,
      "um": 462,
      "gen": 463,
      "that": 464,
      "un": 465,
      "ce": 466,
      "ib": 467,
      "were": 468,
      "et": 469,
      "ate": 470,
      "mo": 471,
      "pa": 472,
      "ad": 473,
      "ain": 474,
      "po": 475,
      "im": 476,
      "id": 477,
      "no": 478,
      "pres": 479,
      "uc": 480,
      "mutations": 481,
      "us": 482,
      "was": 483,
      "activ": 484,
      "by": 485,
      "co": 486,
      "sp": 487,
      "ity": 488,
      "il": 489,
      "Fig": 490,
      "qu": 491,
      "ay": 492,
      "cl": 493,
      "ch": 494,
      "ff": 495,
      "ase": 496,
      "be": 497,
      "red": 498,
      "ve": 499,
      "The": 500,
      "com": 501,
      "ind": 502,
      "ts": 503,
      "ther": 504,
      "if": 505,
      "tic": 506,
      "00": 507,
      "pl": 508,
      "ver": 509,
      "ure": 510,
      "ur": 511,
      "cells": 512,
      "are": 513,
      "sion": 514,
      "ty": 515,
      "rom": 516,
      "ag": 517,
      "ass": 518,
      "ment": 519,
      "ans": 520,
      "ol": 521,
      "anc": 522,
      "pe": 523,
      "ine": 524,
      "tum": 525,
      "GF": 526,
      "In": 527,
      "),": 528,
      "ap": 529,
      "trans": 530,
      "ari": 531,
      "CA": 532,
      "oc": 533,
      "tive": 534,
      "prote": 535,
      "str": 536,
      "ple": 537,
      "vi": 538,
      "10": 539,
      "ri": 540,
      "per": 541,
      "from": 542,
      "tumor": 543,
      "sis": 544,
      "ancer": 545,
      "ants": 546,
      "ous": 547,
      "form": 548,
      "BR": 549,
      "all": 550,
      "protein": 551,
      "expres": 552,
      "ents": 553,
      "vari": 554,
      "NA": 555,
      "able": 556,
      "fi": 557,
      "wn": 558,
      "ren": 559,
      "aly": 560,
      "gn": 561,
      "me": 562,
      "wh": 563,
      "not": 564,
      "cancer": 565,
      "pho": 566,
      "ld": 567,
      "pati": 568,
      "12": 569,
      "tor": 570,
      "ction": 571,
      "ific": 572,
      "ence": 573,
      "GFR": 574,
      "als": 575,
      "dis": 576,
      "up": 577,
      "ser": 578,
      "igh": 579,
      "sign": 580,
      "por": 581,
      "reg": 582,
      "ha": 583,
      "dom": 584,
      "sho": 585,
      "this": 586,
      "hib": 587,
      "Figure": 588,
      "gene": 589,
      "ical": 590,
      "vel": 591,
      "Th": 592,
      "ge": 593,
      "ved": 594,
      "li": 595,
      "20": 596,
      "ich": 597,
      "sub": 598,
      "ne": 599,
      "our": 600,
      "ary": 601,
      "op": 602,
      "11": 603,
      "yl": 604,
      "enti": 605,
      "type": 606,
      "del": 607,
      "unction": 608,
      "analy": 609,
      "phosp": 610,
      "domain": 611,
      "ast": 612,
      "rec": 613,
      "bo": 614,
      "these": 615,
      "cont": 616,
      "kin": 617,
      "inhib": 618,
      "ud": 619,
      "ffec": 620,
      "cy": 621,
      "RA": 622,
      "oun": 623,
      "patients": 624,
      "have": 625,
      "ob": 626,
      "end": 627,
      "function": 628,
      "ations": 629,
      "19": 630,
      "iz": 631,
      "resp": 632,
      ".,": 633,
      "which": 634,
      "inib": 635,
      "inding": 636,
      "sequ": 637,
      "ting": 638,
      "53": 639,
      "activity": 640,
      "BRCA": 641,
      "one": 642,
      "tu": 643,
      "min": 644,
      "ess": 645,
      "der": 646,
      "par": 647,
      "inc": 648,
      "ally": 649,
      "expression": 650,
      "DNA": 651,
      "ir": 652,
      "cri": 653,
      "pre": 654,
      "gro": 655,
      "inter": 656,
      "tions": 657,
      "mutant": 658,
      "val": 659,
      "hor": 660,
      "ely": 661,
      "ER": 662,
      "mon": 663,
      "eren": 664,
      "anti": 665,
      "du": 666,
      "ance": 667,
      "tho": 668,
      "17": 669,
      "sti": 670,
      "16": 671,
      "ph": 672,
      "sen": 673,
      "diff": 674,
      "resul": 675,
      "spec": 676,
      "13": 677,
      "200": 678,
      "log": 679,
      "kinase": 680,
      "ative": 681,
      "also": 682,
      "dat": 683,
      "been": 684,
      "variants": 685,
      "using": 686,
      "low": 687,
      "struc": 688,
      "reas": 689,
      "des": 690,
      "oci": 691,
      "binding": 692,
      "med": 693,
      "other": 694,
      "ges": 695,
      "mal": 696,
      "gh": 697,
      "activation": 698,
      "ist": 699,
      "genes": 700,
      "fac": 701,
      "oma": 702,
      "ular": 703,
      "ma": 704,
      "ates": 705,
      "lin": 706,
      "EGFR": 707,
      "BRCA1": 708,
      "15": 709,
      "differen": 710,
      "respon": 711,
      "14": 712,
      "inhibit": 713,
      "ound": 714,
      "assay": 715,
      "age": 716,
      "do": 717,
      "high": 718,
      "ion": 719,
      "wild": 720,
      "enc": 721,
      "ach": 722,
      "identi": 723,
      "tre": 724,
      "AT": 725,
      "CT": 726,
      "clin": 727,
      "data": 728,
      "fec": 729,
      "ampl": 730,
      "abil": 731,
      "em": 732,
      "fied": 733,
      "tw": 734,
      "rel": 735,
      "af": 736,
      "sed": 737,
      "pr": 738,
      "SC": 739,
      "ating": 740,
      "show": 741,
      "effec": 742,
      "ies": 743,
      "We": 744,
      "analysis": 745,
      "tumors": 746,
      "horyl": 747,
      "ases": 748,
      "ber": 749,
      "crip": 750,
      "associ": 751,
      "18": 752,
      "mutants": 753,
      "requ": 754,
      "sing": 755,
      "50": 756,
      "loc": 757,
      "ree": 758,
      "ome": 759,
      "dep": 760,
      "KI": 761,
      "exon": 762,
      "cor": 763,
      "phosphoryl": 764,
      "Table": 765,
      "bet": 766,
      "vid": 767,
      "level": 768,
      "used": 769,
      "cr": 770,
      "repor": 771,
      "au": 772,
      "has": 773,
      "tes": 774,
      "Al": 775,
      "hy": 776,
      "p53": 777,
      "two": 778,
      "PT": 779,
      "ub": 780,
      "ss": 781,
      "AL": 782,
      "depend": 783,
      "rol": 784,
      "but": 785,
      "may": 786,
      "way": 787,
      "resi": 788,
      "line": 789,
      "stitu": 790,
      "inhibitor": 791,
      "regul": 792,
      "arg": 793,
      "ding": 794,
      "formation": 795,
      "cep": 796,
      "served": 797,
      "whe": 798,
      "residu": 799,
      "mic": 800,
      "comple": 801,
      "termin": 802,
      "sy": 803,
      "uced": 804,
      "resist": 805,
      "incl": 806,
      "dies": 807,
      "ran": 808,
      "shown": 809,
      "medi": 810,
      "amin": 811,
      "more": 812,
      "than": 813,
      "ween": 814,
      "ME": 815,
      "sug": 816,
      "ong": 817,
      "indic": 818,
      "sugges": 819,
      "CR": 820,
      "between": 821,
      "car": 822,
      "its": 823,
      "can": 824,
      "RAS": 825,
      "ould": 826,
      "vious": 827,
      "posi": 828,
      "lec": 829,
      "signific": 830,
      "interac": 831,
      "gr": 832,
      "path": 833,
      "struct": 834,
      "signal": 835,
      "fol": 836,
      "out": 837,
      "sup": 838,
      "PI": 839,
      "dele": 840,
      "transcrip": 841,
      "proteins": 842,
      "24": 843,
      "ability": 844,
      "dition": 845,
      "associated": 846,
      "inv": 847,
      "grow": 848,
      "sequenc": 849,
      "dependent": 850,
      "genic": 851,
      "ste": 852,
      "pathway": 853,
      "mul": 854,
      "ucle": 855,
      "ST": 856,
      "specific": 857,
      "mis": 858,
      "uman": 859,
      "identified": 860,
      "tively": 861,
      "both": 862,
      "found": 863,
      "control": 864,
      "CC": 865,
      "clinical": 866,
      "AP": 867,
      "growth": 868,
      "RNA": 869,
      "EN": 870,
      "To": 871,
      "ese": 872,
      "udy": 873,
      "results": 874,
      "kno": 875,
      "ven": 876,
      "ref": 877,
      "sur": 878,
      "study": 879,
      "lik": 880,
      "Sup": 881,
      "ore": 882,
      "includ": 883,
      "previous": 884,
      "plement": 885,
      "ight": 886,
      "mun": 887,
      "30": 888,
      "ms": 889,
      "bas": 890,
      "had": 891,
      "cur": 892,
      "ia": 893,
      "25": 894,
      "stu": 895,
      "aining": 896,
      "human": 897,
      "formed": 898,
      "int": 899,
      "This": 900,
      "fir": 901,
      "PD": 902,
      "ers": 903,
      "].": 904,
      "significant": 905,
      "man": 906,
      "199": 907,
      "cin": 908,
      "29": 909,
      "non": 910,
      "pred": 911,
      "ros": 912,
      "io": 913,
      "cent": 914,
      "ained": 915,
      "ign": 916,
      "27": 917,
      "num": 918,
      "ail": 919,
      "levels": 920,
      "atinib": 921,
      "over": 922,
      "lu": 923,
      "AF": 924,
      "lines": 925,
      "CD": 926,
      "tal": 927,
      "nor": 928,
      "transfec": 929,
      "fam": 930,
      "II": 931,
      "AK": 932,
      "atment": 933,
      "region": 934,
      "ceptor": 935,
      "phosphorylation": 936,
      "observed": 937,
      "usion": 938,
      "ds": 939,
      "Supplement": 940,
      "No": 941,
      "acid": 942,
      "ough": 943,
      "PTEN": 944,
      "addition": 945,
      "AR": 946,
      "transcription": 947,
      "only": 948,
      "pot": 949,
      "receptor": 950,
      "ca": 951,
      "ently": 952,
      "21": 953,
      "ized": 954,
      "wever": 955,
      "present": 956,
      "number": 957,
      "arget": 958,
      "most": 959,
      "prim": 960,
      "ish": 961,
      "signaling": 962,
      "WT": 963,
      "tern": 964,
      "ip": 965,
      "GT": 966,
      "26": 967,
      "iti": 968,
      "treatment": 969,
      "port": 970,
      "dete": 971,
      "ifer": 972,
      "KIT": 973,
      "crib": 974,
      "duc": 975,
      "fic": 976,
      "col": 977,
      "target": 978,
      "studies": 979,
      "Sm": 980,
      "functional": 981,
      "lot": 982,
      "well": 983,
      "different": 984,
      "ech": 985,
      "These": 986,
      "reased": 987,
      "ilar": 988,
      "ML": 989,
      "valu": 990,
      "tis": 991,
      "velop": 992,
      "pared": 993,
      "Ho": 994,
      "each": 995,
      "ALK": 996,
      "sense": 997,
      "ru": 998,
      "three": 999,
      "ator": 1000,
      "ele": 1001,
      "22": 1002,
      "develop": 1003,
      "T3": 1004,
      "describ": 1005,
      "nucle": 1006,
      "model": 1007,
      "though": 1008,
      "ble": 1009,
      "sensi": 1010,
      "ame": 1011,
      "reported": 1012,
      "residues": 1013,
      "34": 1014,
      "urther": 1015,
      "normal": 1016,
      "under": 1017,
      "plas": 1018,
      "teri": 1019,
      "into": 1020,
      "chan": 1021,
      "cases": 1022,
      "their": 1023,
      "amples": 1024,
      "Supplementary": 1025,
      "Smad": 1026,
      "bl": 1027,
      "ak": 1028,
      "resistance": 1029,
      "elec": 1030,
      "complex": 1031,
      "immun": 1032,
      "assi": 1033,
      "ied": 1034,
      "dise": 1035,
      "previously": 1036,
      "ra": 1037,
      "itro": 1038,
      "typ": 1039,
      "contr": 1040,
      "cle": 1041,
      "such": 1042,
      "onco": 1043,
      "av": 1044,
      "described": 1045,
      "factor": 1046,
      "amino": 1047,
      "sim": 1048,
      "Ras": 1049,
      "bre": 1050,
      "Mut": 1051,
      "act": 1052,
      "35": 1053,
      "frequ": 1054,
      "ization": 1055,
      "ause": 1056,
      "sequence": 1057,
      "AG": 1058,
      "mer": 1059,
      "predic": 1060,
      "showed": 1061,
      "some": 1062,
      "ition": 1063,
      "zed": 1064,
      "molec": 1065,
      "ew": 1066,
      "detec": 1067,
      "after": 1068,
      "affec": 1069,
      "pop": 1070,
      "known": 1071,
      "ired": 1072,
      "cat": 1073,
      "ack": 1074,
      "RAF": 1075,
      "BRAF": 1076,
      "arge": 1077,
      "response": 1078,
      "gener": 1079,
      "40": 1080,
      "dy": 1081,
      "anis": 1082,
      "site": 1083,
      "disease": 1084,
      "assays": 1085,
      "fr": 1086,
      "ily": 1087,
      "classi": 1088,
      "compared": 1089,
      "prol": 1090,
      "FGFR": 1091,
      "eno": 1092,
      "zy": 1093,
      "vitro": 1094,
      "bin": 1095,
      "100": 1096,
      "23": 1097,
      "samples": 1098,
      "28": 1099,
      "antibo": 1100,
      "tide": 1101,
      "sh": 1102,
      "active": 1103,
      "lic": 1104,
      "echanis": 1105,
      "expressing": 1106,
      "perim": 1107,
      "US": 1108,
      "including": 1109,
      "ses": 1110,
      "promo": 1111,
      "ear": 1112,
      "rou": 1113,
      "PCR": 1114,
      "performed": 1115,
      "37": 1116,
      "elan": 1117,
      "fusion": 1118,
      "%)": 1119,
      "FL": 1120,
      "However": 1121,
      "patho": 1122,
      "similar": 1123,
      "cre": 1124,
      "mechanis": 1125,
      "iqu": 1126,
      "MS": 1127,
      "variant": 1128,
      "down": 1129,
      "od": 1130,
      "prolifer": 1131,
      "cul": 1132,
      "group": 1133,
      "ET": 1134,
      "ency": 1135,
      "structure": 1136,
      "set": 1137,
      "ei": 1138,
      "loss": 1139,
      "test": 1140,
      "substitu": 1141,
      "missense": 1142,
      "acter": 1143,
      "ited": 1144,
      "alter": 1145,
      "As": 1146,
      "mice": 1147,
      "itinib": 1148,
      "ung": 1149,
      "melan": 1150,
      "ful": 1151,
      "har": 1152,
      "appro": 1153,
      "Cell": 1154,
      "prog": 1155,
      "ll": 1156,
      "ral": 1157,
      "H2": 1158,
      "his": 1159,
      "rosine": 1160,
      "For": 1161,
      "genetic": 1162,
      "increased": 1163,
      "patient": 1164,
      "plic": 1165,
      "rough": 1166,
      "br": 1167,
      "suppres": 1168,
      "mem": 1169,
      "ep": 1170,
      "cyto": 1171,
      "char": 1172,
      "tyrosine": 1173,
      "rent": 1174,
      "effect": 1175,
      "59": 1176,
      "combin": 1177,
      "within": 1178,
      "comp": 1179,
      "60": 1180,
      "invol": 1181,
      "based": 1182,
      "occur": 1183,
      "direc": 1184,
      "therap": 1185,
      "logy": 1186,
      "inhibitors": 1187,
      "could": 1188,
      "follow": 1189,
      "family": 1190,
      "cancers": 1191,
      "OR": 1192,
      "experim": 1193,
      "ove": 1194,
      "clon": 1195,
      "tero": 1196,
      "ger": 1197,
      "D1": 1198,
      "ial": 1199,
      "divid": 1200,
      "lig": 1201,
      "independent": 1202,
      "transfected": 1203,
      "selec": 1204,
      "LC": 1205,
      "breast": 1206,
      "ris": 1207,
      "lym": 1208,
      "character": 1209,
      "respec": 1210,
      "est": 1211,
      "either": 1212,
      "likely": 1213,
      "role": 1214,
      "pos": 1215,
      "import": 1216,
      "sequencing": 1217,
      "47": 1218,
      "ibu": 1219,
      "secon": 1220,
      "H1": 1221,
      "expressed": 1222,
      "ark": 1223,
      "ard": 1224,
      "mutated": 1225,
      "85": 1226,
      "tained": 1227,
      "lung": 1228,
      "TSC": 1229,
      "through": 1230,
      "ecause": 1231,
      "ffic": 1232,
      "presence": 1233,
      "hetero": 1234,
      "ential": 1235,
      "domains": 1236,
      "my": 1237,
      "assess": 1238,
      "loop": 1239,
      "veral": 1240,
      "sm": 1241,
      "second": 1242,
      "survi": 1243,
      "An": 1244,
      "interaction": 1245,
      "che": 1246,
      "omo": 1247,
      "Ex": 1248,
      "sive": 1249,
      "33": 1250,
      "multi": 1251,
      "common": 1252,
      "types": 1253,
      "esti": 1254,
      "omas": 1255,
      "..": 1256,
      "strate": 1257,
      "MEK": 1258,
      "tivity": 1259,
      "ten": 1260,
      "induced": 1261,
      "IC": 1262,
      "dividu": 1263,
      "ene": 1264,
      "fication": 1265,
      "48": 1266,
      "trac": 1267,
      "ces": 1268,
      "small": 1269,
      "46": 1270,
      "demon": 1271,
      "os": 1272,
      "inhibition": 1273,
      "main": 1274,
      "PDGFR": 1275,
      "terminal": 1276,
      "tical": 1277,
      "ures": 1278,
      "treated": 1279,
      "syn": 1280,
      "point": 1281,
      "sor": 1282,
      "containing": 1283,
      "TC": 1284,
      "tent": 1285,
      "32": 1286,
      "ded": 1287,
      "play": 1288,
      "IN": 1289,
      "mat": 1290,
      "survival": 1291,
      "hel": 1292,
      "Con": 1293,
      "F3": 1294,
      "those": 1295,
      "sible": 1296,
      "effects": 1297,
      "ished": 1298,
      "individu": 1299,
      "ERK": 1300,
      "there": 1301,
      "proliferation": 1302,
      "36": 1303,
      "detected": 1304,
      "S1": 1305,
      "met": 1306,
      "ev": 1307,
      "Not": 1308,
      "who": 1309,
      "did": 1310,
      "ins": 1311,
      "homo": 1312,
      "dro": 1313,
      "NF": 1314,
      "related": 1315,
      "uk": 1316,
      "indicated": 1317,
      "load": 1318,
      "confir": 1319,
      "ified": 1320,
      "ector": 1321,
      "ix": 1322,
      "3K": 1323,
      "further": 1324,
      "tissu": 1325,
      "whereas": 1326,
      "ile": 1327,
      "ected": 1328,
      "vo": 1329,
      "ably": 1330,
      "ture": 1331,
      "analyzed": 1332,
      "SP": 1333,
      "dec": 1334,
      "terious": 1335,
      "therapy": 1336,
      "fer": 1337,
      "cess": 1338,
      "stem": 1339,
      "pair": 1340,
      "primary": 1341,
      "ification": 1342,
      "ient": 1343,
      "tumour": 1344,
      "splic": 1345,
      "phosph": 1346,
      "GA": 1347,
      "centr": 1348,
      "neg": 1349,
      "ural": 1350,
      "ities": 1351,
      "progres": 1352,
      "80": 1353,
      "K3": 1354,
      "same": 1355,
      "cal": 1356,
      "ments": 1357,
      "imatinib": 1358,
      "ample": 1359,
      "fe": 1360,
      "lead": 1361,
      "activating": 1362,
      "49": 1363,
      "romo": 1364,
      "positive": 1365,
      "VUS": 1366,
      "reve": 1367,
      "bran": 1368,
      "refore": 1369,
      "rug": 1370,
      "45": 1371,
      "logical": 1372,
      "phospho": 1373,
      "42": 1374,
      "39": 1375,
      "Do": 1376,
      "stre": 1377,
      "direct": 1378,
      "ived": 1379,
      "tro": 1380,
      "activated": 1381,
      "Re": 1382,
      "first": 1383,
      "determin": 1384,
      "carcin": 1385,
      "omic": 1386,
      "SM": 1387,
      "70": 1388,
      "consis": 1389,
      "side": 1390,
      "ck": 1391,
      "development": 1392,
      "CDK": 1393,
      "BL": 1394,
      "allel": 1395,
      "less": 1396,
      "HL": 1397,
      "molecular": 1398,
      "oncogenic": 1399,
      "whether": 1400,
      "when": 1401,
      "significantly": 1402,
      "omatic": 1403,
      "class": 1404,
      "respectively": 1405,
      "genesis": 1406,
      "Pro": 1407,
      "important": 1408,
      "equ": 1409,
      "SD": 1410,
      "vector": 1411,
      "fin": 1412,
      "abl": 1413,
      "serv": 1414,
      "All": 1415,
      "AKT": 1416,
      "deletion": 1417,
      "several": 1418,
      "then": 1419,
      "pheno": 1420,
      "exp": 1421,
      "drug": 1422,
      "prob": 1423,
      "part": 1424,
      "75": 1425,
      "BC": 1426,
      "melanoma": 1427,
      "hydro": 1428,
      "resistant": 1429,
      "mark": 1430,
      "Im": 1431,
      "bi": 1432,
      "rease": 1433,
      "very": 1434,
      "again": 1435,
      "2A": 1436,
      "38": 1437,
      "reveal": 1438,
      "fitinib": 1439,
      "90": 1440,
      "AC": 1441,
      "single": 1442,
      "pep": 1443,
      "cataly": 1444,
      "pression": 1445,
      "76": 1446,
      "Although": 1447,
      "dri": 1448,
      "ature": 1449,
      "avail": 1450,
      "cellular": 1451,
      "TOR": 1452,
      "evid": 1453,
      "Cancer": 1454,
      "range": 1455,
      "position": 1456,
      "ented": 1457,
      "sensitivity": 1458,
      "transcriptional": 1459,
      "BRCT": 1460,
      "state": 1461,
      "constitu": 1462,
      "000": 1463,
      "Down": 1464,
      "large": 1465,
      "eng": 1466,
      "negative": 1467,
      "thyl": 1468,
      "B2": 1469,
      "popto": 1470,
      "KRAS": 1471,
      "abs": 1472,
      "total": 1473,
      "lan": 1474,
      "ubiqu": 1475,
      "don": 1476,
      "atic": 1477,
      "31": 1478,
      "OP": 1479,
      "cDNA": 1480,
      "mM": 1481,
      "alterations": 1482,
      "stimul": 1483,
      "Res": 1484,
      "regulation": 1485,
      "ID": 1486,
      "four": 1487,
      "produc": 1488,
      "stream": 1489,
      "Tr": 1490,
      "V6": 1491,
      "action": 1492,
      "leuk": 1493,
      "stand": 1494,
      "concentr": 1495,
      "contrast": 1496,
      "changes": 1497,
      "ately": 1498,
      "tested": 1499,
      "chromo": 1500,
      "mid": 1501,
      "agg": 1502,
      "face": 1503,
      "antibody": 1504,
      "MC": 1505,
      "NSC": 1506,
      "residue": 1507,
      "56": 1508,
      "poly": 1509,
      "coun": 1510,
      "apopto": 1511,
      "PIK3": 1512,
      "demonstr": 1513,
      "cop": 1514,
      "GI": 1515,
      "gre": 1516,
      "ox": 1517,
      "mediated": 1518,
      "obtained": 1519,
      "meas": 1520,
      "finding": 1521,
      "available": 1522,
      "against": 1523,
      "Ch": 1524,
      "new": 1525,
      "FLT3": 1526,
      "suggest": 1527,
      "Cl": 1528,
      "Ne": 1529,
      "bor": 1530,
      "ouse": 1531,
      "somatic": 1532,
      "Download": 1533,
      "because": 1534,
      "sity": 1535,
      "thods": 1536,
      "ow": 1537,
      "recip": 1538,
      "multiple": 1539,
      "result": 1540,
      "It": 1541,
      "On": 1542,
      "ite": 1543,
      "use": 1544,
      "sites": 1545,
      "HER": 1546,
      "enco": 1547,
      "gefitinib": 1548,
      "they": 1549,
      "examin": 1550,
      "differenti": 1551,
      "amplification": 1552,
      "wor": 1553,
      "pathogenic": 1554,
      "Un": 1555,
      "sequences": 1556,
      "additional": 1557,
      "IH": 1558,
      "sol": 1559,
      "risk": 1560,
      "any": 1561,
      "membran": 1562,
      "jor": 1563,
      "fy": 1564,
      "fold": 1565,
      "represent": 1566,
      "experiments": 1567,
      "utral": 1568,
      "cer": 1569,
      "vivo": 1570,
      "king": 1571,
      "ulation": 1572,
      "S2": 1573,
      "MAP": 1574,
      "flu": 1575,
      "rome": 1576,
      "inser": 1577,
      "major": 1578,
      "strong": 1579,
      "PR": 1580,
      "ie": 1581,
      "determined": 1582,
      "phosphorylated": 1583,
      "dimer": 1584,
      "defec": 1585,
      "pathways": 1586,
      "higher": 1587,
      "local": 1588,
      "JAK": 1589,
      "bu": 1590,
      "day": 1591,
      "rex": 1592,
      "xim": 1593,
      "recipit": 1594,
      "creen": 1595,
      "extrac": 1596,
      "GG": 1597,
      "Our": 1598,
      "intr": 1599,
      "catalytic": 1600,
      "ke": 1601,
      "pan": 1602,
      "61": 1603,
      "derived": 1604,
      "HE": 1605,
      "ving": 1606,
      "atory": 1607,
      "bil": 1608,
      "dist": 1609,
      "He": 1610,
      "reduced": 1611,
      "progression": 1612,
      "go": 1613,
      "teres": 1614,
      "compar": 1615,
      "ater": 1616,
      "cyclin": 1617,
      "many": 1618,
      "potential": 1619,
      "pur": 1620,
      "IF": 1621,
      "might": 1622,
      "estig": 1623,
      "evidence": 1624,
      "itin": 1625,
      "tran": 1626,
      "induc": 1627,
      "GFP": 1628,
      "NSCLC": 1629,
      "mes": 1630,
      "tain": 1631,
      "suggesting": 1632,
      "would": 1633,
      "try": 1634,
      "57": 1635,
      "BRCA2": 1636,
      "deleterious": 1637,
      "blas": 1638,
      "genomic": 1639,
      "mouse": 1640,
      "PDGFRA": 1641,
      "ligand": 1642,
      "PI3K": 1643,
      "St": 1644,
      "Pa": 1645,
      "allele": 1646,
      "investig": 1647,
      "correspon": 1648,
      "cording": 1649,
      "bind": 1650,
      "methyl": 1651,
      "stability": 1652,
      "Notch": 1653,
      "sensitive": 1654,
      "onic": 1655,
      "initi": 1656,
      "Br": 1657,
      "ze": 1658,
      "diag": 1659,
      "required": 1660,
      "G12": 1661,
      "GTP": 1662,
      "Ac": 1663,
      "term": 1664,
      "GIST": 1665,
      "revealed": 1666,
      "led": 1667,
      "Ba": 1668,
      "mTOR": 1669,
      "codon": 1670,
      "like": 1671,
      "conformation": 1672,
      "partic": 1673,
      "promoter": 1674,
      "ogen": 1675,
      "moti": 1676,
      "screen": 1677,
      "und": 1678,
      "tri": 1679,
      "change": 1680,
      "Ak": 1681,
      "bio": 1682,
      "enzy": 1683,
      "110": 1684,
      "Me": 1685,
      "famil": 1686,
      "time": 1687,
      "sus": 1688,
      "Thus": 1689,
      "evalu": 1690,
      "NP": 1691,
      "otide": 1692,
      "without": 1693,
      "TKI": 1694,
      "Ser": 1695,
      "ext": 1696,
      "overex": 1697,
      "58": 1698,
      "mechanism": 1699,
      "colon": 1700,
      "frequency": 1701,
      "],": 1702,
      "Bio": 1703,
      "will": 1704,
      "ubiquitin": 1705,
      "metast": 1706,
      "VHL": 1707,
      "HER2": 1708,
      "lack": 1709,
      "AD": 1710,
      "ry": 1711,
      "view": 1712,
      "Akt": 1713,
      "pat": 1714,
      "uring": 1715,
      "ude": 1716,
      "structural": 1717,
      "B1": 1718,
      "AML": 1719,
      "41": 1720,
      "highly": 1721,
      "ths": 1722,
      "aden": 1723,
      "ide": 1724,
      "increase": 1725,
      "uro": 1726,
      "ens": 1727,
      "atin": 1728,
      "case": 1729,
      "tissue": 1730,
      "core": 1731,
      "duced": 1732,
      "enh": 1733,
      "due": 1734,
      "SPOP": 1735,
      "Further": 1736,
      "Er": 1737,
      "atus": 1738,
      "tinib": 1739,
      "germ": 1740,
      "histo": 1741,
      "ogenous": 1742,
      "rate": 1743,
      "MD": 1744,
      "gi": 1745,
      "emia": 1746,
      "provid": 1747,
      "substitution": 1748,
      "RE": 1749,
      "diagno": 1750,
      "clear": 1751,
      "Raf": 1752,
      "ito": 1753,
      "year": 1754,
      "carri": 1755,
      "ys": 1756,
      "conserved": 1757,
      "absence": 1758,
      "defin": 1759,
      "gous": 1760,
      "NIH": 1761,
      "examined": 1762,
      "involved": 1763,
      "blot": 1764,
      "effic": 1765,
      "S6": 1766,
      "peptide": 1767,
      "interactions": 1768,
      "Met": 1769,
      "ner": 1770,
      "lys": 1771,
      "rup": 1772,
      "posed": 1773,
      "complete": 1774,
      "membrane": 1775,
      "74": 1776,
      "nuclear": 1777,
      "xt": 1778,
      "exons": 1779,
      "Ar": 1780,
      "estern": 1781,
      "mechanisms": 1782,
      "predicted": 1783,
      "las": 1784,
      "least": 1785,
      "fig": 1786,
      "appe": 1787,
      "construc": 1788,
      "incub": 1789,
      "consistent": 1790,
      "myel": 1791,
      "anced": 1792,
      "motif": 1793,
      "contribu": 1794,
      "PA": 1795,
      "copy": 1796,
      "synd": 1797,
      "ull": 1798,
      "confirmed": 1799,
      "repe": 1800,
      "mol": 1801,
      "unc": 1802,
      "TSC2": 1803,
      "ERB": 1804,
      "acids": 1805,
      "RT": 1806,
      "99": 1807,
      "err": 1808,
      "hots": 1809,
      "CO": 1810,
      "downstream": 1811,
      "tered": 1812,
      "vide": 1813,
      "demonstrated": 1814,
      "status": 1815,
      "org": 1816,
      "observ": 1817,
      "ational": 1818,
      "thor": 1819,
      "p16": 1820,
      "affected": 1821,
      "ATP": 1822,
      "51": 1823,
      "TT": 1824,
      "ks": 1825,
      "tory": 1826,
      "antibodies": 1827,
      "substitutions": 1828,
      "ocy": 1829,
      "ains": 1830,
      "utic": 1831,
      "malign": 1832,
      "gl": 1833,
      "following": 1834,
      "top": 1835,
      "IL": 1836,
      "ped": 1837,
      "located": 1838,
      "alleles": 1839,
      "vis": 1840,
      "panel": 1841,
      "according": 1842,
      "ww": 1843,
      "provide": 1844,
      "zo": 1845,
      "Go": 1846,
      "D8": 1847,
      "suppressor": 1848,
      "affect": 1849,
      "lower": 1850,
      "Mo": 1851,
      "factors": 1852,
      "where": 1853,
      "recur": 1854,
      "row": 1855,
      "bound": 1856,
      "oprecipit": 1857,
      "ye": 1858,
      "kinases": 1859,
      "rich": 1860,
      "ian": 1861,
      "display": 1862,
      "43": 1863,
      "ked": 1864,
      "PIK3CA": 1865,
      "combination": 1866,
      "aff": 1867,
      "ape": 1868,
      "harbor": 1869,
      "analyses": 1870,
      "ves": 1871,
      "1A": 1872,
      "STAT": 1873,
      "apoptosis": 1874,
      "regulated": 1875,
      "lim": 1876,
      "phenotype": 1877,
      "phosphat": 1878,
      "regions": 1879,
      "among": 1880,
      "TR": 1881,
      "apeutic": 1882,
      "rele": 1883,
      "verse": 1884,
      "atively": 1885,
      "therefore": 1886,
      "correl": 1887,
      "p110": 1888,
      "mRNA": 1889,
      "auto": 1890,
      "disrup": 1891,
      "95": 1892,
      "bility": 1893,
      "Mutations": 1894,
      "exhib": 1895,
      "so": 1896,
      "termine": 1897,
      "process": 1898,
      "hort": 1899,
      "classified": 1900,
      "FI": 1901,
      "determine": 1902,
      "months": 1903,
      "system": 1904,
      "Le": 1905,
      "arch": 1906,
      "SH": 1907,
      "identify": 1908,
      "relative": 1909,
      "den": 1910,
      "teresting": 1911,
      "transfection": 1912,
      "values": 1913,
      "findings": 1914,
      "cycle": 1915,
      "read": 1916,
      "models": 1917,
      "distinc": 1918,
      "tric": 1919,
      "reco": 1920,
      "GS": 1921,
      "indicate": 1922,
      "68": 1923,
      "vant": 1924,
      "arcin": 1925,
      "ml": 1926,
      "pub": 1927,
      "varian": 1928,
      "tribu": 1929,
      "MET": 1930,
      "yr": 1931,
      "plasmid": 1932,
      "affin": 1933,
      "Wh": 1934,
      "uce": 1935,
      "therapeutic": 1936,
      "ution": 1937,
      "cry": 1938,
      "lab": 1939,
      "Se": 1940,
      "pri": 1941,
      "see": 1942,
      "TGF": 1943,
      "toma": 1944,
      "MP": 1945,
      "rap": 1946,
      "BP": 1947,
      "mical": 1948,
      "54": 1949,
      "III": 1950,
      "duction": 1951,
      "ize": 1952,
      "ocarcin": 1953,
      "novel": 1954,
      "buff": 1955,
      "information": 1956,
      "KD": 1957,
      "secondary": 1958,
      "possible": 1959,
      "individuals": 1960,
      "activate": 1961,
      "although": 1962,
      "ross": 1963,
      "pen": 1964,
      "K4": 1965,
      "hypo": 1966,
      "deletions": 1967,
      "theli": 1968,
      "293": 1969,
      "NO": 1970,
      "gether": 1971,
      "ise": 1972,
      "tem": 1973,
      "oid": 1974,
      "tures": 1975,
      "classification": 1976,
      "Com": 1977,
      "included": 1978,
      "TP": 1979,
      "full": 1980,
      "leng": 1981,
      "distinct": 1982,
      "atis": 1983,
      "approach": 1984,
      "trunc": 1985,
      "tics": 1986,
      "ang": 1987,
      "resc": 1988,
      "Cells": 1989,
      "Ma": 1990,
      "AA": 1991,
      "Gen": 1992,
      "controls": 1993,
      "requi": 1994,
      "allow": 1995,
      "serum": 1996,
      "while": 1997,
      "zygous": 1998,
      "My": 1999,
      "substrate": 2000,
      "les": 2001,
      "tail": 2002,
      "here": 2003,
      "96": 2004,
      "repair": 2005,
      "immunoprecipit": 2006,
      "98": 2007,
      "44": 2008,
      "FA": 2009,
      "carcinoma": 2010,
      "Smad4": 2011,
      "oche": 2012,
      "germline": 2013,
      "phosphatase": 2014,
      "imp": 2015,
      "jec": 2016,
      "mg": 2017,
      "ured": 2018,
      "FGFR2": 2019,
      "generated": 2020,
      "expected": 2021,
      "77": 2022,
      "52": 2023,
      "splicing": 2024,
      "excl": 2025,
      "E2": 2026,
      "subun": 2027,
      "66": 2028,
      "seg": 2029,
      "repres": 2030,
      "NC": 2031,
      "repeat": 2032,
      "argeted": 2033,
      "SR": 2034,
      "overall": 2035,
      "families": 2036,
      "rare": 2037,
      "rati": 2038,
      "lished": 2039,
      "igen": 2040,
      "De": 2041,
      "ison": 2042,
      "yeast": 2043,
      "atures": 2044,
      "characterized": 2045,
      "appear": 2046,
      "ras": 2047,
      "vir": 2048,
      "cap": 2049,
      "ci": 2050,
      "HT": 2051,
      "IT": 2052,
      "adenocarcin": 2053,
      "ue": 2054,
      "tin": 2055,
      "prof": 2056,
      "sample": 2057,
      "89": 2058,
      "ovarian": 2059,
      "clus": 2060,
      "particular": 2061,
      "Western": 2062,
      "leukemia": 2063,
      "Au": 2064,
      "ju": 2065,
      "length": 2066,
      "syndrome": 2067,
      "differences": 2068,
      "omal": 2069,
      "parti": 2070,
      "zotinib": 2071,
      "MAPK": 2072,
      "transi": 2073,
      "phase": 2074,
      "possi": 2075,
      "IP": 2076,
      "MY": 2077,
      "bry": 2078,
      "inant": 2079,
      "suggests": 2080,
      "JAK2": 2081,
      "nucleotide": 2082,
      "mm": 2083,
      "staining": 2084,
      "Af": 2085,
      "2011": 2086,
      "five": 2087,
      "buffer": 2088,
      "mam": 2089,
      "hyper": 2090,
      "GC": 2091,
      "bon": 2092,
      "helix": 2093,
      "grad": 2094,
      "55": 2095,
      "μg": 2096,
      "...": 2097,
      "pattern": 2098,
      "MR": 2099,
      "resulting": 2100,
      "PP": 2101,
      "HA": 2102,
      "text": 2103,
      "ata": 2104,
      "directly": 2105,
      "during": 2106,
      "targeted": 2107,
      "ild": 2108,
      "transform": 2109,
      "individual": 2110,
      "recogn": 2111,
      "63": 2112,
      "lotinib": 2113,
      "table": 2114,
      "constructs": 2115,
      "nec": 2116,
      "S3": 2117,
      "ands": 2118,
      "association": 2119,
      "endogenous": 2120,
      "cryst": 2121,
      "Po": 2122,
      "thy": 2123,
      "orph": 2124,
      "corresponding": 2125,
      "order": 2126,
      "bloc": 2127,
      "current": 2128,
      "embry": 2129,
      "Furthermore": 2130,
      "transformation": 2131,
      "clo": 2132,
      "More": 2133,
      "ties": 2134,
      "Gene": 2135,
      "free": 2136,
      "ill": 2137,
      "various": 2138,
      ");": 2139,
      "ellular": 2140,
      "establ": 2141,
      "lysis": 2142,
      "rear": 2143,
      "inal": 2144,
      "member": 2145,
      "hour": 2146,
      "defined": 2147,
      "Analy": 2148,
      "Brca": 2149,
      "thus": 2150,
      "selected": 2151,
      "terestingly": 2152,
      "After": 2153,
      "tech": 2154,
      "GD": 2155,
      "HD": 2156,
      "medium": 2157,
      "clonal": 2158,
      "3T3": 2159,
      "2006": 2160,
      "Methods": 2161,
      "lymph": 2162,
      "fore": 2163,
      "neutral": 2164,
      "mean": 2165,
      "size": 2166,
      "BS": 2167,
      "recently": 2168,
      "years": 2169,
      "expl": 2170,
      "fail": 2171,
      "reporter": 2172,
      "Ad": 2173,
      "groups": 2174,
      "surface": 2175,
      "crizotinib": 2176,
      "should": 2177,
      "tumorigen": 2178,
      "quanti": 2179,
      "put": 2180,
      "above": 2181,
      "calcul": 2182,
      "critical": 2183,
      "valid": 2184,
      "ults": 2185,
      "incubated": 2186,
      "IC50": 2187,
      "however": 2188,
      "aberr": 2189,
      "72": 2190,
      "micro": 2191,
      "figure": 2192,
      "Pati": 2193,
      "confer": 2194,
      "experiment": 2195,
      "functions": 2196,
      "gain": 2197,
      "example": 2198,
      "mediate": 2199,
      "assessed": 2200,
      "remain": 2201,
      "days": 2202,
      "TA": 2203,
      "Interestingly": 2204,
      "ade": 2205,
      "PC": 2206,
      "chromosome": 2207,
      "paired": 2208,
      "rem": 2209,
      "targeting": 2210,
      "ane": 2211,
      "does": 2212,
      "2B": 2213,
      "ules": 2214,
      "concentrations": 2215,
      "Rec": 2216,
      "box": 2217,
      "logic": 2218,
      "C1": 2219,
      "reduc": 2220,
      "dam": 2221,
      "imens": 2222,
      "foc": 2223,
      "population": 2224,
      "ray": 2225,
      "induce": 2226,
      "78": 2227,
      "gel": 2228,
      "tt": 2229,
      "measured": 2230,
      "Ass": 2231,
      "blo": 2232,
      "oblot": 2233,
      "f2": 2234,
      "history": 2235,
      "tumours": 2236,
      "enin": 2237,
      "Co": 2238,
      "DD": 2239,
      "matic": 2240,
      "GAP": 2241,
      "acc": 2242,
      "indicating": 2243,
      "grap": 2244,
      "amplified": 2245,
      "BD": 2246,
      "lap": 2247,
      "inhibited": 2248,
      "knock": 2249,
      "thesis": 2250,
      "colo": 2251,
      "BCL": 2252,
      "2013": 2253,
      "Erb": 2254,
      "tegr": 2255,
      "suffic": 2256,
      "pec": 2257,
      "altern": 2258,
      "six": 2259,
      "cus": 2260,
      "carry": 2261,
      "PIP": 2262,
      "MA": 2263,
      "ically": 2264,
      "ged": 2265,
      "RO": 2266,
      "acqu": 2267,
      "together": 2268,
      "stable": 2269,
      "Smad2": 2270,
      "BM": 2271,
      "back": 2272,
      "long": 2273,
      "69": 2274,
      "′-": 2275,
      "Arg": 2276,
      "Brca1": 2277,
      "splice": 2278,
      "immuno": 2279,
      "enzyme": 2280,
      "sin": 2281,
      "Smad3": 2282,
      "activities": 2283,
      "cluster": 2284,
      "frag": 2285,
      "resulted": 2286,
      "gli": 2287,
      "frequently": 2288,
      "TP53": 2289,
      "syste": 2290,
      "tides": 2291,
      "larg": 2292,
      "Tw": 2293,
      "even": 2294,
      "ditions": 2295,
      "thelial": 2296,
      "increas": 2297,
      "hours": 2298,
      "jected": 2299,
      "cript": 2300,
      "HR": 2301,
      "catenin": 2302,
      "INK4": 2303,
      "One": 2304,
      "modi": 2305,
      "plac": 2306,
      "HIF": 2307,
      "published": 2308,
      "conditions": 2309,
      "PF": 2310,
      "ofor": 2311,
      "NOTC": 2312,
      "orig": 2313,
      "version": 2314,
      "rectal": 2315,
      "proper": 2316,
      "chemo": 2317,
      "significance": 2318,
      "cas": 2319,
      "degrad": 2320,
      "Vi": 2321,
      "67": 2322,
      "Trans": 2323,
      "work": 2324,
      "regulatory": 2325,
      "ith": 2326,
      "Str": 2327,
      "developed": 2328,
      "MYC": 2329,
      "wt": 2330,
      "forms": 2331,
      "datab": 2332,
      "features": 2333,
      "trial": 2334,
      "neuro": 2335,
      "IV": 2336,
      "clones": 2337,
      "64": 2338,
      "2010": 2339,
      "metho": 2340,
      "Dis": 2341,
      "overexpression": 2342,
      "targets": 2343,
      "ased": 2344,
      "receptors": 2345,
      "encoding": 2346,
      "SA": 2347,
      "before": 2348,
      "decreased": 2349,
      "SU": 2350,
      "seen": 2351,
      "300": 2352,
      "Fl": 2353,
      "Therefore": 2354,
      "caus": 2355,
      "Results": 2356,
      "portion": 2357,
      "V600": 2358,
      "fl": 2359,
      "ift": 2360,
      "value": 2361,
      "Bo": 2362,
      "recurrent": 2363,
      "localization": 2364,
      "ions": 2365,
      "TSC1": 2366,
      "65": 2367,
      "RET": 2368,
      "MEK1": 2369,
      "tom": 2370,
      "HEK": 2371,
      "son": 2372,
      "88": 2373,
      "Asp": 2374,
      "pots": 2375,
      "early": 2376,
      "followed": 2377,
      "2C": 2378,
      "crystal": 2379,
      "map": 2380,
      "inactive": 2381,
      "Val": 2382,
      "ages": 2383,
      "ALL": 2384,
      "disco": 2385,
      "defic": 2386,
      "dest": 2387,
      "cause": 2388,
      "implic": 2389,
      "mutational": 2390,
      "characteris": 2391,
      "estim": 2392,
      "location": 2393,
      "majority": 2394,
      "Sim": 2395,
      "inally": 2396,
      "impact": 2397,
      "chain": 2398,
      "muta": 2399,
      "ice": 2400,
      "sidered": 2401,
      "ratio": 2402,
      "Myc": 2403,
      "ath": 2404,
      "considered": 2405,
      "star": 2406,
      "intro": 2407,
      "wee": 2408,
      "Author": 2409,
      "Of": 2410,
      "integr": 2411,
      "complexes": 2412,
      "tribution": 2413,
      "arrow": 2414,
      "FGFR3": 2415,
      "lysates": 2416,
      "regation": 2417,
      "being": 2418,
      "ximately": 2419,
      "basis": 2420,
      "radi": 2421,
      "ino": 2422,
      "Med": 2423,
      "phosphate": 2424,
      "ng": 2425,
      "isofor": 2426,
      "prostate": 2427,
      "olig": 2428,
      "NF1": 2429,
      "recent": 2430,
      "her": 2431,
      "uch": 2432,
      "agged": 2433,
      "Nr": 2434,
      "via": 2435,
      "harboring": 2436,
      "K1": 2437,
      "suppor": 2438,
      "suggested": 2439,
      "constitutive": 2440,
      "Nrf2": 2441,
      "AP1": 2442,
      "statis": 2443,
      "lymorph": 2444,
      "gu": 2445,
      "05": 2446,
      "71": 2447,
      "rearrange": 2448,
      "bone": 2449,
      "Analysis": 2450,
      "isol": 2451,
      "alone": 2452,
      "bp": 2453,
      "Man": 2454,
      "mor": 2455,
      "His": 2456,
      "858": 2457,
      "EGF": 2458,
      "62": 2459,
      "gor": 2460,
      "ring": 2461,
      "confirm": 2462,
      "fib": 2463,
      "died": 2464,
      "showing": 2465,
      "compon": 2466,
      "frame": 2467,
      "Immun": 2468,
      "require": 2469,
      "3A": 2470,
      "ward": 2471,
      "need": 2472,
      "omer": 2473,
      "ive": 2474,
      "colorectal": 2475,
      "olution": 2476,
      "p110α": 2477,
      "ucifer": 2478,
      "transl": 2479,
      "neo": 2480,
      "2005": 2481,
      "proto": 2482,
      "report": 2483,
      "2008": 2484,
      "epi": 2485,
      "ality": 2486,
      "concentration": 2487,
      "review": 2488,
      "aken": 2489,
      "abol": 2490,
      "certain": 2491,
      "uciferase": 2492,
      "structures": 2493,
      "Dele": 2494,
      "tol": 2495,
      "coding": 2496,
      "dou": 2497,
      "Similar": 2498,
      "verage": 2499,
      "tagged": 2500,
      "plied": 2501,
      "2012": 2502,
      "gram": 2503,
      "match": 2504,
      "given": 2505,
      "Moreover": 2506,
      "06": 2507,
      "CI": 2508,
      "Ap": 2509,
      "subunit": 2510,
      "mac": 2511,
      "vers": 2512,
      "Sequ": 2513,
      "tional": 2514,
      "affinity": 2515,
      "stabil": 2516,
      "SMAD": 2517,
      "erlotinib": 2518,
      "comparison": 2519,
      "uscript": 2520,
      "sof": 2521,
      "differentiation": 2522,
      "align": 2523,
      "light": 2524,
      "fil": 2525,
      "altered": 2526,
      "amine": 2527,
      "MT": 2528,
      "tur": 2529,
      "subsequ": 2530,
      "genome": 2531,
      "primers": 2532,
      "tissues": 2533,
      "lip": 2534,
      "OH": 2535,
      "upon": 2536,
      "polymorph": 2537,
      "Sign": 2538,
      "alternative": 2539,
      "%,": 2540,
      "Tyr": 2541,
      "Because": 2542,
      "adenocarcinoma": 2543,
      "S4": 2544,
      "ker": 2545,
      "Tum": 2546,
      "fusions": 2547,
      "standard": 2548,
      "2000": 2549,
      "degradation": 2550,
      "ON": 2551,
      "homolog": 2552,
      "shows": 2553,
      "method": 2554,
      "kit": 2555,
      "1B": 2556,
      "members": 2557,
      "Figures": 2558,
      "contains": 2559,
      "enhanced": 2560,
      "difference": 2561,
      "methods": 2562,
      "Prote": 2563,
      "tra": 2564,
      "key": 2565,
      "TKIs": 2566,
      "signals": 2567,
      "about": 2568,
      "dose": 2569,
      "prior": 2570,
      "cho": 2571,
      "bel": 2572,
      "wash": 2573,
      "73": 2574,
      "1997": 2575,
      "siRNA": 2576,
      "infec": 2577,
      "include": 2578,
      "events": 2579,
      "excep": 2580,
      "gly": 2581,
      "emp": 2582,
      "purified": 2583,
      "PK": 2584,
      "2004": 2585,
      "reaction": 2586,
      "stained": 2587,
      "tured": 2588,
      "database": 2589,
      "amoun": 2590,
      "series": 2591,
      "p21": 2592,
      "HCC": 2593,
      "subset": 2594,
      "manu": 2595,
      "aneous": 2596,
      "deed": 2597,
      "caused": 2598,
      "methylation": 2599,
      "leading": 2600,
      "ables": 2601,
      "fact": 2602,
      "unknown": 2603,
      "understand": 2604,
      "times": 2605,
      "2007": 2606,
      "established": 2607,
      "ique": 2608,
      "essential": 2609,
      "immunoblot": 2610,
      "bar": 2611,
      "platin": 2612,
      "sufficient": 2613,
      "versity": 2614,
      "malian": 2615,
      "specificity": 2616,
      "percent": 2617,
      "ism": 2618,
      "LS": 2619,
      "old": 2620,
      "92": 2621,
      "compound": 2622,
      "specimens": 2623,
      "blood": 2624,
      "L858": 2625,
      "cis": 2626,
      "hemat": 2627,
      "ax": 2628,
      "View": 2629,
      "calculated": 2630,
      "median": 2631,
      "ES": 2632,
      "p85": 2633,
      "bic": 2634,
      "aro": 2635,
      "V600E": 2636,
      "marked": 2637,
      "hood": 2638,
      "imer": 2639,
      "responses": 2640,
      "them": 2641,
      "terminus": 2642,
      "Expression": 2643,
      "carried": 2644,
      "ule": 2645,
      "ef": 2646,
      "esis": 2647,
      "ended": 2648,
      "contribute": 2649,
      "At": 2650,
      "lympho": 2651,
      "insertion": 2652,
      "ft": 2653,
      "approximately": 2654,
      "ycin": 2655,
      "p16INK4": 2656,
      "enter": 2657,
      "image": 2658,
      "//": 2659,
      "dimerization": 2660,
      "transfer": 2661,
      "another": 2662,
      "nam": 2663,
      "CS": 2664,
      "94": 2665,
      "teria": 2666,
      "acr": 2667,
      "transforming": 2668,
      "separ": 2669,
      "double": 2670,
      "mL": 2671,
      "oresc": 2672,
      "alling": 2673,
      "Ab": 2674,
      "possibility": 2675,
      "array": 2676,
      "chrom": 2677,
      "Thr": 2678,
      "effector": 2679,
      "CBL": 2680,
      "mito": 2681,
      "mutagenesis": 2682,
      "fully": 2683,
      "rogen": 2684,
      "mod": 2685,
      "ute": 2686,
      "CL": 2687,
      "progno": 2688,
      "promote": 2689,
      "stic": 2690,
      "NR": 2691,
      "sequenced": 2692,
      "L858R": 2693,
      "concl": 2694,
      "2009": 2695,
      "ors": 2696,
      "peri": 2697,
      "87": 2698,
      "orescence": 2699,
      "ERBB2": 2700,
      "hotspots": 2701,
      "come": 2702,
      "evaluated": 2703,
      "enib": 2704,
      "stage": 2705,
      "afenib": 2706,
      "cytoplas": 2707,
      "OD": 2708,
      "Neutral": 2709,
      "rece": 2710,
      "Ala": 2711,
      "Materi": 2712,
      "somal": 2713,
      "nM": 2714,
      "stimulation": 2715,
      "diagnosis": 2716,
      "ITD": 2717,
      "2001": 2718,
      "provided": 2719,
      "ety": 2720,
      "oncogene": 2721,
      "cohort": 2722,
      "pon": 2723,
      "Two": 2724,
      "metastatic": 2725,
      "01": 2726,
      "dim": 2727,
      "post": 2728,
      "4A": 2729,
      "Di": 2730,
      "culture": 2731,
      "EL": 2732,
      "ines": 2733,
      "versus": 2734,
      "elev": 2735,
      "accum": 2736,
      "mammalian": 2737,
      "H3": 2738,
      "://": 2739,
      "ochemical": 2740,
      "htt": 2741,
      "http": 2742,
      "displayed": 2743,
      "ham": 2744,
      "ital": 2745,
      "Cul": 2746,
      "xic": 2747,
      "support": 2748,
      "UN": 2749,
      "OX": 2750,
      "design": 2751,
      "remaining": 2752,
      "dominant": 2753,
      "Data": 2754,
      "embryonic": 2755,
      "ising": 2756,
      "GISTs": 2757,
      "rest": 2758,
      "observations": 2759,
      "context": 2760,
      "induction": 2761,
      "bly": 2762,
      "correlation": 2763,
      "There": 2764,
      "ult": 2765,
      "luciferase": 2766,
      "pite": 2767,
      "Cd": 2768,
      "mix": 2769,
      "virus": 2770,
      "MEF": 2771,
      "plate": 2772,
      "sider": 2773,
      "ress": 2774,
      "Cy": 2775,
      "acquired": 2776,
      "molecule": 2777,
      "panc": 2778,
      "indicates": 2779,
      "greater": 2780,
      "detail": 2781,
      "1998": 2782,
      "Clin": 2783,
      "vent": 2784,
      "strongly": 2785,
      "acy": 2786,
      "2002": 2787,
      "wer": 2788,
      "ible": 2789,
      "products": 2790,
      "remains": 2791,
      "strand": 2792,
      "2003": 2793,
      "isolated": 2794,
      "still": 2795,
      "SDS": 2796,
      "relevant": 2797,
      "pVHL": 2798,
      "ced": 2799,
      "spor": 2800,
      "malignant": 2801,
      "IM": 2802,
      "geno": 2803,
      "invas": 2804,
      "myeloid": 2805,
      "retro": 2806,
      "Lys": 2807,
      "label": 2808,
      "fav": 2809,
      "Rese": 2810,
      "studied": 2811,
      "defects": 2812,
      "tumorigenesis": 2813,
      "relatively": 2814,
      "NRAS": 2815,
      "Pre": 2816,
      "exhibited": 2817,
      "sco": 2818,
      "Uni": 2819,
      "deg": 2820,
      "2H": 2821,
      "MCF": 2822,
      "blastoma": 2823,
      "abnormal": 2824,
      "www": 2825,
      "sure": 2826,
      "involving": 2827,
      "ym": 2828,
      "120": 2829,
      "malignanc": 2830,
      "near": 2831,
      "smo": 2832,
      "G1": 2833,
      "oph": 2834,
      "ato": 2835,
      "recru": 2836,
      "iency": 2837,
      "mented": 2838,
      "Research": 2839,
      "ping": 2840,
      "PTP": 2841,
      "feren": 2842,
      "DL": 2843,
      "ual": 2844,
      "pH": 2845,
      "inactivation": 2846,
      "frequent": 2847,
      "criteria": 2848,
      "dome": 2849,
      "ERBB": 2850,
      "tically": 2851,
      "leads": 2852,
      "Vari": 2853,
      "Mutation": 2854,
      "biological": 2855,
      "hotspot": 2856,
      "carcinomas": 2857,
      "fit": 2858,
      "alo": 2859,
      "chemotherapy": 2860,
      "investigated": 2861,
      "MLH1": 2862,
      "SH2": 2863,
      "effective": 2864,
      "lit": 2865,
      "melanomas": 2866,
      "phobic": 2867,
      "ABL": 2868,
      "mur": 2869,
      "MMR": 2870,
      "mit": 2871,
      "transformed": 2872,
      "ning": 2873,
      "damage": 2874,
      "NS": 2875,
      "vol": 2876,
      "+/": 2877,
      "lesions": 2878,
      "ond": 2879,
      "hemato": 2880,
      ")-": 2881,
      "Ke": 2882,
      "adic": 2883,
      "molecules": 2884,
      "idence": 2885,
      "partial": 2886,
      "arcom": 2887,
      "cket": 2888,
      "pocket": 2889,
      "Open": 2890,
      "fraction": 2891,
      "R1": 2892,
      "SNP": 2893,
      "break": 2894,
      "fibro": 2895,
      "293T": 2896,
      "bec": 2897,
      "Na": 2898,
      "DI": 2899,
      "Gly": 2900,
      "Sec": 2901,
      "cultured": 2902,
      "unique": 2903,
      "seven": 2904,
      "inhibitory": 2905,
      "1C": 2906,
      "power": 2907,
      "combined": 2908,
      "omes": 2909,
      "Finally": 2910,
      "OS": 2911,
      "selection": 2912,
      "entially": 2913,
      "positions": 2914,
      "overexpres": 2915,
      "M1": 2916,
      "properties": 2917,
      "rc": 2918,
      "assessment": 2919,
      "reduction": 2920,
      "eight": 2921,
      "poor": 2922,
      "117": 2923,
      "extracellular": 2924,
      "rog": 2925,
      "how": 2926,
      "section": 2927,
      "agents": 2928,
      "Here": 2929,
      "oblas": 2930,
      "aging": 2931,
      "Inc": 2932,
      "observation": 2933,
      "Patients": 2934,
      "GST": 2935,
      "next": 2936,
      "manufac": 2937,
      "squ": 2938,
      "ErbB2": 2939,
      "aling": 2940,
      "82": 2941,
      "demonstrate": 2942,
      "carrying": 2943,
      "hydrophobic": 2944,
      "En": 2945,
      "dex": 2946,
      "interact": 2947,
      "proportion": 2948,
      "STAT3": 2949,
      "Col": 2950,
      "locus": 2951,
      "destabil": 2952,
      "antly": 2953,
      "ga": 2954,
      "E3": 2955,
      "valent": 2956,
      "manufacture": 2957,
      "rence": 2958,
      "ligase": 2959,
      "trials": 2960,
      "TET": 2961,
      "null": 2962,
      "hic": 2963,
      "GAT": 2964,
      "cussion": 2965,
      "sistent": 2966,
      "adv": 2967,
      "Cre": 2968,
      "M2": 2969,
      "Deleterious": 2970,
      "rates": 2971,
      "whole": 2972,
      "limited": 2973,
      "super": 2974,
      "ican": 2975,
      "SMO": 2976,
      "intermediate": 2977,
      "repeats": 2978,
      "few": 2979,
      "wit": 2980,
      "across": 2981,
      "roid": 2982,
      "Function": 2983,
      "weeks": 2984,
      "enrich": 2985,
      "manufacturer": 2986,
      "tle": 2987,
      "plication": 2988,
      "inosi": 2989,
      "BCR": 2990,
      "gy": 2991,
      "lue": 2992,
      "toxic": 2993,
      "profil": 2994,
      "asis": 2995,
      "accoun": 2996,
      "hap": 2997,
      "ators": 2998,
      "CDK4": 2999,
      "GE": 3000,
      "neoplas": 3001,
      "Over": 3002,
      "PE": 3003,
      "ife": 3004,
      "epithelial": 3005,
      "electro": 3006,
      "remo": 3007,
      "doc": 3008,
      "sem": 3009,
      "manner": 3010,
      "93": 3011,
      "ION": 3012,
      "ociation": 3013,
      "histoche": 3014,
      "EC": 3015,
      "lex": 3016,
      "heterozygous": 3017,
      "Amer": 3018,
      "larger": 3019,
      "L1": 3020,
      "oper": 3021,
      "actions": 3022,
      "3B": 3023,
      "hen": 3024,
      "nology": 3025,
      "onucle": 3026,
      "1999": 3027,
      "F1": 3028,
      "endome": 3029,
      "binds": 3030,
      "lymphoma": 3031,
      "average": 3032,
      "Li": 3033,
      "ERT": 3034,
      "86": 3035,
      "Rho": 3036,
      "detection": 3037,
      "distribution": 3038,
      "interface": 3039,
      "CAT": 3040,
      "Glu": 3041,
      "neur": 3042,
      "linked": 3043,
      "driven": 3044,
      "hydrogen": 3045,
      "transactivation": 3046,
      "Tech": 3047,
      "University": 3048,
      "6A": 3049,
      "added": 3050,
      "necess": 3051,
      "deficient": 3052,
      "protocol": 3053,
      "97": 3054,
      "ulin": 3055,
      "CF": 3056,
      "achie": 3057,
      "BT": 3058,
      "izing": 3059,
      "green": 3060,
      "suppression": 3061,
      "din": 3062,
      "V5": 3063,
      "add": 3064,
      "micros": 3065,
      "encing": 3066,
      "hypothesis": 3067,
      "stimulated": 3068,
      "construct": 3069,
      "driver": 3070,
      "poin": 3071,
      "ourn": 3072,
      "directed": 3073,
      "male": 3074,
      "contact": 3075,
      "summ": 3076,
      "defective": 3077,
      "ues": 3078,
      "constitutively": 3079,
      "%),": 3080,
      "Kit": 3081,
      "acts": 3082,
      "right": 3083,
      "adi": 3084,
      "seem": 3085,
      "C2": 3086,
      "biochemical": 3087,
      "T7": 3088,
      "IDH1": 3089,
      "lying": 3090,
      "ster": 3091,
      "paren": 3092,
      "dig": 3093,
      "Invitro": 3094,
      "reports": 3095,
      "Invitrogen": 3096,
      "P2": 3097,
      "systems": 3098,
      "measure": 3099,
      "NOTCH1": 3100,
      "impaired": 3101,
      "testing": 3102,
      "primer": 3103,
      "Pr": 3104,
      "170": 3105,
      "lob": 3106,
      "ROS1": 3107,
      "SF3": 3108,
      "X1": 3109,
      "Ca": 3110,
      "bro": 3111,
      "F2": 3112,
      "Materials": 3113,
      "FLAG": 3114,
      "basal": 3115,
      "strates": 3116,
      "ons": 3117,
      "nature": 3118,
      "disorder": 3119,
      "AGE": 3120,
      "brain": 3121,
      "RP": 3122,
      "rand": 3123,
      "score": 3124,
      "Leu": 3125,
      "graf": 3126,
      "agent": 3127,
      "alf": 3128,
      "plates": 3129,
      "R2": 3130,
      "bri": 3131,
      "cloned": 3132,
      "consider": 3133,
      "exten": 3134,
      "event": 3135,
      "bene": 3136,
      "arily": 3137,
      "glut": 3138,
      "001": 3139,
      "grade": 3140,
      "RUN": 3141,
      "Protein": 3142,
      "lected": 3143,
      "Sig": 3144,
      "−.": 3145,
      "insertions": 3146,
      "OL": 3147,
      "Both": 3148,
      "potent": 3149,
      "elevated": 3150,
      "signalling": 3151,
      "1996": 3152,
      "lane": 3153,
      "SF3B1": 3154,
      "yet": 3155,
      "Consistent": 3156,
      "μM": 3157,
      "reverse": 3158,
      "subjected": 3159,
      "S6K": 3160,
      "witch": 3161,
      "FGF": 3162,
      "RB": 3163,
      "neuroblastoma": 3164,
      "base": 3165,
      "regulate": 3166,
      "general": 3167,
      "knockdown": 3168,
      "cut": 3169,
      "express": 3170,
      "astro": 3171,
      "favor": 3172,
      "transduced": 3173,
      "irst": 3174,
      "Addition": 3175,
      "pose": 3176,
      "trum": 3177,
      "CG": 3178,
      "far": 3179,
      "journ": 3180,
      "500": 3181,
      "sporadic": 3182,
      "5C": 3183,
      "left": 3184,
      "4B": 3185,
      "rather": 3186,
      "Manuscript": 3187,
      "SE": 3188,
      "American": 3189,
      "unable": 3190,
      "death": 3191,
      "hes": 3192,
      "plasma": 3193,
      "increasing": 3194,
      "CH": 3195,
      "150": 3196,
      "hosp": 3197,
      "Indeed": 3198,
      "vs": 3199,
      "generation": 3200,
      "Institu": 3201,
      "colony": 3202,
      "parent": 3203,
      "ING": 3204,
      "step": 3205,
      "biop": 3206,
      "UT": 3207,
      "ters": 3208,
      "presented": 3209,
      "nat": 3210,
      "brid": 3211,
      "clinically": 3212,
      "NT": 3213,
      "Discussion": 3214,
      "appears": 3215,
      "acet": 3216,
      "Struc": 3217,
      "often": 3218,
      "specifically": 3219,
      "phen": 3220,
      "BAC": 3221,
      "bur": 3222,
      "ND": 3223,
      "ose": 3224,
      "characteristics": 3225,
      "Src": 3226,
      "kine": 3227,
      "91": 3228,
      "NM": 3229,
      "tid": 3230,
      "washed": 3231,
      "correlated": 3232,
      "labeled": 3233,
      "ram": 3234,
      "screening": 3235,
      "140": 3236,
      "G7": 3237,
      "adj": 3238,
      "selective": 3239,
      "PH": 3240,
      "81": 3241,
      "rearrangements": 3242,
      "inten": 3243,
      "cannot": 3244,
      "transcript": 3245,
      "vered": 3246,
      "blue": 3247,
      "Cor": 3248,
      "blasts": 3249,
      "5A": 3250,
      "initial": 3251,
      "tration": 3252,
      "La": 3253,
      "identification": 3254,
      "lecular": 3255,
      "FISH": 3256,
      "made": 3257,
      "chr": 3258,
      "product": 3259,
      "ered": 3260,
      "odds": 3261,
      "therapies": 3262,
      "random": 3263,
      "H6": 3264,
      "tware": 3265,
      "apoptotic": 3266,
      "Sub": 3267,
      "decrease": 3268,
      "encies": 3269,
      "FIG": 3270,
      "Using": 3271,
      "let": 3272,
      "hist": 3273,
      "4C": 3274,
      "efficacy": 3275,
      "subst": 3276,
      "Sigma": 3277,
      "phy": 3278,
      "eli": 3279,
      "half": 3280,
      "First": 3281,
      "affecting": 3282,
      "lat": 3283,
      "quantit": 3284,
      "logies": 3285,
      "recognition": 3286,
      "El": 3287,
      "consequences": 3288,
      "fragment": 3289,
      "mono": 3290,
      "rapid": 3291,
      "CDKN": 3292,
      "Am": 3293,
      "nucleus": 3294,
      "lar": 3295,
      "ick": 3296,
      "sk": 3297,
      "ubiquitination": 3298,
      "Functional": 3299,
      "Da": 3300,
      "mong": 3301,
      "Among": 3302,
      "3C": 3303,
      "While": 3304,
      "Ger": 3305,
      "influ": 3306,
      "help": 3307,
      "400": 3308,
      "occurs": 3309,
      "acces": 3310,
      "Tumor": 3311,
      "agree": 3312,
      "idate": 3313,
      "enograf": 3314,
      "numbers": 3315,
      "necessary": 3316,
      "Activ": 3317,
      "percentage": 3318,
      "chromosomal": 3319,
      "substanti": 3320,
      "tram": 3321,
      "MSH2": 3322,
      "amide": 3323,
      "MG": 3324,
      "BAR": 3325,
      "estion": 3326,
      "segregation": 3327,
      "substrates": 3328,
      "Supplemental": 3329,
      "advanced": 3330,
      "probe": 3331,
      "aberrant": 3332,
      "program": 3333,
      "minim": 3334,
      "San": 3335,
      "recombin": 3336,
      "weak": 3337,
      "Qu": 3338,
      "U2": 3339,
      "discovery": 3340,
      "index": 3341,
      "prepared": 3342,
      "short": 3343,
      "PAGE": 3344,
      "xed": 3345,
      "wide": 3346,
      "stably": 3347,
      "conserv": 3348,
      "detectable": 3349,
      "importance": 3350,
      "options": 3351,
      "If": 3352,
      "bit": 3353,
      "omen": 3354,
      "serine": 3355,
      "normalized": 3356,
      "tab": 3357,
      "cord": 3358,
      "Several": 3359,
      "lipid": 3360,
      "predict": 3361,
      "exposed": 3362,
      "carriers": 3363,
      "iden": 3364,
      "NK": 3365,
      "marrow": 3366,
      "plemented": 3367,
      "arrest": 3368,
      "deple": 3369,
      "lanes": 3370,
      "proposed": 3371,
      "RING": 3372,
      "detect": 3373,
      "facil": 3374,
      "shRNA": 3375,
      "contained": 3376,
      "ological": 3377,
      "Sant": 3378,
      "contin": 3379,
      "fort": 3380,
      "p16INK4a": 3381,
      "predis": 3382,
      "BARD1": 3383,
      "PMS": 3384,
      "intest": 3385,
      "04": 3386,
      "isoforms": 3387,
      "experimental": 3388,
      "functionally": 3389,
      "ibr": 3390,
      "cycl": 3391,
      "sil": 3392,
      "G12D": 3393,
      "LOH": 3394,
      "spectrum": 3395,
      "sour": 3396,
      "FGFR1": 3397,
      "switch": 3398,
      "lapatinib": 3399,
      "USA": 3400,
      "investigate": 3401,
      "provides": 3402,
      "estimated": 3403,
      "1995": 3404,
      "ED": 3405,
      "subsequent": 3406,
      "occurred": 3407,
      "beta": 3408,
      "amous": 3409,
      "exhibit": 3410,
      "etal": 3411,
      "plicate": 3412,
      "TET2": 3413,
      "points": 3414,
      "vely": 3415,
      "When": 3416,
      "comparable": 3417,
      "noted": 3418,
      "79": 3419,
      "83": 3420,
      "May": 3421,
      "involve": 3422,
      "ofib": 3423,
      "ads": 3424,
      "insic": 3425,
      "H3K": 3426,
      "empty": 3427,
      "ume": 3428,
      "responsible": 3429,
      "proliferative": 3430,
      "homozygous": 3431,
      "Lo": 3432,
      "temper": 3433,
      "130": 3434,
      "viral": 3435,
      "failed": 3436,
      "cate": 3437,
      "Kras": 3438,
      "Sin": 3439,
      "anim": 3440,
      "Previous": 3441,
      "AKT1": 3442,
      "blotting": 3443,
      "ird": 3444,
      "putative": 3445,
      "polymer": 3446,
      "la": 3447,
      "codons": 3448,
      "colonies": 3449,
      "contain": 3450,
      "facilit": 3451,
      "dilu": 3452,
      "Lab": 3453,
      "dynam": 3454,
      "xenograf": 3455,
      "suc": 3456,
      "histone": 3457,
      "Ig": 3458,
      "Santa": 3459,
      "restric": 3460,
      "replac": 3461,
      "complement": 3462,
      "understanding": 3463,
      "heterogene": 3464,
      "recruit": 3465,
      "Signaling": 3466,
      "malignancies": 3467,
      "recombination": 3468,
      "myc": 3469,
      "extracted": 3470,
      "84": 3471,
      "elihood": 3472,
      "κB": 3473,
      "anine": 3474,
      "conduc": 3475,
      "others": 3476,
      "Intro": 3477,
      "war": 3478,
      "translocation": 3479,
      "poie": 3480,
      "predom": 3481,
      "agreement": 3482,
      "FB": 3483,
      "now": 3484,
      "poietic": 3485,
      "mistry": 3486,
      "GBM": 3487,
      "squamous": 3488,
      "components": 3489,
      "arcoma": 3490,
      "igr": 3491,
      "AX": 3492,
      "BI": 3493,
      "disrupt": 3494,
      "exclu": 3495,
      "ulate": 3496,
      "skin": 3497,
      "much": 3498,
      "clone": 3499,
      "Introduction": 3500,
      "foci": 3501,
      "morpho": 3502,
      "uration": 3503,
      "ances": 3504,
      "metastasis": 3505,
      "itor": 3506,
      "incidence": 3507,
      "APC": 3508,
      "By": 3509,
      "W7": 3510,
      "emer": 3511,
      "software": 3512,
      "immunoprecipitation": 3513,
      "pass": 3514,
      "lis": 3515,
      "EZ": 3516,
      "bed": 3517,
      "liver": 3518,
      "child": 3519,
      "Full": 3520,
      "currently": 3521,
      "alteration": 3522,
      "cisplatin": 3523,
      "collected": 3524,
      "commonly": 3525,
      "flex": 3526,
      "abrog": 3527,
      "impro": 3528,
      "inhibits": 3529,
      "likelihood": 3530,
      "produced": 3531,
      "species": 3532,
      ")(": 3533,
      "tuber": 3534,
      "endometrial": 3535,
      "Cdk": 3536,
      "KE": 3537,
      "conf": 3538,
      "better": 3539,
      "drugs": 3540,
      "note": 3541,
      "gas": 3542,
      "reflec": 3543,
      "ery": 3544,
      "def": 3545,
      "GR": 3546,
      "allo": 3547,
      "pedig": 3548,
      "das": 3549,
      "grown": 3550,
      "categor": 3551,
      "elf": 3552,
      "MSI": 3553,
      "RUNX1": 3554,
      "Ph": 3555,
      "sc": 3556,
      "Sh": 3557,
      "MLL": 3558,
      "MSH6": 3559,
      "folding": 3560,
      "JM": 3561,
      "EB": 3562,
      "apparent": 3563,
      "mp": 3564,
      "approved": 3565,
      "PBS": 3566,
      "received": 3567,
      "equi": 3568,
      "Since": 3569,
      "zation": 3570,
      "nologies": 3571,
      "5B": 3572,
      "off": 3573,
      "Cru": 3574,
      "assem": 3575,
      "classes": 3576,
      "Clinical": 3577,
      "since": 3578,
      "SB": 3579,
      "CAG": 3580,
      "accumulation": 3581,
      "Other": 3582,
      "referen": 3583,
      "MI": 3584,
      "G17": 3585,
      "D816": 3586,
      "Each": 3587,
      "journals": 3588,
      "murine": 3589,
      "prec": 3590,
      "CM": 3591,
      "fixed": 3592,
      "sets": 3593,
      "promis": 3594,
      "cross": 3595,
      "entire": 3596,
      "sto": 3597,
      "intern": 3598,
      "date": 3599,
      "homologous": 3600,
      "cytoplasmic": 3601,
      "LK": 3602,
      "ression": 3603,
      "relap": 3604,
      "MDS": 3605,
      "bridi": 3606,
      "Cruz": 3607,
      "probability": 3608,
      "acute": 3609,
      "defect": 3610,
      "immunohistoche": 3611,
      "CRC": 3612,
      "advant": 3613,
      "TCGA": 3614,
      "1994": 3615,
      "Notably": 3616,
      "potentially": 3617,
      "erated": 3618,
      "nonsense": 3619,
      "ocytes": 3620,
      "HTS": 3621,
      "ta": 3622,
      "compr": 3623,
      "central": 3624,
      "cand": 3625,
      "Most": 3626,
      "otides": 3627,
      "exist": 3628,
      "ics": 3629,
      "RTK": 3630,
      "identical": 3631,
      "ii": 3632,
      "know": 3633,
      "Sy": 3634,
      "amount": 3635,
      "pher": 3636,
      "completely": 3637,
      "VUSs": 3638,
      "whose": 3639,
      "CTT": 3640,
      "probably": 3641,
      "chromatin": 3642,
      "Phosp": 3643,
      "ylation": 3644,
      "prediction": 3645,
      "particularly": 3646,
      "sigh": 3647,
      "useful": 3648,
      "Tris": 3649,
      "roles": 3650,
      "Gi": 3651,
      "106": 3652,
      "KB": 3653,
      "PHTS": 3654,
      "vere": 3655,
      "approaches": 3656,
      "ences": 3657,
      "introduced": 3658,
      "migr": 3659,
      "acent": 3660,
      "duce": 3661,
      "1D": 3662,
      "tim": 3663,
      "aacr": 3664,
      "expo": 3665,
      "implicated": 3666,
      "Overall": 3667,
      "Onco": 3668,
      "til": 3669,
      "origin": 3670,
      "RCC": 3671,
      "hip": 3672,
      "represents": 3673,
      "Assay": 3674,
      "Similarly": 3675,
      "ually": 3676,
      "GSK": 3677,
      "despite": 3678,
      "below": 3679,
      "benefit": 3680,
      "mary": 3681,
      "plays": 3682,
      "ank": 3683,
      "prehen": 3684,
      "intrinsic": 3685,
      "along": 3686,
      "ect": 3687,
      "utes": 3688,
      "Asn": 3689,
      "CTG": 3690,
      "hand": 3691,
      "peptides": 3692,
      "final": 3693,
      "nmol": 3694,
      "reatic": 3695,
      "AS": 3696,
      "Spec": 3697,
      "phenotypes": 3698,
      "sively": 3699,
      "immunoprecipitated": 3700,
      "2D": 3701,
      "done": 3702,
      "recombinant": 3703,
      "3D": 3704,
      "MAT": 3705,
      "alignment": 3706,
      "temperature": 3707,
      "Next": 3708,
      "ERK1": 3709,
      "outcome": 3710,
      "earch": 3711,
      "bars": 3712,
      "degree": 3713,
      "TS": 3714,
      "1α": 3715,
      "Flag": 3716,
      "Ref": 3717,
      "upstream": 3718,
      "polymerase": 3719,
      "KII": 3720,
      "volume": 3721,
      "sun": 3722,
      "09": 3723,
      "None": 3724,
      "DLBCL": 3725,
      "izes": 3726,
      "Molecular": 3727,
      "except": 3728,
      "R17": 3729,
      "orator": 3730,
      "generate": 3731,
      "Ty": 3732,
      "evolution": 3733,
      "Gl": 3734,
      "lacking": 3735,
      "severe": 3736,
      "DF": 3737,
      "With": 3738,
      "Phe": 3739,
      "uded": 3740,
      "minutes": 3741,
      "diagnosed": 3742,
      "aacrjournals": 3743,
      "eded": 3744,
      "EW": 3745,
      "transiently": 3746,
      "assign": 3747,
      "zygo": 3748,
      "oratories": 3749,
      "terial": 3750,
      "gal": 3751,
      "backgro": 3752,
      "tuberin": 3753,
      "ging": 3754,
      "truncated": 3755,
      "ophil": 3756,
      "**": 3757,
      "cepti": 3758,
      "later": 3759,
      "F11": 3760,
      "locations": 3761,
      "];": 3762,
      "RAD": 3763,
      "GTPase": 3764,
      "intrac": 3765,
      "2017": 3766,
      "MK": 3767,
      "bear": 3768,
      "powerpoint": 3769,
      "1775": 3770,
      "patterns": 3771,
      "supplemented": 3772,
      "fluorescence": 3773,
      "research": 3774,
      "regulates": 3775,
      "ct": 3776,
      "hybridi": 3777,
      "105": 3778,
      "docum": 3779,
      "block": 3780,
      "insigh": 3781,
      "lide": 3782,
      "mature": 3783,
      "G719": 3784,
      "call": 3785,
      "validation": 3786,
      "broad": 3787,
      "suscepti": 3788,
      "solid": 3789,
      "PDGF": 3790,
      "thre": 3791,
      "ides": 3792,
      "pool": 3793,
      "androgen": 3794,
      "conformational": 3795,
      "mas": 3796,
      "issu": 3797,
      "02": 3798,
      "incor": 3799,
      "achieved": 3800,
      "ben": 3801,
      "ni": 3802,
      "variety": 3803,
      "continu": 3804,
      "instability": 3805,
      "10A": 3806,
      "pathogenicity": 3807,
      "overlap": 3808,
      "%).": 3809,
      "RhoA": 3810,
      "nine": 3811,
      "Import": 3812,
      "classifi": 3813,
      "ERCC": 3814,
      "helic": 3815,
      "ared": 3816,
      "assu": 3817,
      "ify": 3818,
      "plasmids": 3819,
      "arose": 3820,
      "interacts": 3821,
      "adjacent": 3822,
      "dimers": 3823,
      "PL": 3824,
      "da": 3825,
      "thyroid": 3826,
      "−/": 3827,
      "transcripts": 3828,
      "jug": 3829,
      "GV": 3830,
      "P1": 3831,
      "pack": 3832,
      "compe": 3833,
      "pancreatic": 3834,
      "abbit": 3835,
      "nt": 3836,
      "conducted": 3837,
      "vectors": 3838,
      "ower": 3839,
      "iel": 3840,
      "diverse": 3841,
      "condition": 3842,
      "250": 3843,
      "amycin": 3844,
      "ationship": 3845,
      "mil": 3846,
      "oblastoma": 3847,
      "tingu": 3848,
      "close": 3849,
      "mi": 3850,
      "CAR": 3851,
      "BaF3": 3852,
      "intestinal": 3853,
      "104": 3854,
      "technology": 3855,
      "conjug": 3856,
      "ider": 3857,
      "ised": 3858,
      "ERBB3": 3859,
      "simul": 3860,
      "ns": 3861,
      "ap1": 3862,
      "sensus": 3863,
      "Rad": 3864,
      "NU": 3865,
      "allelic": 3866,
      "underlying": 3867,
      "causality": 3868,
      "CB": 3869,
      "L2": 3870,
      "Human": 3871,
      "viability": 3872,
      "graphy": 3873,
      "third": 3874,
      "net": 3875,
      "glob": 3876,
      "sized": 3877,
      "tryp": 3878,
      "UV": 3879,
      "esh": 3880,
      "ordin": 3881,
      "progen": 3882,
      "familial": 3883,
      "moder": 3884,
      "K6": 3885,
      "visual": 3886,
      "reads": 3887,
      "advantage": 3888,
      "CCA": 3889,
      "ric": 3890,
      "partially": 3891,
      "parental": 3892,
      "transduction": 3893,
      "representative": 3894,
      "proteo": 3895,
      "f3": 3896,
      "Second": 3897,
      "little": 3898,
      "subjec": 3899,
      "truncating": 3900,
      "reviewed": 3901,
      "none": 3902,
      "instruc": 3903,
      "amm": 3904,
      "Ub": 3905,
      "heterodimer": 3906,
      "umin": 3907,
      "appropri": 3908,
      "never": 3909,
      "NTR": 3910,
      "ik": 3911,
      "PIPKII": 3912,
      "applied": 3913,
      "prehensive": 3914,
      "SK": 3915,
      "harves": 3916,
      "ofibrom": 3917,
      "causing": 3918,
      "ially": 3919,
      "monoclonal": 3920,
      "Importantly": 3921,
      "Des": 3922,
      "hematopoietic": 3923,
      "chronic": 3924,
      "activates": 3925,
      "Three": 3926,
      "Keap1": 3927,
      "ental": 3928,
      "pha": 3929,
      "ASD": 3930,
      "taneous": 3931,
      "thereby": 3932,
      "induces": 3933,
      "DISC": 3934,
      "rect": 3935,
      "figureOpen": 3936,
      "t3": 3937,
      "person": 3938,
      "conclusion": 3939,
      "ulated": 3940,
      "R24": 3941,
      "renal": 3942,
      "PFS": 3943,
      "A1": 3944,
      "physi": 3945,
      "homology": 3946,
      "steric": 3947,
      "exis": 3948,
      "tabDownload": 3949,
      "COS": 3950,
      "imin": 3951,
      "EZH2": 3952,
      "markers": 3953,
      "statistical": 3954,
      "loops": 3955,
      "kDa": 3956,
      "apan": 3957,
      "Sci": 3958,
      "Pub": 3959,
      "adder": 3960,
      "vary": 3961,
      "lysed": 3962,
      "599": 3963,
      "Exon": 3964,
      "examine": 3965,
      "oncogenes": 3966,
      "frequencies": 3967,
      "600": 3968,
      "localized": 3969,
      "MB": 3970,
      "diffic": 3971,
      "partment": 3972,
      "Japan": 3973,
      "F1174": 3974,
      "ension": 3975,
      "impair": 3976,
      "explo": 3977,
      "segment": 3978,
      "PMS2": 3979,
      "embran": 3980,
      "knowled": 3981,
      "seems": 3982,
      "clearly": 3983,
      "Bi": 3984,
      "metry": 3985,
      "intracellular": 3986,
      "sal": 3987,
      "hold": 3988,
      "regression": 3989,
      "R16": 3990,
      "ulations": 3991,
      "occurring": 3992,
      "occurrence": 3993,
      "Sur": 3994,
      "longer": 3995,
      "exposure": 3996,
      "author": 3997,
      "setting": 3998,
      "interpre": 3999,
      "increases": 4000,
      "modeling": 4001,
      "incorpor": 4002,
      "zer": 4003,
      "istance": 4004,
      "agar": 4005,
      "STAT5": 4006,
      "predominant": 4007,
      "statistically": 4008,
      "Association": 4009,
      "pase": 4010,
      "interes": 4011,
      "access": 4012,
      "band": 4013,
      "encoded": 4014,
      "overexpressed": 4015,
      "dasatinib": 4016,
      "situ": 4017,
      "agon": 4018,
      "thought": 4019,
      "consensus": 4020,
      "responsive": 4021,
      "abnormalities": 4022,
      "internal": 4023,
      "fram": 4024,
      "Tables": 4025,
      "enced": 4026,
      "cale": 4027,
      "BAP1": 4028,
      "ores": 4029,
      "Del": 4030,
      "tives": 4031,
      "oxid": 4032,
      "uture": 4033,
      "subtypes": 4034,
      "flamm": 4035,
      "parallel": 4036,
      "regard": 4037,
      "screened": 4038,
      "Given": 4039,
      "taken": 4040,
      "trig": 4041,
      "Institute": 4042,
      "hydrolysis": 4043,
      "colle": 4044,
      "infected": 4045,
      "rabbit": 4046,
      "mass": 4047,
      "prognosis": 4048,
      "gastric": 4049,
      "MCE": 4050,
      "density": 4051,
      "extracts": 4052,
      "predictive": 4053,
      "adap": 4054,
      "ton": 4055,
      "metabol": 4056,
      "motifs": 4057,
      "PIP3": 4058,
      "−/−": 4059,
      "TK": 4060,
      "fibroblasts": 4061,
      "Variants": 4062,
      "Technologies": 4063,
      "JAK1": 4064,
      "synthe": 4065,
      "reference": 4066,
      "Power": 4067,
      "aa": 4068,
      "serve": 4069,
      "MEM": 4070,
      "Patient": 4071,
      "relationship": 4072,
      "R26": 4073,
      "cir": 4074,
      "Ins": 4075,
      "ityl": 4076,
      "define": 4077,
      "polymorphism": 4078,
      "Sequence": 4079,
      "success": 4080,
      "EP": 4081,
      "Inhib": 4082,
      "actin": 4083,
      "characterization": 4084,
      "quantitative": 4085,
      "GDP": 4086,
      "101": 4087,
      "ligh": 4088,
      "inositol": 4089,
      "beads": 4090,
      "junction": 4091,
      "shift": 4092,
      "aberrations": 4093,
      "igene": 4094,
      "appropriate": 4095,
      "instructions": 4096,
      "vance": 4097,
      "ranged": 4098,
      "scan": 4099,
      "PP2A": 4100,
      "component": 4101,
      "Cul3": 4102,
      "disorders": 4103,
      "fragments": 4104,
      "matched": 4105,
      "perform": 4106,
      "rever": 4107,
      "eth": 4108,
      "inform": 4109,
      "bearing": 4110,
      "isoform": 4111,
      "denat": 4112,
      "immunoblotting": 4113,
      "Per": 4114,
      "last": 4115,
      "forward": 4116,
      "inflamm": 4117,
      "isms": 4118,
      "ETV6": 4119,
      "retained": 4120,
      "fications": 4121,
      "evaluate": 4122,
      "focal": 4123,
      "equivalent": 4124,
      "initiation": 4125,
      "strom": 4126,
      "ACC": 4127,
      "autophosphorylation": 4128,
      "background": 4129,
      "Center": 4130,
      "Flt3": 4131,
      "T790": 4132,
      "M1775": 4133,
      "theless": 4134,
      "p85α": 4135,
      "exome": 4136,
      "having": 4137,
      "Anti": 4138,
      "GL": 4139,
      "almost": 4140,
      "116": 4141,
      "carbox": 4142,
      "promotes": 4143,
      "transp": 4144,
      "pathogenesis": 4145,
      "BTB": 4146,
      "μl": 4147,
      "differential": 4148,
      "gorith": 4149,
      "valence": 4150,
      "IR": 4151,
      "native": 4152,
      "prevent": 4153,
      "hr": 4154,
      "kers": 4155,
      "idermal": 4156,
      "maxim": 4157,
      "3H": 4158,
      "dium": 4159,
      "Figs": 4160,
      "Based": 4161,
      "onto": 4162,
      "NaCl": 4163,
      "harvested": 4164,
      "slight": 4165,
      "Car": 4166,
      "validated": 4167,
      "influence": 4168,
      "toward": 4169,
      "generally": 4170,
      "sunitinib": 4171,
      "account": 4172,
      "reli": 4173,
      "DR": 4174,
      "populations": 4175,
      "bored": 4176,
      "phosphopeptide": 4177,
      "harbored": 4178,
      "NIH3T3": 4179,
      "radiation": 4180,
      "requires": 4181,
      "Rb": 4182,
      "eshift": 4183,
      "detailed": 4184,
      "modified": 4185,
      "algorith": 4186,
      "Ge": 4187,
      "oupl": 4188,
      "recruitment": 4189,
      "T790M": 4190,
      "Fb": 4191,
      "tool": 4192,
      "tract": 4193,
      "E5": 4194,
      "tation": 4195,
      "intron": 4196,
      "electropho": 4197,
      "men": 4198,
      "LR": 4199,
      "iv": 4200,
      "paraffin": 4201,
      "interest": 4202,
      "open": 4203,
      "invasion": 4204,
      "ana": 4205,
      "121": 4206,
      "TM": 4207,
      "highligh": 4208,
      "abilities": 4209,
      "Nor": 4210,
      "pheral": 4211,
      "ymous": 4212,
      "minis": 4213,
      "processes": 4214,
      "comprehensive": 4215,
      "Cys": 4216,
      "maintained": 4217,
      "L8": 4218,
      "bladder": 4219,
      "clinic": 4220,
      "documented": 4221,
      "threon": 4222,
      "comm": 4223,
      "candidate": 4224,
      "Inter": 4225,
      "PKC": 4226,
      "particip": 4227,
      "deleted": 4228,
      "enriched": 4229,
      "4D": 4230,
      "len": 4231,
      "N5": 4232,
      "mTORC1": 4233,
      "injected": 4234,
      "polymorphisms": 4235,
      "supplement": 4236,
      "pathological": 4237,
      "marker": 4238,
      "PIPKIIβ": 4239,
      "ange": 4240,
      "illu": 4241,
      "onical": 4242,
      "scores": 4243,
      "bedded": 4244,
      "stead": 4245,
      "MCF10A": 4246,
      "represented": 4247,
      "subunits": 4248,
      "undergo": 4249,
      "Abl": 4250,
      "flow": 4251,
      "synon": 4252,
      "supported": 4253,
      "CDK6": 4254,
      "Genomic": 4255,
      "personal": 4256,
      "coordin": 4257,
      "encodes": 4258,
      "ready": 4259,
      "Elf3": 4260,
      "S5": 4261,
      "cence": 4262,
      "03": 4263,
      "OV": 4264,
      "hamar": 4265,
      "Ano": 4266,
      "yiel": 4267,
      "unclear": 4268,
      "Jun": 4269,
      "accessible": 4270,
      "124": 4271,
      "cyste": 4272,
      "fs": 4273,
      "flan": 4274,
      "plus": 4275,
      "solution": 4276,
      "EV": 4277,
      "compounds": 4278,
      "prognostic": 4279,
      "Ta": 4280,
      "chased": 4281,
      "ERG": 4282,
      "Experim": 4283,
      "synonymous": 4284,
      "tetram": 4285,
      "liter": 4286,
      "caspase": 4287,
      "Another": 4288,
      "threonine": 4289,
      "RMCE": 4290,
      "FAN": 4291,
      "CTD": 4292,
      "capac": 4293,
      "devi": 4294,
      "ney": 4295,
      "UC": 4296,
      "cooper": 4297,
      "1047": 4298,
      "transition": 4299,
      "Si": 4300,
      "exact": 4301,
      "limit": 4302,
      "relevance": 4303,
      "Non": 4304,
      "SR1": 4305,
      "2014": 4306,
      "adenocarcinomas": 4307,
      "EGFP": 4308,
      "urally": 4309,
      "Hosp": 4310,
      "GTT": 4311,
      "benign": 4312,
      "w7": 4313,
      "usu": 4314,
      "ifu": 4315,
      "oxy": 4316,
      "RI": 4317,
      "subtype": 4318,
      "proced": 4319,
      "migration": 4320,
      "unately": 4321,
      "equal": 4322,
      "tumorigenic": 4323,
      "variable": 4324,
      "includes": 4325,
      "soft": 4326,
      "designed": 4327,
      "L7": 4328,
      "antigen": 4329,
      "canonical": 4330,
      "mmol": 4331,
      "purchased": 4332,
      "1993": 4333,
      "hypothe": 4334,
      "highest": 4335,
      "focus": 4336,
      "Qia": 4337,
      "TERT": 4338,
      "iso": 4339,
      "Mutant": 4340,
      "pcDNA": 4341,
      "stop": 4342,
      "graph": 4343,
      "espec": 4344,
      "fortunately": 4345,
      "Laboratories": 4346,
      "LKB1": 4347,
      "sci": 4348,
      "production": 4349,
      "NRF2": 4350,
      "especially": 4351,
      "Applied": 4352,
      "BCC": 4353,
      "animals": 4354,
      "DA": 4355,
      "nm": 4356,
      "pene": 4357,
      "every": 4358,
      "alanine": 4359,
      "132": 4360,
      "neurofibrom": 4361,
      "rig": 4362,
      "juxt": 4363,
      "Bre": 4364,
      "explain": 4365,
      "translation": 4366,
      "tinguish": 4367,
      "aggres": 4368,
      "bond": 4369,
      "Downloaded": 4370,
      "reach": 4371,
      "cordance": 4372,
      "evaluation": 4373,
      "water": 4374,
      "primarily": 4375,
      "knowledge": 4376,
      "Taken": 4377,
      "mainly": 4378,
      "Recently": 4379,
      "ok": 4380,
      "Be": 4381,
      "MAP2": 4382,
      "tag": 4383,
      "iently": 4384,
      "KMT": 4385,
      "ubiquityl": 4386,
      "zen": 4387,
      "twice": 4388,
      "Hospital": 4389,
      "EML": 4390,
      "Genetic": 4391,
      "area": 4392,
      "avage": 4393,
      "competi": 4394,
      "p53s": 4395,
      "HRAS": 4396,
      "L11": 4397,
      "seeded": 4398,
      "capacity": 4399,
      "overn": 4400,
      "organ": 4401,
      "CRAF": 4402,
      "U2AF": 4403,
      "strategy": 4404,
      "HeLa": 4405,
      "prevalence": 4406,
      "ash": 4407,
      "Total": 4408,
      "listed": 4409,
      "Unfortunately": 4410,
      "Qiagen": 4411,
      "RAC1": 4412,
      "h1": 4413,
      "pi": 4414,
      "EML4": 4415,
      "silic": 4416,
      "sections": 4417,
      "kind": 4418,
      "pG": 4419,
      "atom": 4420,
      "CML": 4421,
      "rection": 4422,
      "D842": 4423,
      "failure": 4424,
      "plan": 4425,
      "head": 4426,
      "rapamycin": 4427,
      "preferen": 4428,
      "08": 4429,
      "comes": 4430,
      "Gro": 4431,
      "peripheral": 4432,
      "Biotechnology": 4433,
      "amounts": 4434,
      "idel": 4435,
      "plex": 4436,
      "cutaneous": 4437,
      "extent": 4438,
      "lier": 4439,
      "elements": 4440,
      "assayed": 4441,
      "ttom": 4442,
      "Id": 4443,
      "proteas": 4444,
      "presum": 4445,
      "rac": 4446,
      "0001": 4447,
      "frameshift": 4448,
      "genotype": 4449,
      "122": 4450,
      "contacts": 4451,
      "orescent": 4452,
      "chec": 4453,
      "mu": 4454,
      "cad": 4455,
      "Gln": 4456,
      "Cbl": 4457,
      "ested": 4458,
      "N1": 4459,
      "chor": 4460,
      "link": 4461,
      "typic": 4462,
      "PLC": 4463,
      "ime": 4464,
      "regulating": 4465,
      "atten": 4466,
      "embrane": 4467,
      "mismatch": 4468,
      "H1047": 4469,
      "6C": 4470,
      "prising": 4471,
      "efficiency": 4472,
      "life": 4473,
      "ocyte": 4474,
      "bac": 4475,
      "resolution": 4476,
      "already": 4477,
      "silico": 4478,
      "p27": 4479,
      "outside": 4480,
      "susceptibility": 4481,
      "1E": 4482,
      "enzymes": 4483,
      "uncertain": 4484,
      "allowed": 4485,
      "metastases": 4486,
      "WM": 4487,
      "rescue": 4488,
      "adhes": 4489,
      "profiles": 4490,
      "myelo": 4491,
      "latter": 4492,
      "Ka": 4493,
      "coupl": 4494,
      "developmental": 4495,
      "enzymatic": 4496,
      "ErbB": 4497,
      "They": 4498,
      "tidyl": 4499,
      "p300": 4500,
      "effectors": 4501,
      "ERα": 4502,
      "MEFs": 4503,
      "Prome": 4504,
      "Promega": 4505,
      "chematic": 4506,
      "itary": 4507,
      "Poly": 4508,
      "KEAP1": 4509,
      "analysed": 4510,
      "fetal": 4511,
      "tural": 4512,
      "aggregation": 4513,
      "needed": 4514,
      "media": 4515,
      "counter": 4516,
      "libr": 4517,
      "interacting": 4518,
      "DMEM": 4519,
      "summari": 4520,
      "SS": 4521,
      "Sch": 4522,
      "hybridization": 4523,
      "transmembrane": 4524,
      "means": 4525,
      "turn": 4526,
      "epidermal": 4527,
      "leukem": 4528,
      "CDKN2A": 4529,
      "Hy": 4530,
      "Compar": 4531,
      "dys": 4532,
      "mag": 4533,
      "linker": 4534,
      "disruption": 4535,
      "techn": 4536,
      "subsequently": 4537,
      "activator": 4538,
      "CFC": 4539,
      "DO": 4540,
      "Mic": 4541,
      "IDH2": 4542,
      "G12V": 4543,
      "rearrangement": 4544,
      "alog": 4545,
      "dysp": 4546,
      "parame": 4547,
      "Red": 4548,
      "ramatic": 4549,
      "penetr": 4550,
      "poss": 4551,
      "AML1": 4552,
      "western": 4553,
      "terms": 4554,
      "causes": 4555,
      "depletion": 4556,
      "ki": 4557,
      "angio": 4558,
      "phenyl": 4559,
      "MO": 4560,
      "rozen": 4561,
      "versely": 4562,
      "LE": 4563,
      "synthesis": 4564,
      "Ml": 4565,
      "intact": 4566,
      "cere": 4567,
      "ulf": 4568,
      "Biosystems": 4569,
      "Never": 4570,
      "Whe": 4571,
      "possess": 4572,
      "precipit": 4573,
      "aged": 4574,
      "possibly": 4575,
      "R27": 4576,
      "cular": 4577,
      "supporting": 4578,
      "Structural": 4579,
      "Statis": 4580,
      "SRC": 4581,
      "stress": 4582,
      "heterozygo": 4583,
      "%;": 4584,
      "FBS": 4585,
      "tel": 4586,
      "hepat": 4587,
      "mixed": 4588,
      "plated": 4589,
      "cytes": 4590,
      "phospha": 4591,
      "Align": 4592,
      "CCT": 4593,
      "transferred": 4594,
      "bands": 4595,
      "promoting": 4596,
      "exchange": 4597,
      "profile": 4598,
      "intensity": 4599,
      "luorescence": 4600,
      "dramatic": 4601,
      "Sequencing": 4602,
      "agarose": 4603,
      "respect": 4604,
      "L3": 4605,
      "ligands": 4606,
      "ogenesis": 4607,
      "smokers": 4608,
      "URE": 4609,
      "find": 4610,
      "D2": 4611,
      "aset": 4612,
      "amembrane": 4613,
      "G2": 4614,
      "Su": 4615,
      "Wild": 4616,
      "haplo": 4617,
      "atives": 4618,
      "oligomer": 4619,
      "embedded": 4620,
      "phar": 4621,
      "1a": 4622,
      "representation": 4623,
      "/+": 4624,
      "helical": 4625,
      "argin": 4626,
      "SMAD4": 4627,
      "toxicity": 4628,
      "7A": 4629,
      "formal": 4630,
      "acto": 4631,
      "plot": 4632,
      "aryo": 4633,
      "minor": 4634,
      "Sanger": 4635,
      "ATR": 4636,
      "cation": 4637,
      "278": 4638,
      "future": 4639,
      "robu": 4640,
      "robust": 4641,
      "Online": 4642,
      "Q61": 4643,
      "Somatic": 4644,
      "473": 4645,
      "2HG": 4646,
      "nic": 4647,
      "rational": 4648,
      "establish": 4649,
      "potency": 4650,
      "assembly": 4651,
      "Kin": 4652,
      "MH2": 4653,
      "R6": 4654,
      "labor": 4655,
      "9A": 4656,
      "recomm": 4657,
      "Trk": 4658,
      "BP1": 4659,
      "SCC": 4660,
      "pharmac": 4661,
      "Fr": 4662,
      "scale": 4663,
      "she": 4664,
      "308": 4665,
      "DFG": 4666,
      "osin": 4667,
      "k2": 4668,
      "illary": 4669,
      "electrophores": 4670,
      "Cal": 4671,
      "literature": 4672,
      "indow": 4673,
      "PIK3R1": 4674,
      "incubation": 4675,
      "D3": 4676,
      "artic": 4677,
      "mission": 4678,
      "membranes": 4679,
      "public": 4680,
      "dimension": 4681,
      "ARC": 4682,
      "estrogen": 4683,
      "conservation": 4684,
      "onset": 4685,
      "Identi": 4686,
      "land": 4687,
      "leth": 4688,
      "IVS": 4689,
      "separated": 4690,
      "ZD": 4691,
      "eline": 4692,
      "MutL": 4693,
      "predictions": 4694,
      "123": 4695,
      "untreated": 4696,
      "arti": 4697,
      "Effec": 4698,
      "Life": 4699,
      "GAG": 4700,
      "respond": 4701,
      "1G": 4702,
      "ponatinib": 4703,
      "oligonucle": 4704,
      "sequently": 4705,
      "PDB": 4706,
      "lost": 4707,
      "pare": 4708,
      "HO": 4709,
      "overnight": 4710,
      "cription": 4711,
      "kg": 4712,
      "beha": 4713,
      "invasive": 4714,
      "AAG": 4715,
      "inher": 4716,
      "centrifu": 4717,
      "omy": 4718,
      "adult": 4719,
      "ATM": 4720,
      "art": 4721,
      "page": 4722,
      "bonds": 4723,
      "tetramer": 4724,
      "Y5": 4725,
      "obtain": 4726,
      "iat": 4727,
      "epito": 4728,
      "allows": 4729,
      "NV": 4730,
      "daily": 4731,
      "cysteine": 4732,
      "zing": 4733,
      "veness": 4734,
      "issue": 4735,
      "juxtamembrane": 4736,
      "ways": 4737,
      "produce": 4738,
      "gluc": 4739,
      "EA": 4740,
      "R3": 4741,
      "muc": 4742,
      "classical": 4743,
      "Roche": 4744,
      "mus": 4745,
      "resto": 4746,
      "125": 4747,
      "DDR2": 4748,
      "E17": 4749,
      "HCT": 4750,
      "aggressive": 4751,
      "cons": 4752,
      "refer": 4753,
      "4E": 4754,
      "GHT": 4755,
      "dysplas": 4756,
      "triplicate": 4757,
      "phosphatidyl": 4758,
      "search": 4759,
      "HEK293": 4760,
      "coli": 4761,
      "vas": 4762,
      "Some": 4763,
      "Tre": 4764,
      "dimin": 4765,
      "HI": 4766,
      "transgenic": 4767,
      "diss": 4768,
      "variation": 4769,
      "appeared": 4770,
      "address": 4771,
      "once": 4772,
      "differentiated": 4773,
      "source": 4774,
      "ility": 4775,
      "diseases": 4776,
      "infection": 4777,
      "probes": 4778,
      "R1699": 4779,
      "PAR": 4780,
      "coil": 4781,
      "exogenous": 4782,
      "cleavage": 4783,
      "imeric": 4784,
      "bottom": 4785,
      "mammary": 4786,
      "Pl": 4787,
      "fused": 4788,
      "reshold": 4789,
      "enhance": 4790,
      "PTPR": 4791,
      "excluded": 4792,
      "immune": 4793,
      "online": 4794,
      "alpha": 4795,
      "ylated": 4796,
      "gies": 4797,
      "lobe": 4798,
      "FANC": 4799,
      "reactions": 4800,
      "eper": 4801,
      "threshold": 4802,
      "ifications": 4803,
      "difficult": 4804,
      "Point": 4805,
      "sec": 4806,
      "wards": 4807,
      "adhesion": 4808,
      "hot": 4809,
      "PS": 4810,
      "counted": 4811,
      "markedly": 4812,
      "frozen": 4813,
      "extre": 4814,
      "polyclonal": 4815,
      "scored": 4816,
      "2a": 4817,
      "Genome": 4818,
      "μm": 4819,
      "inhibiting": 4820,
      "kb": 4821,
      "doses": 4822,
      "tomy": 4823,
      "explan": 4824,
      "Ki": 4825,
      "proxim": 4826,
      "reason": 4827,
      "vine": 4828,
      "window": 4829,
      "phys": 4830,
      "van": 4831,
      "translocations": 4832,
      "Such": 4833,
      "CCN": 4834,
      "SiGHT": 4835,
      "gliomas": 4836,
      "mC": 4837,
      "women": 4838,
      "InSiGHT": 4839,
      "WI": 4840,
      "dra": 4841,
      "inducible": 4842,
      "SO": 4843,
      "V1": 4844,
      "resol": 4845,
      "independently": 4846,
      "heterogeneity": 4847,
      "pairs": 4848,
      "6B": 4849,
      "Group": 4850,
      "inflammatory": 4851,
      "rees": 4852,
      "abund": 4853,
      "chall": 4854,
      "correspond": 4855,
      "gate": 4856,
      "Patho": 4857,
      "syndrom": 4858,
      "weight": 4859,
      "CDK12": 4860,
      "Mlh1": 4861,
      "Ther": 4862,
      "discovered": 4863,
      "Prim": 4864,
      "physiological": 4865,
      "S16": 4866,
      "novo": 4867,
      "spective": 4868,
      "haps": 4869,
      "trypsin": 4870,
      "High": 4871,
      "largely": 4872,
      "digestion": 4873,
      "imen": 4874,
      "hydrox": 4875,
      "partner": 4876,
      "experi": 4877,
      "insulin": 4878,
      "Type": 4879,
      "pcDNA3": 4880,
      "Pt": 4881,
      "tivir": 4882,
      "Department": 4883,
      "SUL": 4884,
      "eluc": 4885,
      "contribution": 4886,
      "visualized": 4887,
      "Imatinib": 4888,
      "respective": 4889,
      "children": 4890,
      "uted": 4891,
      "Rel": 4892,
      "ellow": 4893,
      "moderate": 4894,
      "M1775R": 4895,
      "around": 4896,
      "D842V": 4897,
      "female": 4898,
      "mapped": 4899,
      "developing": 4900,
      "astrointestinal": 4901,
      "az": 4902,
      "proble": 4903,
      "stromal": 4904,
      "Specific": 4905,
      "Four": 4906,
      "Is": 4907,
      "immunohistochemistry": 4908,
      "GGA": 4909,
      "V617": 4910,
      "arginine": 4911,
      "Char": 4912,
      "umab": 4913,
      "ders": 4914,
      "hamartin": 4915,
      "Bri": 4916,
      "follows": 4917,
      "According": 4918,
      "From": 4919,
      "cm": 4920,
      "SULTS": 4921,
      "Seq": 4922,
      "implications": 4923,
      "I1": 4924,
      "unpublished": 4925,
      "pap": 4926,
      "truncation": 4927,
      "126": 4928,
      "Ag": 4929,
      "article": 4930,
      "FOX": 4931,
      "pertur": 4932,
      "exception": 4933,
      "alth": 4934,
      "RESULTS": 4935,
      "aw": 4936,
      "spot": 4937,
      "plastic": 4938,
      "cytoplasm": 4939,
      "unclassified": 4940,
      "compare": 4941,
      "108": 4942,
      "original": 4943,
      "substantial": 4944,
      "sulf": 4945,
      "TGFBR": 4946,
      "SION": 4947,
      "correct": 4948,
      "effectively": 4949,
      "extensive": 4950,
      "LY": 4951,
      "MATH": 4952,
      "care": 4953,
      "nitro": 4954,
      "sorafenib": 4955,
      "159": 4956,
      "146": 4957,
      "constructed": 4958,
      "assigned": 4959,
      "predominantly": 4960,
      "hum": 4961,
      "mone": 4962,
      "conjugated": 4963,
      "glyco": 4964,
      "Additionally": 4965,
      "Activation": 4966,
      "PTC": 4967,
      "EDTA": 4968,
      "reduce": 4969,
      "galacto": 4970,
      "reditary": 4971,
      "duplication": 4972,
      "biopsy": 4973,
      "sarcoma": 4974,
      "Germany": 4975,
      "Despite": 4976,
      "ier": 4977,
      "great": 4978,
      "called": 4979,
      "Also": 4980,
      "feature": 4981,
      "A3": 4982,
      "Mg": 4983,
      "cour": 4984,
      "ocytic": 4985,
      "viron": 4986,
      "32D": 4987,
      "P3": 4988,
      "efficient": 4989,
      "iatric": 4990,
      "Fam": 4991,
      "ERCC2": 4992,
      "pin": 4993,
      "USSION": 4994,
      "ratios": 4995,
      "towards": 4996,
      "until": 4997,
      "what": 4998,
      "reflect": 4999,
      "mitte": 5000,
      "tributed": 5001,
      "leuc": 5002,
      "regulator": 5003,
      "ucleotide": 5004,
      "profiling": 5005,
      "PB": 5006,
      "ake": 5007,
      "facilitate": 5008,
      "unlikely": 5009,
      "topic": 5010,
      "rank": 5011,
      "anchor": 5012,
      "inger": 5013,
      "nearly": 5014,
      "112": 5015,
      "Statistical": 5016,
      "DISCUSSION": 5017,
      "dependence": 5018,
      "pul": 5019,
      "dered": 5020,
      "differ": 5021,
      "dynamic": 5022,
      "environ": 5023,
      "minimal": 5024,
      "mally": 5025,
      "nf": 5026,
      "blast": 5027,
      "Phar": 5028,
      "qual": 5029,
      "contributes": 5030,
      "secre": 5031,
      "107": 5032,
      "180": 5033,
      "Together": 5034,
      "Biosci": 5035,
      "Breast": 5036,
      "T389": 5037,
      "dimensional": 5038,
      "ench": 5039,
      "andem": 5040,
      "neoplasms": 5041,
      "summary": 5042,
      "endo": 5043,
      "MEK2": 5044,
      "V560": 5045,
      "istic": 5046,
      "mortal": 5047,
      "MUT": 5048,
      "arise": 5049,
      "monomer": 5050,
      "MYCN": 5051,
      "ortho": 5052,
      "make": 5053,
      "recognized": 5054,
      "FBX": 5055,
      "sha": 5056,
      "manuscript": 5057,
      "suppress": 5058,
      "hormone": 5059,
      "Es": 5060,
      "ises": 5061,
      "remained": 5062,
      "1000": 5063,
      "epigene": 5064,
      "conferred": 5065,
      "syndromes": 5066,
      "9E": 5067,
      "BACH1": 5068,
      "consequence": 5069,
      "progressive": 5070,
      "Treatment": 5071,
      "FH": 5072,
      "Fish": 5073,
      "loy": 5074,
      "ners": 5075,
      "numer": 5076,
      "Reg": 5077,
      "bovine": 5078,
      "differentially": 5079,
      "Medical": 5080,
      "refrac": 5081,
      "3β": 5082,
      "A5": 5083,
      "Samples": 5084,
      "Wnt": 5085,
      "M16": 5086,
      "icted": 5087,
      "ERT2": 5088,
      "ness": 5089,
      "penetrance": 5090,
      "Notch1": 5091,
      "slide": 5092,
      "roun": 5093,
      "lands": 5094,
      "slightly": 5095,
      "quantified": 5096,
      "herin": 5097,
      "SCF": 5098,
      "cytokine": 5099,
      "RPMI": 5100,
      "nolan": 5101,
      "Immuno": 5102,
      "nolanib": 5103,
      "uti": 5104,
      "FBXW7": 5105,
      "EF": 5106,
      "chon": 5107,
      "glioblastoma": 5108,
      "Note": 5109,
      "na": 5110,
      "ubiquitylation": 5111,
      "3a": 5112,
      "160": 5113,
      "proteolysis": 5114,
      "hout": 5115,
      "preclinical": 5116,
      "Additional": 5117,
      "involvement": 5118,
      "Fisher": 5119,
      "strategies": 5120,
      "keeper": 5121,
      "panels": 5122,
      "become": 5123,
      "upper": 5124,
      "outcomes": 5125,
      "loading": 5126,
      "L861": 5127,
      "preferenti": 5128,
      "kid": 5129,
      "HCl": 5130,
      "POL": 5131,
      "epitope": 5132,
      "translational": 5133,
      "legen": 5134,
      "lots": 5135,
      "pathology": 5136,
      "SI": 5137,
      "Mutants": 5138,
      "holo": 5139,
      "NE": 5140,
      "H1047R": 5141,
      "sel": 5142,
      "retain": 5143,
      "tests": 5144,
      "Only": 5145,
      "V617F": 5146,
      "forming": 5147,
      "separate": 5148,
      "allosteric": 5149,
      "tandem": 5150,
      "cDNAs": 5151,
      "spect": 5152,
      "lineage": 5153,
      "yellow": 5154,
      "earlier": 5155,
      "cycles": 5156,
      "FAT": 5157,
      "predisposition": 5158,
      "Cdk12": 5159,
      "07": 5160,
      "dataset": 5161,
      "typically": 5162,
      "3F": 5163,
      "MAP2K1": 5164,
      "Recent": 5165,
      "PV": 5166,
      "770": 5167,
      "aster": 5168,
      "perio": 5169,
      "discus": 5170,
      "siveness": 5171,
      "aggreg": 5172,
      "hereditary": 5173,
      "degib": 5174,
      "MTOR": 5175,
      "SIF": 5176,
      "pu": 5177,
      "jection": 5178,
      "exclusive": 5179,
      "IARC": 5180,
      "GAL": 5181,
      "fluorescent": 5182,
      "starved": 5183,
      "NN": 5184,
      "modegib": 5185,
      "ETS": 5186,
      "Mul": 5187,
      "efly": 5188,
      "EWS": 5189,
      "correlate": 5190,
      "CreERT2": 5191,
      "amplifications": 5192,
      "tomas": 5193,
      "Pd": 5194,
      "uing": 5195,
      "verified": 5196,
      "helices": 5197,
      "wise": 5198,
      "SIFT": 5199,
      "Fox": 5200,
      "classify": 5201,
      "phosphoinosi": 5202,
      "partners": 5203,
      "cine": 5204,
      "males": 5205,
      "thanol": 5206,
      "BA": 5207,
      "ghout": 5208,
      "sies": 5209,
      "normally": 5210,
      "roughout": 5211,
      "absent": 5212,
      "phosphatidylinositol": 5213,
      "notion": 5214,
      "week": 5215,
      "Mer": 5216,
      "H3K27": 5217,
      "leucine": 5218,
      "DSB": 5219,
      "demonstrating": 5220,
      "refractory": 5221,
      "MutS": 5222,
      "enrichment": 5223,
      "microarray": 5224,
      "Ly": 5225,
      "itors": 5226,
      "ias": 5227,
      "cruc": 5228,
      "suppressive": 5229,
      "chemical": 5230,
      "good": 5231,
      "FIGURE": 5232,
      "%.": 5233,
      "GGT": 5234,
      "HGF": 5235,
      "cc": 5236,
      "Key": 5237,
      "peak": 5238,
      "inactivating": 5239,
      "HCT116": 5240,
      "AZD": 5241,
      "buried": 5242,
      "transient": 5243,
      "ibut": 5244,
      "legend": 5245,
      "throughout": 5246,
      "Phosphoryl": 5247,
      "seq": 5248,
      "relapse": 5249,
      "itself": 5250,
      "phosphotyrosine": 5251,
      "HDR": 5252,
      "neurofibromin": 5253,
      "center": 5254,
      "mim": 5255,
      "start": 5256,
      "introduction": 5257,
      "explanation": 5258,
      "fferen": 5259,
      "taining": 5260,
      "HLA": 5261,
      "abolish": 5262,
      "best": 5263,
      "chains": 5264,
      "128": 5265,
      "material": 5266,
      "nucleotides": 5267,
      "Bcl": 5268,
      "characteristic": 5269,
      "arged": 5270,
      "dual": 5271,
      "clustering": 5272,
      "xenograft": 5273,
      "quality": 5274,
      "focused": 5275,
      "graphic": 5276,
      "recor": 5277,
      "content": 5278,
      "consent": 5279,
      "diagnostic": 5280,
      "gatekeeper": 5281,
      "ati": 5282,
      "ming": 5283,
      "capable": 5284,
      "coupled": 5285,
      "electrophoresis": 5286,
      "accur": 5287,
      "modest": 5288,
      "uncommon": 5289,
      "blocks": 5290,
      "investigation": 5291,
      "initially": 5292,
      "protease": 5293,
      "fluor": 5294,
      "epigenetic": 5295,
      "):": 5296,
      "rat": 5297,
      "late": 5298,
      "IDH": 5299,
      "transferase": 5300,
      "ACT": 5301,
      "Clon": 5302,
      "must": 5303,
      "Kinase": 5304,
      "centros": 5305,
      "mittee": 5306,
      "similarly": 5307,
      "IHC": 5308,
      "pel": 5309,
      "ling": 5310,
      "place": 5311,
      "DBD": 5312,
      "proline": 5313,
      "DH": 5314,
      "gation": 5315,
      "ither": 5316,
      "providing": 5317,
      "horts": 5318,
      "Supp": 5319,
      "sodium": 5320,
      "Zh": 5321,
      "plicates": 5322,
      "network": 5323,
      "Pan": 5324,
      "elong": 5325,
      "check": 5326,
      "gastrointestinal": 5327,
      "SV": 5328,
      "question": 5329,
      "mediates": 5330,
      "employ": 5331,
      "MM": 5332,
      "pic": 5333,
      "stimulate": 5334,
      "phosphorylate": 5335,
      "lli": 5336,
      "MDM2": 5337,
      "crucial": 5338,
      "Conversely": 5339,
      "pedigree": 5340,
      "PARP": 5341,
      "Binding": 5342,
      "att": 5343,
      "loid": 5344,
      "cape": 5345,
      "lysine": 5346,
      "pendi": 5347,
      "eryth": 5348,
      "pendix": 5349,
      "gery": 5350,
      "hybrid": 5351,
      "Lee": 5352,
      "D835": 5353,
      "transpl": 5354,
      "characterize": 5355,
      "deviation": 5356,
      ".)": 5357,
      "-,": 5358,
      "ceritinib": 5359,
      "template": 5360,
      "retroviral": 5361,
      "please": 5362,
      "efficiently": 5363,
      "R13": 5364,
      "glioma": 5365,
      "mixture": 5366,
      "environment": 5367,
      "magn": 5368,
      "shor": 5369,
      "Fbw7": 5370,
      "interesting": 5371,
      "CU": 5372,
      "replication": 5373,
      "supernat": 5374,
      "subjects": 5375,
      "RAD51": 5376,
      "share": 5377,
      "dilution": 5378,
      "cadherin": 5379,
      "Cα": 5380,
      "ERK2": 5381,
      "assistance": 5382,
      "537": 5383,
      "SCP": 5384,
      "blocked": 5385,
      "usually": 5386,
      "5P": 5387,
      "vation": 5388,
      "true": 5389,
      "1b": 5390,
      "els": 5391,
      "strain": 5392,
      "restriction": 5393,
      "SNPs": 5394,
      "ethnic": 5395,
      "kidney": 5396,
      "VEGF": 5397,
      "tering": 5398,
      "consisting": 5399,
      "Nevertheless": 5400,
      "Loss": 5401,
      "improve": 5402,
      "rib": 5403,
      "forts": 5404,
      "direction": 5405,
      "charged": 5406,
      "folded": 5407,
      "went": 5408,
      "compass": 5409,
      "conver": 5410,
      "gest": 5411,
      "surg": 5412,
      "consist": 5413,
      "lentivir": 5414,
      "bal": 5415,
      "ply": 5416,
      "charge": 5417,
      "probabilities": 5418,
      "pedigrees": 5419,
      "cardi": 5420,
      "itored": 5421,
      "AAT": 5422,
      "monitored": 5423,
      "enger": 5424,
      "resolved": 5425,
      "Sou": 5426,
      "adeno": 5427,
      "suppressed": 5428,
      "retrovirus": 5429,
      "Gefitinib": 5430,
      "encompass": 5431,
      "antagon": 5432,
      "T6": 5433,
      "treatments": 5434,
      "hicle": 5435,
      "OF": 5436,
      "Mis": 5437,
      "reversible": 5438,
      "typing": 5439,
      "removed": 5440,
      "Min": 5441,
      "tome": 5442,
      "Information": 5443,
      "institu": 5444,
      "opti": 5445,
      "ACA": 5446,
      "elimin": 5447,
      "ylate": 5448,
      "Class": 5449,
      "anchorage": 5450,
      "LA": 5451,
      "orient": 5452,
      "cohorts": 5453,
      "phenotypic": 5454,
      "Yes": 5455,
      "chromato": 5456,
      "dissociation": 5457,
      "smaller": 5458,
      "deficiency": 5459,
      "backbone": 5460,
      "macro": 5461,
      "ky": 5462,
      "integrity": 5463,
      "V18": 5464,
      "FR": 5465,
      "290": 5466,
      "attenu": 5467,
      "antic": 5468,
      "xenografts": 5469,
      "TKD": 5470,
      "x1": 5471,
      "ists": 5472,
      "words": 5473,
      "Immunoblot": 5474,
      "perturb": 5475,
      "icine": 5476,
      "biopsies": 5477,
      "spon": 5478,
      "cytometry": 5479,
      "H12": 5480,
      "4G": 5481,
      "atelli": 5482,
      "liqu": 5483,
      "adminis": 5484,
      "Identification": 5485,
      "inherited": 5486,
      "103": 5487,
      "CCND1": 5488,
      "Ill": 5489,
      "LNC": 5490,
      "cum": 5491,
      "you": 5492,
      "oral": 5493,
      "methylated": 5494,
      "p16INK4A": 5495,
      "inge": 5496,
      "ends": 5497,
      "corresponds": 5498,
      "favorable": 5499,
      "flanking": 5500,
      "Briefly": 5501,
      "analyze": 5502,
      "interfe": 5503,
      "Section": 5504,
      "parameters": 5505,
      "utili": 5506,
      "PAL": 5507,
      "somes": 5508,
      "terior": 5509,
      "R8": 5510,
      "Comparison": 5511,
      "formations": 5512,
      "Ubc": 5513,
      "leuka": 5514,
      "finger": 5515,
      "zinc": 5516,
      "histology": 5517,
      "Appendix": 5518,
      "interpretation": 5519,
      "V17": 5520,
      "ener": 5521,
      "underwent": 5522,
      "negatively": 5523,
      "lysate": 5524,
      "glucose": 5525,
      "rix": 5526,
      "Published": 5527,
      "global": 5528,
      "Pred": 5529,
      "cit": 5530,
      "glycer": 5531,
      "structurally": 5532,
      "blastic": 5533,
      "radio": 5534,
      "basic": 5535,
      "comparing": 5536,
      "estimate": 5537,
      "aim": 5538,
      "behavi": 5539,
      "colum": 5540,
      "engine": 5541,
      "NCI": 5542,
      "conven": 5543,
      "113": 5544,
      "CARD": 5545,
      "stabilization": 5546,
      "standar": 5547,
      "mutually": 5548,
      "dead": 5549,
      "1992": 5550,
      "cade": 5551,
      "crenolanib": 5552,
      "code": 5553,
      "numerous": 5554,
      "wildtype": 5555,
      "glycine": 5556,
      "axis": 5557,
      "algorithm": 5558,
      "Biosciences": 5559,
      "examination": 5560,
      "poorly": 5561,
      "DOI": 5562,
      "accomp": 5563,
      "signature": 5564,
      "probed": 5565,
      "complementation": 5566,
      "R12": 5567,
      "pY": 5568,
      "morphology": 5569,
      "optimal": 5570,
      "National": 5571,
      "PDGFRB": 5572,
      "usions": 5573,
      "cultures": 5574,
      "bridge": 5575,
      "zes": 5576,
      "tolerated": 5577,
      "Ro": 5578,
      "MEF2B": 5579,
      "2α": 5580,
      "iae": 5581,
      "representing": 5582,
      "GVGD": 5583,
      "Character": 5584,
      "real": 5585,
      "reagent": 5586,
      "erg": 5587,
      "regulators": 5588,
      "vismodegib": 5589,
      "E7": 5590,
      "T1": 5591,
      "Ju": 5592,
      "K5": 5593,
      "run": 5594,
      "presumably": 5595,
      "acting": 5596,
      "Transfec": 5597,
      "NM_": 5598,
      "ibility": 5599,
      "span": 5600,
      "overexpressing": 5601,
      "kes": 5602,
      "ifi": 5603,
      "ium": 5604,
      "inducing": 5605,
      "GEF": 5606,
      "1708": 5607,
      "H11": 5608,
      "compromis": 5609,
      "ously": 5610,
      "Akt1": 5611,
      "aP": 5612,
      "131": 5613,
      "Respon": 5614,
      "indeed": 5615,
      "caff": 5616,
      "ofluorescence": 5617,
      "perhaps": 5618,
      "(−": 5619,
      "room": 5620,
      "romycin": 5621,
      "enhancer": 5622,
      "umina": 5623,
      "A549": 5624,
      "Schematic": 5625,
      "exer": 5626,
      "blots": 5627,
      "substantially": 5628,
      "G4": 5629,
      "comput": 5630,
      "mino": 5631,
      "alogous": 5632,
      "rout": 5633,
      "171": 5634,
      "genetics": 5635,
      "correlates": 5636,
      "idelines": 5637,
      "apy": 5638,
      "upregulation": 5639,
      "aut": 5640,
      "aries": 5641,
      "temp": 5642,
      "ERBB4": 5643,
      "5a": 5644,
      "rs": 5645,
      "unaffected": 5646,
      "RAF1": 5647,
      "holoenzyme": 5648,
      "Illumina": 5649,
      "220": 5650,
      "pathologic": 5651,
      "CMV": 5652,
      "dle": 5653,
      "mode": 5654,
      "identifi": 5655,
      "ference": 5656,
      "efforts": 5657,
      "rapidly": 5658,
      "uni": 5659,
      "adop": 5660,
      "explained": 5661,
      "loaded": 5662,
      "illi": 5663,
      "senes": 5664,
      "replace": 5665,
      "sources": 5666,
      "atellite": 5667,
      "5b": 5668,
      "eff": 5669,
      "μL": 5670,
      "Site": 5671,
      "ensi": 5672,
      "py": 5673,
      "replaced": 5674,
      "D816V": 5675,
      "Fe": 5676,
      "injection": 5677,
      "ighbor": 5678,
      "HEK293T": 5679,
      "maintain": 5680,
      "New": 5681,
      "133": 5682,
      "prolong": 5683,
      "strep": 5684,
      "teen": 5685,
      "subcellular": 5686,
      "obvious": 5687,
      "course": 5688,
      "Bank": 5689,
      "affects": 5690,
      "biology": 5691,
      "summarized": 5692,
      "repeated": 5693,
      "PTPN": 5694,
      "insight": 5695,
      "Technology": 5696,
      "Differen": 5697,
      "conservative": 5698,
      "PowerPoint": 5699,
      "IGF": 5700,
      "vehicle": 5701,
      "insights": 5702,
      "transplant": 5703,
      "ChIP": 5704,
      "intra": 5705,
      "gels": 5706,
      "p38": 5707,
      "tly": 5708,
      "stabilize": 5709,
      "S8": 5710,
      "loci": 5711,
      "PALB2": 5712,
      "responsiveness": 5713,
      "COOH": 5714,
      "WM278": 5715,
      "papillary": 5716,
      "SOX": 5717,
      "769": 5718,
      "Erk": 5719,
      "confirming": 5720,
      "MV": 5721,
      "RN": 5722,
      "Quanti": 5723,
      "phosphoinositide": 5724,
      "LNCaP": 5725,
      "eding": 5726,
      "1158": 5727,
      "restricted": 5728,
      "GCA": 5729,
      "eosin": 5730,
      "Science": 5731,
      "++": 5732,
      "states": 5733,
      "rected": 5734,
      "sely": 5735,
      "μmol": 5736,
      "accordance": 5737,
      "prepar": 5738,
      "exclude": 5739,
      "CGH": 5740,
      "TI": 5741,
      "stages": 5742,
      "surroun": 5743,
      "translated": 5744,
      "Ha": 5745,
      "cient": 5746,
      "integrated": 5747,
      "157": 5748,
      "histological": 5749,
      "GCT": 5750,
      "overcome": 5751,
      "matrix": 5752,
      "leu": 5753,
      "involves": 5754,
      "ano": 5755,
      "conflu": 5756,
      "27F": 5757,
      "cerevis": 5758,
      "closely": 5759,
      "extended": 5760,
      "just": 5761,
      "polar": 5762,
      "promoters": 5763,
      "thern": 5764,
      "1863": 5765,
      "XP": 5766,
      "Ptd": 5767,
      "lor": 5768,
      "retin": 5769,
      "ought": 5770,
      "cascade": 5771,
      "inactivated": 5772,
      "vemur": 5773,
      "skel": 5774,
      "cerevisiae": 5775,
      "mitted": 5776,
      "Amino": 5777,
      "surprising": 5778,
      "competitive": 5779,
      "Fol": 5780,
      "abrogated": 5781,
      "DMS": 5782,
      "109": 5783,
      "equil": 5784,
      "illustr": 5785,
      "thion": 5786,
      "defi": 5787,
      "TGFβ": 5788,
      "logous": 5789,
      "X2": 5790,
      "ace": 5791,
      "Cdc": 5792,
      "C6": 5793,
      "images": 5794,
      "pediatric": 5795,
      "G46": 5796,
      "fall": 5797,
      "rin": 5798,
      "osa": 5799,
      "32P": 5800,
      "enty": 5801,
      "heterogeneous": 5802,
      "Ald": 5803,
      "propose": 5804,
      "vemurafenib": 5805,
      "typical": 5806,
      "COSM": 5807,
      "Tumors": 5808,
      "HNSC": 5809,
      "S7": 5810,
      "self": 5811,
      "exclusively": 5812,
      "plications": 5813,
      "acryl": 5814,
      "vascular": 5815,
      "accel": 5816,
      "AND": 5817,
      "carcinogenesis": 5818,
      "rowth": 5819,
      "composed": 5820,
      "princ": 5821,
      "relation": 5822,
      "resec": 5823,
      "Activity": 5824,
      "progenitor": 5825,
      "engineered": 5826,
      "HNSCC": 5827,
      "2G": 5828,
      "ione": 5829,
      "mapping": 5830,
      "Keywords": 5831,
      "tron": 5832,
      "Mei": 5833,
      "Scho": 5834,
      "q22": 5835,
      "Health": 5836,
      "'-": 5837,
      "combinations": 5838,
      "SSA": 5839,
      "modifications": 5840,
      "period": 5841,
      "--": 5842,
      "ued": 5843,
      "Sep": 5844,
      "onan": 5845,
      "copies": 5846,
      "ophila": 5847,
      "Aldrich": 5848,
      "neck": 5849,
      "oxygen": 5850,
      "COSMIC": 5851,
      "(%)": 5852,
      "sought": 5853,
      "discre": 5854,
      "initiated": 5855,
      "guidelines": 5856,
      "thionine": 5857,
      "rosophila": 5858,
      "IK": 5859,
      "systematic": 5860,
      "DMSO": 5861,
      "nd": 5862,
      "regimens": 5863,
      "June": 5864,
      "MIM": 5865,
      "makes": 5866,
      "KDM": 5867,
      "humans": 5868,
      "liquid": 5869,
      "D4": 5870,
      "Top": 5871,
      "sl": 5872,
      "scaff": 5873,
      "CpG": 5874,
      "chromosomes": 5875,
      "Brd": 5876,
      "referred": 5877,
      "ora": 5878,
      "Noonan": 5879,
      "vision": 5880,
      "K7": 5881,
      "p2": 5882,
      "F1174L": 5883,
      "Homo": 5884,
      "heterozygosity": 5885,
      "Plas": 5886,
      "ymal": 5887,
      "hypothesized": 5888,
      "POLE": 5889,
      "lograp": 5890,
      "Many": 5891,
      "SHP2": 5892,
      "library": 5893,
      "DN": 5894,
      "Five": 5895,
      "Kaplan": 5896,
      "Pim": 5897,
      "IP1": 5898,
      "adily": 5899,
      "Tnf": 5900,
      "ps": 5901,
      "beg": 5902,
      "procedures": 5903,
      "aper": 5904,
      "ARAF": 5905,
      "gran": 5906,
      "neoplastic": 5907,
      "145": 5908,
      "Represent": 5909,
      "U2AF1": 5910,
      "acrylamide": 5911,
      "Selec": 5912,
      "tub": 5913,
      "depending": 5914,
      "drive": 5915,
      "8C": 5916,
      "malignancy": 5917,
      "distinguish": 5918,
      "disrupted": 5919,
      "OC": 5920,
      "IA": 5921,
      "Drosophila": 5922,
      "urrent": 5923,
      "SCo": 5924,
      "nuclei": 5925,
      "HOD": 5926,
      "Num": 5927,
      "26A": 5928,
      "GM": 5929,
      "Zn": 5930,
      "Change": 5931,
      "γ1": 5932,
      "sple": 5933,
      "mitogen": 5934,
      "onal": 5935,
      "stri": 5936,
      "755": 5937,
      "Mar": 5938,
      "NOTCH": 5939,
      "G1706": 5940,
      "recurrence": 5941,
      "ones": 5942,
      "neither": 5943,
      "transfect": 5944,
      "tenance": 5945,
      "jective": 5946,
      "Whereas": 5947,
      "4R": 5948,
      "epitheli": 5949,
      "colleag": 5950,
      "adaptor": 5951,
      "Euro": 5952,
      "rearranged": 5953,
      "authors": 5954,
      "etinib": 5955,
      "surgery": 5956,
      "oligomerization": 5957,
      "Prol": 5958,
      "relatives": 5959,
      "emato": 5960,
      "color": 5961,
      "Box": 5962,
      "clusters": 5963,
      "spontaneous": 5964,
      "areas": 5965,
      "amplic": 5966,
      "processing": 5967,
      "FP": 5968,
      "G3": 5969,
      "GK": 5970,
      "informed": 5971,
      "Image": 5972,
      "P4": 5973,
      "subgroup": 5974,
      "inst": 5975,
      "cloning": 5976,
      "simultaneous": 5977,
      "pSer": 5978,
      "wan": 5979,
      "Meier": 5980,
      "N8": 5981,
      "Ile": 5982,
      "intronic": 5983,
      "LSL": 5984,
      "K2": 5985,
      "controlled": 5986,
      "changed": 5987,
      "Histo": 5988,
      "CHEK": 5989,
      "Lung": 5990,
      "ternal": 5991,
      "SMAD3": 5992,
      "description": 5993,
      "286": 5994,
      "selectively": 5995,
      "processed": 5996,
      "ject": 5997,
      "Che": 5998,
      "R68": 5999,
      "SMAD2": 6000,
      "Germ": 6001,
      "centrosome": 6002,
      "Bar": 6003,
      "Up": 6004,
      "body": 6005,
      "plat": 6006,
      "L1196": 6007,
      "UbcH": 6008,
      "RR": 6009,
      "eting": 6010,
      "enrol": 6011,
      "units": 6012,
      "768": 6013,
      "filtration": 6014,
      "ErbB4": 6015,
      "Pharmac": 6016,
      "measurements": 6017,
      "Multi": 6018,
      "ersham": 6019,
      "plasia": 6020,
      "Strata": 6021,
      "lagen": 6022,
      "colleagues": 6023,
      "299": 6024,
      "striking": 6025,
      "repression": 6026,
      "evident": 6027,
      "release": 6028,
      "FANCA": 6029,
      "gence": 6030,
      "olar": 6031,
      "maintenance": 6032,
      "reveals": 6033,
      "Har": 6034,
      "412": 6035,
      "identifying": 6036,
      "nude": 6037,
      "Amersham": 6038,
      "variations": 6039,
      "gland": 6040,
      "relapsed": 6041,
      "heb": 6042,
      "heal": 6043,
      "curves": 6044,
      "modification": 6045,
      "Gre": 6046,
      "hinge": 6047,
      "WT1": 6048,
      "continued": 6049,
      "extraction": 6050,
      "Merlin": 6051,
      "CARD11": 6052,
      "(<": 6053,
      "arding": 6054,
      "conventional": 6055,
      "tually": 6056,
      "black": 6057,
      "ocyto": 6058,
      "mimic": 6059,
      "Cri": 6060,
      "urora": 6061,
      "genetically": 6062,
      "E545": 6063,
      "extrem": 6064,
      "conformations": 6065,
      "35S": 6066,
      "lymphomas": 6067,
      "Experimental": 6068,
      "Europe": 6069,
      "Gr": 6070,
      "H1299": 6071,
      "clustered": 6072,
      "Growth": 6073,
      "lined": 6074,
      "METHOD": 6075,
      "KrasG12D": 6076,
      "assumed": 6077,
      "Pms": 6078,
      "SET": 6079,
      "readily": 6080,
      "UTR": 6081,
      "V599": 6082,
      "ofect": 6083,
      "+)": 6084,
      "error": 6085,
      "Stratagene": 6086,
      "SS2": 6087,
      "CBP": 6088,
      "iton": 6089,
      "EGFRv": 6090,
      "agement": 6091,
      "proteasome": 6092,
      "HSC": 6093,
      "probands": 6094,
      "Asi": 6095,
      "Eco": 6096,
      "BCCs": 6097,
      "cosegregation": 6098,
      "CTNN": 6099,
      "embryos": 6100,
      "employed": 6101,
      "Oncology": 6102,
      "XL": 6103,
      "ned": 6104,
      "G13": 6105,
      "Representative": 6106,
      "αC": 6107,
      "udent": 6108,
      "shif": 6109,
      "silencing": 6110,
      "cellul": 6111,
      "dox": 6112,
      "reading": 6113,
      "Gener": 6114,
      "created": 6115,
      "Dom": 6116,
      "′;": 6117,
      "senescence": 6118,
      "PMC": 6119,
      "Six": 6120,
      "methionine": 6121,
      "METHODS": 6122,
      "Par": 6123,
      "urable": 6124,
      "inline": 6125,
      "achieve": 6126,
      "Pms1": 6127,
      "eas": 6128,
      "unrelated": 6129,
      "biom": 6130,
      "solvent": 6131,
      "Cl2": 6132,
      "laboratory": 6133,
      "diminished": 6134,
      "VEGFR": 6135,
      "Secondary": 6136,
      "identity": 6137,
      "duration": 6138,
      "amp": 6139,
      "cotransfected": 6140,
      "cytosol": 6141,
      "illa": 6142,
      "toler": 6143,
      "platinum": 6144,
      "kines": 6145,
      "CHEK2": 6146,
      "CK": 6147,
      "lesion": 6148,
      "arising": 6149,
      "collagen": 6150,
      "PDGFRα": 6151,
      "recei": 6152,
      "extension": 6153,
      "1708E": 6154,
      "clar": 6155,
      "expand": 6156,
      "healthy": 6157,
      "predictor": 6158,
      "feed": 6159,
      "improved": 6160,
      "AMP": 6161,
      "arm": 6162,
      "FF": 6163,
      "supports": 6164,
      "dely": 6165,
      "solub": 6166,
      "acetylation": 6167,
      "NTRK1": 6168,
      "preferentially": 6169,
      "sheet": 6170,
      "GAL4": 6171,
      "S15": 6172,
      "confers": 6173,
      "E17K": 6174,
      "challen": 6175,
      "widely": 6176,
      "Twenty": 6177,
      "existing": 6178,
      "static": 6179,
      "185": 6180,
      "formalin": 6181,
      "growing": 6182,
      "yp": 6183,
      "blocking": 6184,
      "cellulose": 6185,
      "V7": 6186,
      "ologic": 6187,
      "βR": 6188,
      "newly": 6189,
      "performance": 6190,
      "bodies": 6191,
      "curve": 6192,
      "allowing": 6193,
      "TMPR": 6194,
      "oste": 6195,
      "occ": 6196,
      "Triton": 6197,
      "98F": 6198,
      "ATRX": 6199,
      "Mat": 6200,
      "pore": 6201,
      "Concl": 6202,
      "metric": 6203,
      "0646": 6204,
      "Follow": 6205,
      "BRAFV600E": 6206,
      "middle": 6207,
      "Lip": 6208,
      "insert": 6209,
      "mesench": 6210,
      "3E": 6211,
      "Dr": 6212,
      "Ds": 6213,
      "white": 6214,
      "miR": 6215,
      "dynamics": 6216,
      "TMPRSS2": 6217,
      "8A": 6218,
      "Pe": 6219,
      "lytic": 6220,
      "V654": 6221,
      "ABI": 6222,
      "Bur": 6223,
      "C4": 6224,
      "Structure": 6225,
      "cd": 6226,
      "isition": 6227,
      "wing": 6228,
      "collection": 6229,
      "endothelial": 6230,
      "tomach": 6231,
      "protocols": 6232,
      "ror": 6233,
      "counsel": 6234,
      "Colle": 6235,
      "destabilize": 6236,
      "plotted": 6237,
      "NH": 6238,
      "divided": 6239,
      "NMT3": 6240,
      "progenitors": 6241,
      "Ren": 6242,
      "resem": 6243,
      "discussed": 6244,
      "Smads": 6245,
      "DNMT3": 6246,
      "computational": 6247,
      "1R": 6248,
      "prac": 6249,
      "microscopy": 6250,
      "Dat": 6251,
      "aspec": 6252,
      "variability": 6253,
      "overlapping": 6254,
      "informatic": 6255,
      "064639": 6256,
      "arom": 6257,
      "006": 6258,
      "stood": 6259,
      "lay": 6260,
      "posterior": 6261,
      "Primary": 6262,
      "smoking": 6263,
      "immunohistochemical": 6264,
      "06463922": 6265,
      "SNF": 6266,
      "donor": 6267,
      "IgG": 6268,
      "highlighted": 6269,
      "trimer": 6270,
      "illin": 6271,
      "179": 6272,
      "making": 6273,
      "merlin": 6274,
      "July": 6275,
      "coverage": 6276,
      "residual": 6277,
      "TCF": 6278,
      "4a": 6279,
      "FAC": 6280,
      "counts": 6281,
      "Missense": 6282,
      "responders": 6283,
      "baseline": 6284,
      "nilotinib": 6285,
      "MutLα": 6286,
      "accompan": 6287,
      "Aff": 6288,
      "36A": 6289,
      "Classi": 6290,
      "immunoprecipitates": 6291,
      "neighbor": 6292,
      "HEAT": 6293,
      "ided": 6294,
      "chimeric": 6295,
      "168": 6296,
      "ranging": 6297,
      "Normal": 6298,
      "preven": 6299,
      "screens": 6300,
      "microsatellite": 6301,
      "Ct": 6302,
      "mild": 6303,
      "diluted": 6304,
      "protec": 6305,
      "AGT": 6306,
      "M14": 6307,
      "activators": 6308,
      "cytosis": 6309,
      "encode": 6310,
      "+/+": 6311,
      "tools": 6312,
      "Mor": 6313,
      "Tol": 6314,
      "ler": 6315,
      "oxidase": 6316,
      "spleen": 6317,
      "SF": 6318,
      "bled": 6319,
      "decreas": 6320,
      "United": 6321,
      "ians": 6322,
      "102": 6323,
      "Dic": 6324,
      "TF": 6325,
      "unco": 6326,
      "SCLC": 6327,
      "Altern": 6328,
      "RBD": 6329,
      "ibri": 6330,
      "cles": 6331,
      "PEST": 6332,
      "energy": 6333,
      "ID1": 6334,
      "salt": 6335,
      "angiogenesis": 6336,
      "occup": 6337,
      "omers": 6338,
      "ARF": 6339,
      "limits": 6340,
      "lear": 6341,
      "understood": 6342,
      "Stat": 6343,
      "crystallograp": 6344,
      "platelet": 6345,
      "glutamine": 6346,
      "tables": 6347,
      "node": 6348,
      "chondri": 6349,
      "PTPN11": 6350,
      "resus": 6351,
      "cribed": 6352,
      "L1196M": 6353,
      "Hel": 6354,
      "Vol": 6355,
      "former": 6356,
      "CTNNB1": 6357,
      "800": 6358,
      "RNAs": 6359,
      "delay": 6360,
      "commun": 6361,
      "PtdIns": 6362,
      "HCA": 6363,
      "Nucle": 6364,
      "lies": 6365,
      "JNK": 6366,
      "ectopic": 6367,
      "NSCLCs": 6368,
      "biomark": 6369,
      "Frequ": 6370,
      "polyacrylamide": 6371,
      "confidence": 6372,
      "leukemic": 6373,
      "surgical": 6374,
      "hg": 6375,
      "Y6": 6376,
      "manif": 6377,
      "breakpoint": 6378,
      "standardi": 6379,
      "2b": 6380,
      "bour": 6381,
      "V654A": 6382,
      "deriv": 6383,
      "youn": 6384,
      "fiel": 6385,
      "Student": 6386,
      "Mel": 6387,
      "knockout": 6388,
      ".(": 6389,
      "DS": 6390,
      "ology": 6391,
      "fide": 6392,
      "ATT": 6393,
      "mention": 6394,
      "annot": 6395,
      "Phosphorylation": 6396,
      "downregulation": 6397,
      "tivari": 6398,
      "771": 6399,
      "hair": 6400,
      "feedback": 6401,
      "accompanied": 6402,
      "RTKs": 6403,
      "lie": 6404,
      "ibrium": 6405,
      "umines": 6406,
      "precipitated": 6407,
      "ipping": 6408,
      "Variant": 6409,
      "sid": 6410,
      "uses": 6411,
      "subcloned": 6412,
      "cope": 6413,
      "Stu": 6414,
      "conditional": 6415,
      "surve": 6416,
      "abolished": 6417,
      "digested": 6418,
      "V1736A": 6419,
      "prolonged": 6420,
      "comit": 6421,
      "athione": 6422,
      "me3": 6423,
      "acquisition": 6424,
      "Sa": 6425,
      "pended": 6426,
      "ARID1": 6427,
      "inserted": 6428,
      "HNP": 6429,
      "subtle": 6430,
      "tigh": 6431,
      "fractions": 6432,
      "Ret": 6433,
      "yond": 6434,
      "groove": 6435,
      "rise": 6436,
      "capture": 6437,
      "Dec": 6438,
      "′,": 6439,
      "375": 6440,
      "Oncogenic": 6441,
      "qualit": 6442,
      "Prolifer": 6443,
      "A1708E": 6444,
      "190": 6445,
      "otherapy": 6446,
      "berg": 6447,
      "positively": 6448,
      "zumab": 6449,
      "RNAi": 6450,
      "Plasmid": 6451,
      "alse": 6452,
      "subgroups": 6453,
      "refs": 6454,
      "(>": 6455,
      "ret": 6456,
      "evolutionary": 6457,
      "FM": 6458,
      "depleted": 6459,
      "Response": 6460,
      "1p": 6461,
      "3V": 6462,
      "ETV1": 6463,
      "regarding": 6464,
      "describe": 6465,
      "proband": 6466,
      "belie": 6467,
      "Hu": 6468,
      "mitotic": 6469,
      "varying": 6470,
      "chromatography": 6471,
      "Following": 6472,
      "atoms": 6473,
      "accep": 6474,
      "DC": 6475,
      "K11": 6476,
      "lity": 6477,
      "interven": 6478,
      "element": 6479,
      ")/": 6480,
      "*,": 6481,
      "Bas": 6482,
      "resh": 6483,
      "requirement": 6484,
      "Pur": 6485,
      "ressed": 6486,
      "EGFRvIII": 6487,
      "114": 6488,
      "prone": 6489,
      "effort": 6490,
      "CP": 6491,
      "HNPCC": 6492,
      "gg": 6493,
      "viable": 6494,
      "synthetic": 6495,
      "shorter": 6496,
      "attemp": 6497,
      "astrocyto": 6498,
      "9S": 6499,
      "165": 6500,
      "Medicine": 6501,
      "mitochondri": 6502,
      "scanning": 6503,
      "OnlineFirst": 6504,
      "solved": 6505,
      "appearance": 6506,
      "tend": 6507,
      "motility": 6508,
      "recursor": 6509,
      "originally": 6510,
      "Trp": 6511,
      "MPN": 6512,
      "Super": 6513,
      "Wang": 6514,
      "Cont": 6515,
      "demonstrates": 6516,
      "carrier": 6517,
      "RBM": 6518,
      "cytic": 6519,
      "mach": 6520,
      "Cyclin": 6521,
      "explore": 6522,
      "Mc": 6523,
      "bul": 6524,
      "L747": 6525,
      "premature": 6526,
      "consists": 6527,
      "specimen": 6528,
      "chosen": 6529,
      "conversion": 6530,
      "Immunoprecipit": 6531,
      "interfere": 6532,
      "Wil": 6533,
      "objective": 6534,
      "tase": 6535,
      "const": 6536,
      "Immunohistoche": 6537,
      "HB": 6538,
      "dup": 6539,
      "Posi": 6540,
      "Y8": 6541,
      "NPM": 6542,
      "mesylate": 6543,
      "lacks": 6544,
      "myeloproliferative": 6545,
      "receiving": 6546,
      "xia": 6547,
      "lectively": 6548,
      "Page": 6549,
      "spectrome": 6550,
      "surrounding": 6551,
      "sa": 6552,
      "idea": 6553,
      "puromycin": 6554,
      "mediately": 6555,
      "silent": 6556,
      "E6": 6557,
      "own": 6558,
      "riad": 6559,
      "MCF7": 6560,
      "sine": 6561,
      "ilent": 6562,
      "cytogenetic": 6563,
      "HDAC": 6564,
      "nover": 6565,
      "orientation": 6566,
      "immortal": 6567,
      "348": 6568,
      "NF2": 6569,
      "conclude": 6570,
      "carboxy": 6571,
      "NJ": 6572,
      "pg": 6573,
      "Ampl": 6574,
      "precursor": 6575,
      "va": 6576,
      "CSF": 6577,
      "FAT1": 6578,
      ".[": 6579,
      "SW": 6580,
      "list": 6581,
      "resuspended": 6582,
      "NB": 6583,
      "parts": 6584,
      "details": 6585,
      "tidine": 6586,
      "TrkA": 6587,
      "Number": 6588,
      "UK": 6589,
      "prevalent": 6590,
      "antitumor": 6591,
      "ABC": 6592,
      "tice": 6593,
      "H3K4": 6594,
      "passenger": 6595,
      "sche": 6596,
      "existence": 6597,
      "successfully": 6598,
      "R611": 6599,
      "termination": 6600,
      "O1": 6601,
      "IG": 6602,
      "wal": 6603,
      "why": 6604,
      "microscope": 6605,
      "Mem": 6606,
      "false": 6607,
      "sch": 6608,
      "throughput": 6609,
      "Germline": 6610,
      "platform": 6611,
      "ofectamine": 6612,
      "mesenchymal": 6613,
      "VA": 6614,
      "maximum": 6615,
      "instead": 6616,
      "gov": 6617,
      "recorded": 6618,
      "750": 6619,
      "Gu": 6620,
      "Rem": 6621,
      "away": 6622,
      "spectra": 6623,
      "ART": 6624,
      "popup": 6625,
      "decis": 6626,
      "glutathione": 6627,
      "contribut": 6628,
      "See": 6629,
      "Signific": 6630,
      "modul": 6631,
      "subject": 6632,
      "Micro": 6633,
      "centrifugation": 6634,
      "linking": 6635,
      "abundance": 6636,
      "checkpoint": 6637,
      "+,": 6638,
      "GNA": 6639,
      "µM": 6640,
      "Genetics": 6641,
      "BIM": 6642,
      "catalysis": 6643,
      "Her": 6644,
      "duplex": 6645,
      "240": 6646,
      "NIC": 6647,
      "dehy": 6648,
      "lymphoid": 6649,
      "kk2": 6650,
      "127": 6651,
      "Mac": 6652,
      "indis": 6653,
      "closed": 6654,
      "turnover": 6655,
      "parad": 6656,
      "AKT2": 6657,
      "potently": 6658,
      "month": 6659,
      "promoted": 6660,
      "mediating": 6661,
      "synthesized": 6662,
      "sustained": 6663,
      "mentioned": 6664,
      "ethanol": 6665,
      "analogous": 6666,
      "Y527F": 6667,
      "rose": 6668,
      "predicting": 6669,
      ")–": 6670,
      "PTPρ": 6671,
      "+/−": 6672,
      "V560D": 6673,
      "6D": 6674,
      "Mon": 6675,
      "iSH2": 6676,
      "tex": 6677,
      "always": 6678,
      "yielded": 6679,
      "fash": 6680,
      "cher": 6681,
      "3_": 6682,
      "peroxidase": 6683,
      "Mice": 6684,
      "ÃŸ": 6685,
      "mostly": 6686,
      "Error": 6687,
      "attr": 6688,
      "supplemental": 6689,
      "fashion": 6690,
      "vast": 6691,
      "females": 6692,
      "siRNAs": 6693,
      "Cop": 6694,
      "Y12": 6695,
      "whom": 6696,
      "ERI": 6697,
      "inclusion": 6698,
      "bacterial": 6699,
      "340": 6700,
      "pooled": 6701,
      "3G": 6702,
      "urin": 6703,
      "recommend": 6704,
      "1H": 6705,
      "CAF1": 6706,
      "excess": 6707,
      "lethal": 6708,
      "supernatant": 6709,
      "elling": 6710,
      "C0": 6711,
      "Sensi": 6712,
      "sym": 6713,
      "HC": 6714,
      "ewise": 6715,
      "risks": 6716,
      "345": 6717,
      "248": 6718,
      "denaturing": 6719,
      "TEL": 6720,
      "System": 6721,
      "MKK4": 6722,
      "CE": 6723,
      "concer": 6724,
      "photo": 6725,
      "simple": 6726,
      "Lik": 6727,
      "equilibrium": 6728,
      "diffuse": 6729,
      "241": 6730,
      "belong": 6731,
      "greatly": 6732,
      "spanning": 6733,
      "Hence": 6734,
      "hBRCA1": 6735,
      "sensiti": 6736,
      "systemic": 6737,
      "Family": 6738,
      "Y527FSrc": 6739,
      "2015": 6740,
      "animal": 6741,
      "Bam": 6742,
      "upregulated": 6743,
      "Jo": 6744,
      "SQ": 6745,
      "ΔB": 6746,
      "atyp": 6747,
      "249": 6748,
      "FBW7": 6749,
      "Proliferation": 6750,
      "precise": 6751,
      "~~": 6752,
      "concomit": 6753,
      "Agilent": 6754,
      "xL": 6755,
      "input": 6756,
      "Assays": 6757,
      "gent": 6758,
      "seud": 6759,
      "119": 6760,
      "heterodimerization": 6761,
      "SNV": 6762,
      "slow": 6763,
      "PLX": 6764,
      "A6": 6765,
      "p1": 6766,
      "yme": 6767,
      "diversity": 6768,
      "1640": 6769,
      "ximab": 6770,
      "arrows": 6771,
      "BAF": 6772,
      "gift": 6773,
      "exonic": 6774,
      "Inhibition": 6775,
      "/-": 6776,
      "ocr": 6777,
      "gray": 6778,
      "Model": 6779,
      "column": 6780,
      "vitinib": 6781,
      "005": 6782,
      "posite": 6783,
      "extend": 6784,
      "9R": 6785,
      "maximal": 6786,
      "BIC": 6787,
      "FCS": 6788,
      "omorph": 6789,
      "interfer": 6790,
      "Taq": 6791,
      "consistently": 6792,
      "ordered": 6793,
      "categories": 6794,
      "CIC": 6795,
      "Ra": 6796,
      "deregulated": 6797,
      "associate": 6798,
      "insufficient": 6799,
      "MEN": 6800,
      "oligonucleotide": 6801,
      "235": 6802,
      "promin": 6803,
      "ATG": 6804,
      "afatinib": 6805,
      "Resid": 6806,
      "Colon": 6807,
      "G12C": 6808,
      "rh": 6809,
      "validate": 6810,
      "Specifically": 6811,
      "extremely": 6812,
      "Aα": 6813,
      "PM": 6814,
      "CTION": 6815,
      "arcomas": 6816,
      "Slide": 6817,
      "CANC": 6818,
      "Math": 6819,
      "helicase": 6820,
      "dule": 6821,
      "avoid": 6822,
      "inlineView": 6823,
      "q13": 6824,
      "ication": 6825,
      "immediately": 6826,
      "enhances": 6827,
      "lymphocytes": 6828,
      "exists": 6829,
      "reconstitu": 6830,
      "chaper": 6831,
      "ongo": 6832,
      "bling": 6833,
      "Cat": 6834,
      "esides": 6835,
      "rarely": 6836,
      "433": 6837,
      "Milli": 6838,
      "Cyto": 6839,
      "RHO": 6840,
      "world": 6841,
      "idi": 6842,
      "constitutional": 6843,
      "ROS": 6844,
      "ABL1": 6845,
      "acetyl": 6846,
      "anaplastic": 6847,
      "Mb": 6848,
      "expan": 6849,
      "drivers": 6850,
      "Deletion": 6851,
      "promising": 6852,
      "A2": 6853,
      "TβR": 6854,
      "pull": 6855,
      "Or": 6856,
      "Rheb": 6857,
      "dysplasia": 6858,
      "SOX9": 6859,
      "129": 6860,
      "counseling": 6861,
      "Studies": 6862,
      "orial": 6863,
      "symp": 6864,
      "immunofluorescence": 6865,
      "spliced": 6866,
      "3b": 6867,
      "µg": 6868,
      "CLL": 6869,
      "removal": 6870,
      "FQ": 6871,
      "Hh": 6872,
      "S22": 6873,
      "pseud": 6874,
      "H4": 6875,
      "Cyc": 6876,
      ".).": 6877,
      "VE": 6878,
      "unlike": 6879,
      "meg": 6880,
      "Hsp": 6881,
      "cold": 6882,
      "beyond": 6883,
      "count": 6884,
      "EWSR1": 6885,
      "fed": 6886,
      "jo": 6887,
      "cytokines": 6888,
      "PTPRD": 6889,
      "iC": 6890,
      "Material": 6891,
      "transfectants": 6892,
      "adverse": 6893,
      "A76": 6894,
      "Hes": 6895,
      "gf": 6896,
      "Melan": 6897,
      "WPD": 6898,
      "iction": 6899,
      "depri": 6900,
      "management": 6901,
      "carboxyl": 6902,
      "MgCl2": 6903,
      "Tissue": 6904,
      "Appro": 6905,
      "destabilized": 6906,
      "Millipore": 6907,
      "557": 6908,
      "202": 6909,
      "ficial": 6910,
      "reached": 6911,
      "Lu": 6912,
      "ls": 6913,
      "ot": 6914,
      "remark": 6915,
      "bioinformatic": 6916,
      "(.": 6917,
      "ost": 6918,
      "osomal": 6919,
      "Renilla": 6920,
      "Ep": 6921,
      "UCTION": 6922,
      "pRB": 6923,
      "observe": 6924,
      "ATION": 6925,
      "Myriad": 6926,
      "segreg": 6927,
      "expansion": 6928,
      "distance": 6929,
      "phil": 6930,
      "TRiC": 6931,
      "damaging": 6932,
      "ODUCTION": 6933,
      "R130": 6934,
      "xol": 6935,
      "nonsynonymous": 6936,
      "flex2": 6937,
      "soluble": 6938,
      "tivariate": 6939,
      "xolitinib": 6940,
      "Sing": 6941,
      "NH2": 6942,
      "198": 6943,
      "depends": 6944,
      "ARCH": 6945,
      "Control": 6946,
      "Fu": 6947,
      "aligned": 6948,
      "ire": 6949,
      "leukaemia": 6950,
      "interference": 6951,
      "heterologous": 6952,
      "Tet": 6953,
      "icin": 6954,
      "HER3": 6955,
      "ongoing": 6956,
      "inactivate": 6957,
      "PKC412": 6958,
      "Relative": 6959,
      "Core": 6960,
      "Gli": 6961,
      "Zhang": 6962,
      "transplantation": 6963,
      "Domain": 6964,
      "mobil": 6965,
      "fibroblast": 6966,
      "accession": 6967,
      "lox": 6968,
      "tended": 6969,
      "carbon": 6970,
      "GDC": 6971,
      "fluoride": 6972,
      "NI": 6973,
      "ester": 6974,
      "7R": 6975,
      "imaging": 6976,
      "spected": 6977,
      "depicted": 6978,
      "Culture": 6979,
      "randomly": 6980,
      "astu": 6981,
      "cyclo": 6982,
      "iter": 6983,
      "extract": 6984,
      "cancerres": 6985,
      "Chin": 6986,
      "vised": 6987,
      "yrin": 6988,
      "tomycin": 6989,
      "TGFBR2": 6990,
      "G418": 6991,
      "slides": 6992,
      "2E": 6993,
      "hMLH1": 6994,
      "faces": 6995,
      "cium": 6996,
      "Jan": 6997,
      "Sum": 6998,
      "endonucle": 6999,
      "INTR": 7000,
      "sidase": 7001,
      "INTRODUCTION": 7002,
      "examples": 7003,
      "OB": 7004,
      "LCH": 7005,
      "Alternatively": 7006,
      "D10": 7007,
      "cryp": 7008,
      "glycerol": 7009,
      "emo": 7010,
      "1991": 7011,
      "trio": 7012,
      "Effect": 7013,
      "V14": 7014,
      "Y10": 7015,
      "147": 7016,
      "Suppor": 7017,
      "Resistance": 7018,
      "SHP": 7019,
      "lymphoblastic": 7020,
      "5D": 7021,
      "abe": 7022,
      "interval": 7023,
      "PKB": 7024,
      "timately": 7025,
      "GAC": 7026,
      "biotin": 7027,
      "deno": 7028,
      "home": 7029,
      "xl": 7030,
      "versions": 7031,
      "childhood": 7032,
      "preparation": 7033,
      "fresh": 7034,
      "informative": 7035,
      "Powerpoint": 7036,
      "uter": 7037,
      "amo": 7038,
      "give": 7039,
      "qualitative": 7040,
      "P16": 7041,
      "eptor": 7042,
      "histologic": 7043,
      "databases": 7044,
      "incorporation": 7045,
      "Vector": 7046,
      "thio": 7047,
      "utamide": 7048,
      "hole": 7049,
      "metabolism": 7050,
      "mock": 7051,
      "spind": 7052,
      "CAAX": 7053,
      "BCL2": 7054,
      "Asp92": 7055,
      "problem": 7056,
      "erved": 7057,
      "essentially": 7058,
      "oncogenesis": 7059,
      "standardized": 7060,
      "C3": 7061,
      "134": 7062,
      "osal": 7063,
      "5H": 7064,
      "FS": 7065,
      "N6": 7066,
      "awa": 7067,
      "resection": 7068,
      "Ben": 7069,
      "RS": 7070,
      "retic": 7071,
      "entry": 7072,
      "amb": 7073,
      "synerg": 7074,
      "apparently": 7075,
      "harbour": 7076,
      "KMT2D": 7077,
      "Tau": 7078,
      "masto": 7079,
      "elucidate": 7080,
      "Py": 7081,
      "hex": 7082,
      "pseudo": 7083,
      "Pten": 7084,
      "acZ": 7085,
      "similarity": 7086,
      "%–": 7087,
      "Ovarian": 7088,
      "atypical": 7089,
      "stract": 7090,
      "ATCC": 7091,
      "ukaryo": 7092,
      "modulate": 7093,
      "hence": 7094,
      "excis": 7095,
      "hematologic": 7096,
      "NUP": 7097,
      "Accordingly": 7098,
      "771ins": 7099,
      "PO": 7100,
      "termed": 7101,
      "integration": 7102,
      "pERK": 7103,
      "skipping": 7104,
      "gains": 7105,
      "reproduc": 7106,
      "endocr": 7107,
      "docking": 7108,
      "NTRK3": 7109,
      "lentiviral": 7110,
      "cdk": 7111,
      "7P": 7112,
      "bad": 7113,
      "L16": 7114,
      "diver": 7115,
      "astuzumab": 7116,
      "244": 7117,
      "procedure": 7118,
      "ECs": 7119,
      "dramatically": 7120,
      "Transcrip": 7121,
      "H3122": 7122,
      "vity": 7123,
      "skeletal": 7124,
      "princi": 7125,
      "calcium": 7126,
      "explored": 7127,
      "proximal": 7128,
      "Dul": 7129,
      "glutam": 7130,
      "oligonucleotides": 7131,
      "RNase": 7132,
      "signatures": 7133,
      "adio": 7134,
      "DE": 7135,
      "remission": 7136,
      "variables": 7137,
      "distributed": 7138,
      "eukaryo": 7139,
      "stain": 7140,
      "IFN": 7141,
      "recommended": 7142,
      "R1699Q": 7143,
      "4F": 7144,
      "Whole": 7145,
      "vents": 7146,
      "distal": 7147,
      "speculate": 7148,
      "autosomal": 7149,
      "Det": 7150,
      "alk": 7151,
      "CAC": 7152,
      "mobility": 7153,
      "otherwise": 7154,
      "abrogate": 7155,
      "category": 7156,
      "ankyrin": 7157,
      "galactose": 7158,
      "machin": 7159,
      "poses": 7160,
      "create": 7161,
      "maintaining": 7162,
      "alignments": 7163,
      "phenylalanine": 7164,
      "Aurora": 7165,
      "SBC": 7166,
      "karyo": 7167,
      "abase": 7168,
      "CRPC": 7169,
      "Thir": 7170,
      "Experiments": 7171,
      "proximity": 7172,
      "Asian": 7173,
      "elic": 7174,
      "E545K": 7175,
      "rit": 7176,
      "Prob": 7177,
      "itive": 7178,
      "ipped": 7179,
      "leukemias": 7180,
      "encompassing": 7181,
      "CD8": 7182,
      "suppressors": 7183,
      "R132H": 7184,
      "HU": 7185,
      "T8": 7186,
      "fa": 7187,
      "⇓⇓": 7188,
      "Pim1": 7189,
      "ley": 7190,
      "ford": 7191,
      "susp": 7192,
      "move": 7193,
      "aph": 7194,
      "abdom": 7195,
      "progress": 7196,
      "ferences": 7197,
      "FACS": 7198,
      "insensitive": 7199,
      "asym": 7200,
      "lion": 7201,
      "starting": 7202,
      "becco": 7203,
      "destabilizing": 7204,
      "European": 7205,
      "T10": 7206,
      "exce": 7207,
      "minimum": 7208,
      "dehyde": 7209,
      "Dulbecco": 7210,
      "Ko": 7211,
      "SG": 7212,
      "eluted": 7213,
      "ock": 7214,
      "phas": 7215,
      "Die": 7216,
      "qPCR": 7217,
      "901": 7218,
      "purification": 7219,
      "muscle": 7220,
      "Lyn": 7221,
      "ale": 7222,
      "266": 7223,
      "comprised": 7224,
      "WD": 7225,
      "foun": 7226,
      "factorial": 7227,
      "comparisons": 7228,
      "7C": 7229,
      "204": 7230,
      "Hes1": 7231,
      "considerable": 7232,
      "trigger": 7233,
      "aspects": 7234,
      "machinery": 7235,
      "NY": 7236,
      "scr": 7237,
      "calf": 7238,
      "complementary": 7239,
      "hepato": 7240,
      "1F": 7241,
      "V12": 7242,
      "pm": 7243,
      "p73": 7244,
      "idine": 7245,
      "immunoblotted": 7246,
      "stranded": 7247,
      "Remark": 7248,
      "DOD": 7249,
      "trix": 7250,
      "156": 7251,
      "GRD": 7252,
      "5382": 7253,
      "Tur": 7254,
      "509": 7255,
      "omerase": 7256,
      "Memorial": 7257,
      "259": 7258,
      "acidic": 7259,
      "ratinib": 7260,
      "CD34": 7261,
      "FGFR4": 7262,
      "ymetrix": 7263,
      "marks": 7264,
      "stabilized": 7265,
      "washing": 7266,
      "Lipofectamine": 7267,
      "D92": 7268,
      "icillin": 7269,
      "withdra": 7270,
      "258": 7271,
      "globulin": 7272,
      "monitor": 7273,
      "classifications": 7274,
      "elucid": 7275,
      "TE": 7276,
      "export": 7277,
      "breaks": 7278,
      "transcribed": 7279,
      "Summary": 7280,
      "tham": 7281,
      "239": 7282,
      "lacked": 7283,
      "simultaneously": 7284,
      "Ob": 7285,
      "subsets": 7286,
      "disrupting": 7287,
      "sex": 7288,
      "genomes": 7289,
      "serous": 7290,
      "ip1": 7291,
      "Under": 7292,
      "nitrogen": 7293,
      "pRb": 7294,
      "strands": 7295,
      "numbering": 7296,
      "ruxolitinib": 7297,
      "571": 7298,
      "guanine": 7299,
      "behavior": 7300,
      "enrolled": 7301,
      "pL": 7302,
      "Committee": 7303,
      "E2F": 7304,
      "Hep": 7305,
      "S9": 7306,
      "subcutaneous": 7307,
      "mechanistic": 7308,
      "goat": 7309,
      "clinico": 7310,
      "I26A": 7311,
      "V56": 7312,
      "pR": 7313,
      "hem": 7314,
      "mann": 7315,
      "tention": 7316,
      "morphological": 7317,
      "utilized": 7318,
      "triple": 7319,
      "L861Q": 7320,
      "tial": 7321,
      "web": 7322,
      "CTC": 7323,
      "steps": 7324,
      "D12": 7325,
      "tg": 7326,
      "connec": 7327,
      "GAAG": 7328,
      "pancreas": 7329,
      "CANCER": 7330,
      "Grap": 7331,
      "nod": 7332,
      "Syste": 7333,
      "anticip": 7334,
      "Gran": 7335,
      "hall": 7336,
      "unexpected": 7337,
      "Abstract": 7338,
      "routine": 7339,
      "2159": 7340,
      "Case": 7341,
      "zol": 7342,
      "prin": 7343,
      "consisted": 7344,
      "driving": 7345,
      "8290": 7346,
      "Sce": 7347,
      "take": 7348,
      "unstable": 7349,
      "linear": 7350,
      "algorithms": 7351,
      "coiled": 7352,
      "Green": 7353,
      "Likewise": 7354,
      "Y537": 7355,
      "tuximab": 7356,
      "1990": 7357,
      "Increased": 7358,
      "DsRed": 7359,
      "concomitant": 7360,
      "usive": 7361,
      "quite": 7362,
      "trametinib": 7363,
      "Affymetrix": 7364,
      "contributing": 7365,
      "Zn2": 7366,
      "ann": 7367,
      "accom": 7368,
      "139": 7369,
      "(#": 7370,
      "b2": 7371,
      "extra": 7372,
      "heterodimers": 7373,
      "availability": 7374,
      "omorphic": 7375,
      "L140": 7376,
      "og": 7377,
      "unphosphorylated": 7378,
      "U2OS": 7379,
      "experienced": 7380,
      "replacement": 7381,
      "endonuclease": 7382,
      "mastocytosis": 7383,
      "Sof": 7384,
      "p13": 7385,
      "Individu": 7386,
      "291": 7387,
      "Review": 7388,
      "gave": 7389,
      "nih": 7390,
      "metabolic": 7391,
      "endocrine": 7392,
      "Slo": 7393,
      "poies": 7394,
      "histidine": 7395,
      "TTT": 7396,
      "SEARCH": 7397,
      "poiesis": 7398,
      "Luc": 7399,
      "Proteins": 7400,
      "118": 7401,
      "515": 7402,
      "cetuximab": 7403,
      "comparative": 7404,
      "diagram": 7405,
      "770_": 7406,
      "Compared": 7407,
      "junctions": 7408,
      "cancerdiscovery": 7409,
      "RESEARCH": 7410,
      "Antibodies": 7411,
      "Jak": 7412,
      "equally": 7413,
      "Detail": 7414,
      "EMS": 7415,
      "osome": 7416,
      "beit": 7417,
      "insC": 7418,
      "viewer": 7419,
      "phosphatases": 7420,
      "EcoRI": 7421,
      "founder": 7422,
      "illustrated": 7423,
      "T16": 7424,
      "184": 7425,
      "burden": 7426,
      "stren": 7427,
      "vering": 7428,
      "R1699W": 7429,
      "prominent": 7430,
      "Bcr": 7431,
      "ica": 7432,
      "highlight": 7433,
      "GTG": 7434,
      "portun": 7435,
      "substituted": 7436,
      "ateral": 7437,
      "restore": 7438,
      "compromised": 7439,
      "2F": 7440,
      "Mouse": 7441,
      "cyte": 7442,
      "uding": 7443,
      "breakpoints": 7444,
      "AB": 7445,
      "spots": 7446,
      "acin": 7447,
      "AK1": 7448,
      "densi": 7449,
      "dysplastic": 7450,
      "var": 7451,
      "Small": 7452,
      "biologic": 7453,
      "m2": 7454,
      "ORF": 7455,
      "programs": 7456,
      "anne": 7457,
      "DTT": 7458,
      "emergence": 7459,
      "mucosal": 7460,
      "streptomycin": 7461,
      "granul": 7462,
      "Ter": 7463,
      "retention": 7464,
      "CRL": 7465,
      "341": 7466,
      "iques": 7467,
      "penicillin": 7468,
      "Diag": 7469,
      "Approximately": 7470,
      "mAb": 7471,
      "posing": 7472,
      "Proced": 7473,
      "disrupts": 7474,
      "Dete": 7475,
      "streng": 7476,
      "))": 7477,
      "Phen": 7478,
      "albeit": 7479,
      "fewer": 7480,
      "unit": 7481,
      "opportun": 7482,
      "Institutional": 7483,
      "emerged": 7484,
      "R273H": 7485,
      "Y100": 7486,
      "kinetic": 7487,
      "Ket": 7488,
      "h2": 7489,
      "orafenib": 7490,
      "varied": 7491,
      "SEM": 7492,
      "proteasomal": 7493,
      "ortholog": 7494,
      "ARTIC": 7495,
      "Procedures": 7496,
      "HNF": 7497,
      "764": 7498,
      "grams": 7499,
      "Rap": 7500,
      "throm": 7501,
      "predispose": 7502,
      "R249S": 7503,
      "instance": 7504,
      "tative": 7505,
      "undred": 7506,
      "ATPase": 7507,
      "deregulation": 7508,
      "determination": 7509,
      "Carls": 7510,
      "R337": 7511,
      "shared": 7512,
      "R14": 7513,
      "rules": 7514,
      "deep": 7515,
      "responding": 7516,
      "cept": 7517,
      "estimates": 7518,
      "crystallographic": 7519,
      "Supporting": 7520,
      "Kettering": 7521,
      "842": 7522,
      "I11": 7523,
      "cial": 7524,
      "transduc": 7525,
      "1853": 7526,
      "CREB": 7527,
      "spindle": 7528,
      "Carlsbad": 7529,
      "Luciferase": 7530,
      "TD": 7531,
      "reasons": 7532,
      "exhibits": 7533,
      "GAPs": 7534,
      "64P": 7535,
      "stabilizing": 7536,
      "techniques": 7537,
      "field": 7538,
      "SARA": 7539,
      "galactosidase": 7540,
      "Lynch": 7541,
      "esoph": 7542,
      "Constitu": 7543,
      "Y59": 7544,
      "opposite": 7545,
      "538": 7546,
      "Web": 7547,
      "displaying": 7548,
      "sulfate": 7549,
      "hundred": 7550,
      "split": 7551,
      "SMAR": 7552,
      "largest": 7553,
      "institutional": 7554,
      "255": 7555,
      "Unlike": 7556,
      "filtr": 7557,
      "Mad": 7558,
      "So": 7559,
      "aki": 7560,
      "Remarkably": 7561,
      "cam": 7562,
      "sap": 7563,
      "asy": 7564,
      "isphosphate": 7565,
      "mail": 7566,
      "Frequency": 7567,
      "fedratinib": 7568,
      "attribution": 7569,
      "PAX": 7570,
      "indistinguish": 7571,
      "ights": 7572,
      "portions": 7573,
      "Map": 7574,
      "dic": 7575,
      "brevi": 7576,
      "generating": 7577,
      "recognizes": 7578,
      "spectrometry": 7579,
      "OCT": 7580,
      "_EGFR": 7581,
      "ada": 7582,
      "pleural": 7583,
      "thymic": 7584,
      "GBMs": 7585,
      "ABD": 7586,
      "Wor": 7587,
      "logistic": 7588,
      "Muta": 7589,
      "396": 7590,
      "Chen": 7591,
      "colored": 7592,
      "genotyping": 7593,
      "G719S": 7594,
      "itable": 7595,
      "intrig": 7596,
      "regardless": 7597,
      "Thermo": 7598,
      "sect": 7599,
      "111": 7600,
      "balance": 7601,
      "Southern": 7602,
      "Current": 7603,
      "deoxy": 7604,
      "251": 7605,
      "589": 7606,
      "recruited": 7607,
      "remove": 7608,
      "ploid": 7609,
      "endro": 7610,
      "GATA3": 7611,
      "uminescence": 7612,
      "RB1": 7613,
      "altering": 7614,
      "Grantham": 7615,
      "L755": 7616,
      "repressor": 7617,
      "emerging": 7618,
      "million": 7619,
      "H93": 7620,
      "280": 7621,
      "T670": 7622,
      "ARTICLE": 7623,
      "string": 7624,
      "phosphorylates": 7625,
      "indistinguishable": 7626,
      "indirect": 7627,
      "attributed": 7628,
      "Sloan": 7629,
      "iss": 7630,
      "flex7": 7631,
      "administration": 7632,
      "cu": 7633,
      "​(": 7634,
      "entific": 7635,
      "rule": 7636,
      "kinetics": 7637,
      "Mutational": 7638,
      "linkage": 7639,
      "_EGFR_": 7640,
      "NMR": 7641,
      "cf": 7642,
      "18T": 7643,
      "osarcoma": 7644,
      "IIIb": 7645,
      "successful": 7646,
      "recommendations": 7647,
      "HS": 7648,
      "__": 7649,
      "aug": 7650,
      "tism": 7651,
      "glycos": 7652,
      "FQEA": 7653,
      "931": 7654,
      "infiltr": 7655,
      "ats": 7656,
      "arrays": 7657,
      "experience": 7658,
      "ory": 7659,
      "follic": 7660,
      "ron": 7661,
      "saf": 7662,
      "sum": 7663,
      "olute": 7664,
      "MDA": 7665,
      "Database": 7666,
      "suppresses": 7667,
      "sorti": 7668,
      "stronger": 7669,
      "reducing": 7670,
      "Collectively": 7671,
      "OVER": 7672,
      "challenge": 7673,
      "amplify": 7674,
      "downregulated": 7675,
      "determining": 7676,
      "serves": 7677,
      "ucas": 7678,
      "007": 7679,
      "agle": 7680,
      "Caucas": 7681,
      "iii": 7682,
      "packing": 7683,
      "discrepanc": 7684,
      "practice": 7685,
      "serial": 7686,
      "Inhibitor": 7687,
      "eosinophil": 7688,
      "RHOA": 7689,
      "KO": 7690,
      "invariant": 7691,
      "irreversible": 7692,
      "thylation": 7693,
      "rescued": 7694,
      "discr": 7695,
      "bias": 7696,
      "hypoxia": 7697,
      "immunoglobulin": 7698,
      "evolutionarily": 7699,
      "rationale": 7700,
      "SMARCA": 7701,
      "AAC": 7702,
      "remodeling": 7703,
      "erb": 7704,
      "FFPE": 7705,
      "::": 7706,
      "SSCP": 7707,
      "p11": 7708,
      "resected": 7709,
      "herent": 7710,
      "GAPDH": 7711,
      "-(": 7712,
      "EX": 7713,
      "53BP1": 7714,
      "absolute": 7715,
      "placed": 7716,
      "extensively": 7717,
      "comprising": 7718,
      "trioid": 7719,
      "Can": 7720,
      "Sensitivity": 7721,
      "mt": 7722,
      "itone": 7723,
      "proven": 7724,
      "comb": 7725,
      "adenomas": 7726,
      "impl": 7727,
      "ques": 7728,
      "ancy": 7729,
      "strati": 7730,
      "13G": 7731,
      "achi": 7732,
      "Cry": 7733,
      "Mass": 7734,
      "SF2": 7735,
      "trastuzumab": 7736,
      "usted": 7737,
      "BLI": 7738,
      "oxyl": 7739,
      "Pathology": 7740,
      "communication": 7741,
      "leukemo": 7742,
      "displays": 7743,
      "optim": 7744,
      "Construc": 7745,
      "solely": 7746,
      "keratin": 7747,
      "DISCOVER": 7748,
      "Mutagenesis": 7749,
      "DISCOVERY": 7750,
      "dephosphorylation": 7751,
      "11T": 7752,
      "Cher": 7753,
      "cytosolic": 7754,
      "hind": 7755,
      "reduces": 7756,
      "HMG": 7757,
      "Upon": 7758,
      "db": 7759,
      "weaken": 7760,
      "Dise": 7761,
      "Puc": 7762,
      "163": 7763,
      "landscape": 7764,
      "hepatocellular": 7765,
      "YFP": 7766,
      "lets": 7767,
      "534": 7768,
      "S34": 7769,
      "iens": 7770,
      "ero": 7771,
      "toms": 7772,
      "transgene": 7773,
      "115": 7774,
      "oblastomas": 7775,
      "bases": 7776,
      "138": 7777,
      "autism": 7778,
      "owing": 7779,
      "catalytically": 7780,
      "concurrent": 7781,
      "odendro": 7782,
      "neratinib": 7783,
      "Collection": 7784,
      "manifest": 7785,
      "R611Q": 7786,
      "SceI": 7787,
      "suspected": 7788,
      "HH": 7789,
      "ago": 7790,
      "works": 7791,
      "juvant": 7792,
      "Cam": 7793,
      "cordant": 7794,
      "Effects": 7795,
      "constant": 7796,
      "oxylin": 7797,
      "Lou": 7798,
      "S1598F": 7799,
      "intriguing": 7800,
      "3P": 7801,
      "Bro": 7802,
      "eness": 7803,
      "dishes": 7804,
      "antisense": 7805,
      "moderately": 7806,
      "ocytosis": 7807,
      "ECD": 7808,
      "181": 7809,
      "GGAG": 7810,
      "CO2": 7811,
      "Fos": 7812,
      "spectively": 7813,
      "Japanese": 7814,
      "TGFBR1": 7815,
      "(∼": 7816,
      "BMP": 7817,
      "City": 7818,
      "iled": 7819,
      "mTORC2": 7820,
      "leukin": 7821,
      "sapiens": 7822,
      "States": 7823,
      "simulations": 7824,
      "steady": 7825,
      "PTCH1": 7826,
      "ERM": 7827,
      "166": 7828,
      "reflects": 7829,
      "Phase": 7830,
      "IS": 7831,
      "ensure": 7832,
      "cycline": 7833,
      "Immunoblotting": 7834,
      "2c": 7835,
      "CNS": 7836,
      "Kno": 7837,
      "D59": 7838,
      "cros": 7839,
      "dovitinib": 7840,
      "752": 7841,
      "RG": 7842,
      "hn": 7843,
      "ycycline": 7844,
      "ATC": 7845,
      "uclease": 7846,
      "multifactorial": 7847,
      "preventing": 7848,
      "discrimin": 7849,
      "217": 7850,
      "Loc": 7851,
      "chlor": 7852,
      "transcriptome": 7853,
      "Ewing": 7854,
      "S12": 7855,
      "Splic": 7856,
      "Screen": 7857,
      "’-": 7858,
      "ulo": 7859,
      "/).": 7860,
      "Hi": 7861,
      "R7": 7862,
      "During": 7863,
      "N3": 7864,
      "Wa": 7865,
      "worse": 7866,
      "considering": 7867,
      "7Q": 7868,
      "Ber": 7869,
      "indels": 7870,
      "urea": 7871,
      "emphas": 7872,
      "highlights": 7873,
      "CY": 7874,
      "rosis": 7875,
      "Mean": 7876,
      "2W": 7877,
      "427": 7878,
      "itude": 7879,
      "Cross": 7880,
      "U87": 7881,
      "A146": 7882,
      "module": 7883,
      "TRK": 7884,
      "attenuated": 7885,
      "N822": 7886,
      "enable": 7887,
      "tiveness": 7888,
      "libraries": 7889,
      "q12": 7890,
      "sewhere": 7891,
      "Ser473": 7892,
      "ERIAL": 7893,
      "symptoms": 7894,
      ")]": 7895,
      "6E": 7896,
      "C11": 7897,
      "heat": 7898,
      "diame": 7899,
      "Eagle": 7900,
      "Far": 7901,
      "proved": 7902,
      "0094": 7903,
      "file": 7904,
      "480": 7905,
      "Sf": 7906,
      "TOP": 7907,
      "Consequently": 7908,
      "maps": 7909,
      "Mann": 7910,
      "naturally": 7911,
      "prisingly": 7912,
      "monary": 7913,
      "cytotoxic": 7914,
      "atosis": 7915,
      "Surprisingly": 7916,
      "tren": 7917,
      "genital": 7918,
      "secu": 7919,
      "Clontech": 7920,
      "Systems": 7921,
      "BLIMP": 7922,
      "576": 7923,
      "Ste": 7924,
      "igu": 7925,
      "compati": 7926,
      "treating": 7927,
      "ACV": 7928,
      "adjusted": 7929,
      "tility": 7930,
      "cryptic": 7931,
      "T670I": 7932,
      "Mll": 7933,
      "S10": 7934,
      "select": 7935,
      "physical": 7936,
      "Kd": 7937,
      "pens": 7938,
      "ani": 7939,
      "Through": 7940,
      "output": 7941,
      "multivariate": 7942,
      "CD2": 7943,
      "patch": 7944,
      "recurrently": 7945,
      "ffer": 7946,
      "simply": 7947,
      "N550": 7948,
      "erythro": 7949,
      "9G": 7950,
      "adjuvant": 7951,
      "neural": 7952,
      "ource": 7953,
      "rexpression": 7954,
      "Median": 7955,
      "PolyPhen": 7956,
      "sortium": 7957,
      "Target": 7958,
      "exo": 7959,
      "CACA": 7960,
      "interleukin": 7961,
      "raised": 7962,
      "351": 7963,
      "Genes": 7964,
      "namely": 7965,
      "eventually": 7966,
      "withdrawal": 7967,
      "restored": 7968,
      "hydroxy": 7969,
      "BrdU": 7970,
      "nut": 7971,
      "MATERIAL": 7972,
      "Survi": 7973,
      "accepted": 7974,
      "worldwide": 7975,
      "E70": 7976,
      "G60": 7977,
      "T17": 7978,
      "isation": 7979,
      "177": 7980,
      "Recom": 7981,
      "Drug": 7982,
      "DHT": 7983,
      "Lin": 7984,
      "omycin": 7985,
      "ston": 7986,
      "plicated": 7987,
      "804": 7988,
      "003": 7989,
      "doi": 7990,
      "HEP": 7991,
      "addressed": 7992,
      "BamHI": 7993,
      "Graph": 7994,
      "4b": 7995,
      "keep": 7996,
      "calculate": 7997,
      "OBER": 7998,
      "OCTOBER": 7999,
      "5mC": 8000,
      "Age": 8001,
      "NAD": 8002,
      "270": 8003,
      "proteolytic": 8004,
      "reliable": 8005,
      "Tai": 8006,
      ".”": 8007,
      "past": 8008,
      "CTGT": 8009,
      "CCC": 8010,
      "melanocytes": 8011,
      "compet": 8012,
      "Anim": 8013,
      "Mechanis": 8014,
      "prospective": 8015,
      "Wap": 8016,
      "vical": 8017,
      "meeting": 8018,
      "myeloma": 8019,
      "684": 8020,
      "dinucleotide": 8021,
      "centrifuged": 8022,
      "oradio": 8023,
      "latency": 8024,
      "package": 8025,
      "CycK": 8026,
      "LI": 8027,
      "orange": 8028,
      "002": 8029,
      "transfections": 8030,
      "Elf3Δ": 8031,
      "Transcriptional": 8032,
      "Flu": 8033,
      "accounts": 8034,
      "nitrocellulose": 8035,
      "vidin": 8036,
      "Combin": 8037,
      "France": 8038,
      "SNU": 8039,
      "consecu": 8040,
      "Diagno": 8041,
      "adish": 8042,
      "dissection": 8043,
      "hyp": 8044,
      "bron": 8045,
      "CN": 8046,
      "L15": 8047,
      "promp": 8048,
      "FLI1": 8049,
      "phenomen": 8050,
      "severely": 8051,
      "continuous": 8052,
      "M1689": 8053,
      "Evalu": 8054,
      "Soci": 8055,
      "duplications": 8056,
      "underlined": 8057,
      "Primer": 8058,
      "East": 8059,
      "STI": 8060,
      "correctly": 8061,
      "achiev": 8062,
      "OHT": 8063,
      "pressure": 8064,
      "GenBank": 8065,
      "sufficiency": 8066,
      "Rad51": 8067,
      "213": 8068,
      "AU": 8069,
      "ets": 8070,
      "exclusion": 8071,
      "epithelium": 8072,
      "offer": 8073,
      "posis": 8074,
      "1066": 8075,
      "destabilization": 8076,
      "Shp2": 8077,
      "MUTATION": 8078,
      "A375": 8079,
      "elled": 8080,
      "approval": 8081,
      "issues": 8082,
      "graphs": 8083,
      "prevents": 8084,
      "pharmacological": 8085,
      "C65": 8086,
      "Path": 8087,
      "edu": 8088,
      "computed": 8089,
      "organization": 8090,
      "ASP": 8091,
      "fat": 8092,
      "inability": 8093,
      "electron": 8094,
      "MPM": 8095,
      "crystals": 8096,
      "endometrioid": 8097,
      "ken": 8098,
      "supplementary": 8099,
      "IKK": 8100,
      "Multiple": 8101,
      "Cherry": 8102,
      "M1689R": 8103,
      "reagents": 8104,
      "enz": 8105,
      "dos": 8106,
      "61G": 8107,
      "distant": 8108,
      "genotypes": 8109,
      "Jak2": 8110,
      "Detection": 8111,
      "GEN": 8112,
      "ogenic": 8113,
      "infer": 8114,
      "replicates": 8115,
      "isks": 8116,
      "CTTT": 8117,
      "smoker": 8118,
      "Subsequently": 8119,
      "weakly": 8120,
      "Pdx": 8121,
      "5382insC": 8122,
      "560": 8123,
      "ESR1": 8124,
      "Rob": 8125,
      "fill": 8126,
      "verify": 8127,
      "haemato": 8128,
      "AP26": 8129,
      "Cryst": 8130,
      "AP26113": 8131,
      "Lysates": 8132,
      "D816H": 8133,
      "L1407P": 8134,
      "Line": 8135,
      "Ove": 8136,
      "ofac": 8137,
      "disul": 8138,
      "20A": 8139,
      "measurement": 8140,
      "349": 8141,
      "FIP1": 8142,
      "Tolerated": 8143,
      "MSC": 8144,
      "χ2": 8145,
      "arib": 8146,
      "tree": 8147,
      "initiating": 8148,
      "Recombin": 8149,
      "E13": 8150,
      "Sol": 8151,
      "itrate": 8152,
      "ullo": 8153,
      "sequent": 8154,
      "duplicate": 8155,
      "KDM5C": 8156,
      "Y641": 8157,
      "profound": 8158,
      "natural": 8159,
      "accelerated": 8160,
      "uncovered": 8161,
      "HEPES": 8162,
      "SLC": 8163,
      "amination": 8164,
      "transpor": 8165,
      "doxycycline": 8166,
      "1c": 8167,
      "Cent": 8168,
      "LM": 8169,
      "stra": 8170,
      "seradish": 8171,
      "monomers": 8172,
      "evol": 8173,
      "Louis": 8174,
      "334": 8175,
      "7B": 8176,
      "]).": 8177,
      "ΔPdx": 8178,
      "presentation": 8179,
      "SUP": 8180,
      "Dam": 8181,
      "ambigu": 8182,
      "Tsc": 8183,
      "blasto": 8184,
      "oligodendro": 8185,
      "acetate": 8186,
      "miRNA": 8187,
      "G13D": 8188,
      "MATERIALS": 8189,
      "Survival": 8190,
      "TG": 8191,
      "oul": 8192,
      "Neg": 8193,
      "Hetero": 8194,
      "adequ": 8195,
      "Correlation": 8196,
      "macroph": 8197,
      "mitochondrial": 8198,
      "ultimately": 8199,
      "neurons": 8200,
      "SNVs": 8201,
      "coexpressed": 8202,
      "midine": 8203,
      "decreases": 8204,
      "H8": 8205,
      "Sk": 8206,
      "verity": 8207,
      "nutri": 8208,
      "])": 8209,
      "Initi": 8210,
      "buffered": 8211,
      "EE": 8212,
      "Lig": 8213,
      "selectivity": 8214,
      "HEB": 8215,
      "Hein": 8216,
      "modulation": 8217,
      "Phospho": 8218,
      "ever": 8219,
      "mCherry": 8220,
      "dissec": 8221,
      "responded": 8222,
      "Repor": 8223,
      "immortalized": 8224,
      "olet": 8225,
      "lesser": 8226,
      "Fbx": 8227,
      "kindly": 8228,
      "S2215": 8229,
      "Gold": 8230,
      "HGS": 8231,
      "NCT": 8232,
      "Rac": 8233,
      "patholog": 8234,
      "rism": 8235,
      "biallelic": 8236,
      "Quik": 8237,
      "Within": 8238,
      "interfering": 8239,
      "sn": 8240,
      "apit": 8241,
      "34R": 8242,
      "polyposis": 8243,
      "Atlas": 8244,
      "conclusions": 8245,
      "Pathogenic": 8246,
      "stein": 8247,
      "clea": 8248,
      "tailed": 8249,
      "Delta": 8250,
      "lethality": 8251,
      "Conclusions": 8252,
      "RHEB": 8253,
      "q21": 8254,
      "ined": 8255,
      "severity": 8256,
      "ALCL": 8257,
      "Study": 8258,
      "Blo": 8259,
      "HSP": 8260,
      "hed": 8261,
      "ille": 8262,
      "effectiveness": 8263,
      "Sepha": 8264,
      "easily": 8265,
      "Thirty": 8266,
      "Geno": 8267,
      "in1": 8268,
      "enabl": 8269,
      "elsewhere": 8270,
      "committee": 8271,
      "pretreatment": 8272,
      "474": 8273,
      "casset": 8274,
      "designated": 8275,
      "secretase": 8276,
      "Quantitative": 8277,
      "Prism": 8278,
      "iar": 8279,
      "plots": 8280,
      "too": 8281,
      "155": 8282,
      "boxes": 8283,
      "participate": 8284,
      "rigel": 8285,
      "E746": 8286,
      "Single": 8287,
      "SMARCA4": 8288,
      "Society": 8289,
      "Where": 8290,
      "contex": 8291,
      "mother": 8292,
      "ocitrate": 8293,
      "BRD4": 8294,
      "transformants": 8295,
      "rigid": 8296,
      "consecutive": 8297,
      "Ago": 8298,
      "pp": 8299,
      "violet": 8300,
      "1151": 8301,
      "urothelial": 8302,
      "zole": 8303,
      "G30": 8304,
      "ligation": 8305,
      "cervical": 8306,
      "elongin": 8307,
      "lum": 8308,
      "trim": 8309,
      "exonuclease": 8310,
      "becomes": 8311,
      "young": 8312,
      "differed": 8313,
      "pron": 8314,
      "insFQEA": 8315,
      "blotted": 8316,
      "S6K1": 8317,
      "powerful": 8318,
      "Generation": 8319,
      "Clear": 8320,
      "geneic": 8321,
      "recapit": 8322,
      "amplicon": 8323,
      "gam": 8324,
      "201": 8325,
      "Smo": 8326,
      "ura": 8327,
      "PanIN": 8328,
      "Transfection": 8329,
      "pT": 8330,
      "modify": 8331,
      "Fbxw7": 8332,
      "L6": 8333,
      "ageal": 8334,
      "CD117": 8335,
      "WTB": 8336,
      "Seven": 8337,
      "TAE": 8338,
      "Melanoma": 8339,
      "FIP1L1": 8340,
      "tak": 8341,
      "inary": 8342,
      "aggregates": 8343,
      "breviations": 8344,
      "-/-": 8345,
      "ounced": 8346,
      "Ki67": 8347,
      "ritten": 8348,
      "journal": 8349,
      "Overexpression": 8350,
      "DIC": 8351,
      "175": 8352,
      "competent": 8353,
      "H19": 8354,
      "β1": 8355,
      "anemia": 8356,
      "acral": 8357,
      "retinoblastoma": 8358,
      "Wapcre": 8359,
      "Heinrich": 8360,
      "MOL": 8361,
      "206": 8362,
      "treat": 8363,
      "Nether": 8364,
      "Activating": 8365,
      "pronounced": 8366,
      "M3": 8367,
      "WHO": 8368,
      "abine": 8369,
      "therapeutics": 8370,
      "tubulin": 8371,
      "disulfide": 8372,
      "S473": 8373,
      "pC": 8374,
      "isocitrate": 8375,
      "purpose": 8376,
      "hypermethylation": 8377,
      "Sf9": 8378,
      "prove": 8379,
      "342": 8380,
      "G1706A": 8381,
      "Nuclear": 8382,
      "max": 8383,
      "NOTCH2": 8384,
      "Netherlands": 8385,
      "R28": 8386,
      "TRA": 8387,
      "fo": 8388,
      "controlling": 8389,
      "wells": 8390,
      "measuring": 8391,
      "CMML": 8392,
      "450": 8393,
      "YV": 8394,
      "thick": 8395,
      "thermo": 8396,
      "organs": 8397,
      "NUMB": 8398,
      "S2A": 8399,
      "Y764": 8400,
      "limiting": 8401,
      "compatible": 8402,
      "Flow": 8403,
      "CAGT": 8404,
      "para": 8405,
      "corrected": 8406,
      "myelogenous": 8407,
      "Endo": 8408,
      "predomin": 8409,
      "yield": 8410,
      "Time": 8411,
      "round": 8412,
      "regimen": 8413,
      "iquitin": 8414,
      "evidenced": 8415,
      "ACVR1": 8416,
      "C124": 8417,
      "eti": 8418,
      "–.": 8419,
      "alec": 8420,
      "settings": 8421,
      "usual": 8422,
      "RMS": 8423,
      "Xu": 8424,
      "′.": 8425,
      "submitted": 8426,
      "chemil": 8427,
      "Ci": 8428,
      "irradiation": 8429,
      "copic": 8430,
      "abundant": 8431,
      "R1275": 8432,
      "I1171": 8433,
      "contexts": 8434,
      "LLR": 8435,
      "acch": 8436,
      "148": 8437,
      "magnification": 8438,
      "scheme": 8439,
      "FU": 8440,
      "medullo": 8441,
      "25901": 8442,
      "recognize": 8443,
      "Sepharose": 8444,
      "Bα": 8445,
      "Besides": 8446,
      "FK": 8447,
      "tomo": 8448,
      "olla": 8449,
      "Immunoprecipitation": 8450,
      "questions": 8451,
      "EMT": 8452,
      "NUT": 8453,
      "Xen": 8454,
      "ecto": 8455,
      "lips": 8456,
      "electrostatic": 8457,
      "pulmonary": 8458,
      "hairpin": 8459,
      "ious": 8460,
      "blastomas": 8461,
      "auton": 8462,
      "Positive": 8463,
      "Hsp90": 8464,
      "780": 8465,
      "Q60": 8466,
      "DNAs": 8467,
      "comprise": 8468,
      "tetramerization": 8469,
      "diameter": 8470,
      "SY": 8471,
      "hl": 8472,
      "aspartic": 8473,
      "BAX": 8474,
      "signifi": 8475,
      "intramo": 8476,
      "autoinhibitory": 8477,
      "introduce": 8478,
      "R175H": 8479,
      "scaffold": 8480,
      "Disease": 8481,
      "compartment": 8482,
      "53T": 8483,
      "Whether": 8484,
      "expanded": 8485,
      "intramolecular": 8486,
      "LD": 8487,
      "Ver": 8488,
      "superim": 8489,
      "tributions": 8490,
      "52R": 8491,
      "BSA": 8492,
      "SOS1": 8493,
      "Residues": 8494,
      "Zn2þ": 8495,
      "GCC": 8496,
      "coactivator": 8497,
      "sequential": 8498,
      "Stable": 8499,
      "undam": 8500,
      "2K": 8501,
      "ko": 8502,
      "Then": 8503,
      "3026": 8504,
      "proliferate": 8505,
      "RP11": 8506,
      "Sos": 8507,
      "mast": 8508,
      "Intern": 8509,
      "GSK3": 8510,
      "thymidine": 8511,
      "K650": 8512,
      "difficul": 8513,
      "AM": 8514,
      "D171": 8515,
      "pAKT": 8516,
      "stomach": 8517,
      "renew": 8518,
      "associations": 8519,
      "nerv": 8520,
      "autoradio": 8521,
      "D171N": 8522,
      "schematic": 8523,
      "’’": 8524,
      "susceptible": 8525,
      "minority": 8526,
      "QuikChange": 8527,
      "Lym": 8528,
      "0325901": 8529,
      "School": 8530,
      "DNMT3A": 8531,
      "H17": 8532,
      "Ikk2": 8533,
      "incomplete": 8534,
      "propen": 8535,
      "adding": 8536,
      "cavity": 8537,
      "recovered": 8538,
      "separately": 8539,
      "angiogenic": 8540,
      "esophageal": 8541,
      "alectinib": 8542,
      "P29": 8543,
      "Tri": 8544,
      "valine": 8545,
      "ER1": 8546,
      "cleft": 8547,
      "bonding": 8548,
      "attach": 8549,
      "L755S": 8550,
      "Ov": 8551,
      "p15": 8552,
      "CD4": 8553,
      "defining": 8554,
      "parents": 8555,
      "passage": 8556,
      "saline": 8557,
      "p63": 8558,
      "acceptor": 8559,
      "aux": 8560,
      "905": 8561,
      "Bcl10": 8562,
      "Dan": 8563,
      "‘‘": 8564,
      "modes": 8565,
      "chick": 8566,
      "dependency": 8567,
      "ligases": 8568,
      "562": 8569,
      "wa": 8570,
      "unselected": 8571,
      "ida": 8572,
      "186": 8573,
      "MCL": 8574,
      "PIK3CB": 8575,
      "kyo": 8576,
      "begin": 8577,
      "believed": 8578,
      "/–": 8579,
      "HGG": 8580,
      "immature": 8581,
      "correlations": 8582,
      "vartis": 8583,
      "TAD": 8584,
      "p70": 8585,
      "classic": 8586,
      "isolation": 8587,
      "CBF": 8588,
      "K700": 8589,
      "mated": 8590,
      "ission": 8591,
      "degre": 8592,
      "strum": 8593,
      "dot": 8594,
      "MEL": 8595,
      "denaturation": 8596,
      "scaffol": 8597,
      "International": 8598,
      "R4": 8599,
      "pyr": 8600,
      "analyzing": 8601,
      "valuable": 8602,
      "facilitates": 8603,
      "restor": 8604,
      "chimer": 8605,
      "degraded": 8606,
      "cutoff": 8607,
      "dosage": 8608,
      "independence": 8609,
      "Integr": 8610,
      "Taiwan": 8611,
      "cassette": 8612,
      "3c": 8613,
      "Gal": 8614,
      "NLS": 8615,
      "nes": 8616,
      "codes": 8617,
      "stric": 8618,
      "axel": 8619,
      "U87MG": 8620,
      "Vis": 8621,
      "insufficiency": 8622,
      "proof": 8623,
      "Brca1flex2": 8624,
      "gamma": 8625,
      "Δ5": 8626,
      "istics": 8627,
      "redund": 8628,
      "FGFRs": 8629,
      "producing": 8630,
      "grew": 8631,
      "confirmation": 8632,
      "Scientific": 8633,
      "Bay": 8634,
      "bol": 8635,
      "Novartis": 8636,
      "370": 8637,
      "BCL6": 8638,
      "Even": 8639,
      "Glo": 8640,
      "ulative": 8641,
      "poration": 8642,
      "causative": 8643,
      "Substitu": 8644,
      "impairment": 8645,
      "9V": 8646,
      "R348": 8647,
      "SWI": 8648,
      "actually": 8649,
      "paper": 8650,
      "cardiac": 8651,
      "E12": 8652,
      "abr": 8653,
      "render": 8654,
      "microattribution": 8655,
      "ierarch": 8656,
      "SRSF2": 8657,
      "TACC": 8658,
      "starvation": 8659,
      "kitt": 8660,
      "Characteristics": 8661,
      "Burkitt": 8662,
      "Ten": 8663,
      "246": 8664,
      "RasGAP": 8665,
      "circum": 8666,
      "alogue": 8667,
      "intervention": 8668,
      "sist": 8669,
      "Alter": 8670,
      "PDGFRβ": 8671,
      "References": 8672,
      "Pdx1": 8673,
      "Crizotinib": 8674,
      "E1": 8675,
      "Gs": 8676,
      "mals": 8677,
      "nSH2": 8678,
      "sorted": 8679,
      "peaks": 8680,
      "C61G": 8681,
      "Sun": 8682,
      "aparib": 8683,
      "became": 8684,
      "weaker": 8685,
      "Diego": 8686,
      "Y1853": 8687,
      "mel": 8688,
      "opus": 8689,
      "pathy": 8690,
      "aving": 8691,
      "387": 8692,
      "p110δ": 8693,
      "CaP": 8694,
      "Prog": 8695,
      "SU112": 8696,
      "aimed": 8697,
      "Classification": 8698,
      "Dicer": 8699,
      "cleaved": 8700,
      "moun": 8701,
      "AF1": 8702,
      "histor": 8703,
      "Forty": 8704,
      "mption": 8705,
      "E76": 8706,
      "Mol": 8707,
      "Q5": 8708,
      "Δ1": 8709,
      "162": 8710,
      "CTCF": 8711,
      "flexible": 8712,
      "Xenopus": 8713,
      "DCAF1": 8714,
      "covers": 8715,
      "144": 8716,
      "eleg": 8717,
      "CRCs": 8718,
      "undergoing": 8719,
      "ARID1A": 8720,
      "Evaluation": 8721,
      "degrees": 8722,
      "KL": 8723,
      "atch": 8724,
      "ico": 8725,
      "2d": 8726,
      "trie": 8727,
      "decided": 8728,
      "stimulates": 8729,
      "segments": 8730,
      "ASX": 8731,
      "propensity": 8732,
      "AI": 8733,
      "BLO": 8734,
      "MPL": 8735,
      "BLIMP1": 8736,
      "dissected": 8737,
      "5N": 8738,
      "sided": 8739,
      "adults": 8740,
      "meta": 8741,
      "archite": 8742,
      "stored": 8743,
      "oxidative": 8744,
      "Amplification": 8745,
      "orthologs": 8746,
      "X3": 8747,
      "anger": 8748,
      "Max": 8749,
      "chose": 8750,
      "4c": 8751,
      "associates": 8752,
      "magnitude": 8753,
      "deprivation": 8754,
      "C1156": 8755,
      "Ele": 8756,
      "FT": 8757,
      "S768": 8758,
      "–/–": 8759,
      "constitute": 8760,
      "topically": 8761,
      "erythroid": 8762,
      "JH2": 8763,
      "ipro": 8764,
      "sizes": 8765,
      "omon": 8766,
      "trimeric": 8767,
      "Intrig": 8768,
      "135": 8769,
      "Damaging": 8770,
      "Tak": 8771,
      "trin": 8772,
      "suitable": 8773,
      "T315": 8774,
      "dimeric": 8775,
      "retains": 8776,
      "uingly": 8777,
      "L17": 8778,
      "fundam": 8779,
      "viruses": 8780,
      "challeng": 8781,
      "layer": 8782,
      "abrafenib": 8783,
      "Intriguingly": 8784,
      "212": 8785,
      "350": 8786,
      "enough": 8787,
      "somewhat": 8788,
      "White": 8789,
      "immunostaining": 8790,
      "Cdk4": 8791,
      "remarkable": 8792,
      "principle": 8793,
      "trend": 8794,
      "Men": 8795,
      "till": 8796,
      "diploid": 8797,
      "experimentally": 8798,
      "illustrate": 8799,
      "Mi": 8800,
      "uting": 8801,
      "CDH1": 8802,
      "FoxA1": 8803,
      "Saos": 8804,
      "Out": 8805,
      "mess": 8806,
      "rant": 8807,
      "utility": 8808,
      "arate": 8809,
      "338": 8810,
      "FGF2": 8811,
      "agonist": 8812,
      "L4": 8813,
      "SN": 8814,
      "sts": 8815,
      "concept": 8816,
      "NAs": 8817,
      "astrocytomas": 8818,
      "Immunohistochemistry": 8819,
      "nodules": 8820,
      "pensable": 8821,
      "Y1853X": 8822,
      "Ye": 8823,
      "semin": 8824,
      "older": 8825,
      "indicative": 8826,
      "S1A": 8827,
      "categorized": 8828,
      "EBV": 8829,
      "administered": 8830,
      "Selection": 8831,
      "Fac": 8832,
      "Stri": 8833,
      "glo": 8834,
      "CAAG": 8835,
      "laboratories": 8836,
      "truncations": 8837,
      "Biochemical": 8838,
      "ogle": 8839,
      "annealing": 8840,
      "oratory": 8841,
      "horseradish": 8842,
      "suppressing": 8843,
      "hyperactivation": 8844,
      "Colo": 8845,
      "nick": 8846,
      "vals": 8847,
      "signs": 8848,
      "tual": 8849,
      "troph": 8850,
      "triphosphate": 8851,
      "illance": 8852,
      "Assess": 8853,
      "filled": 8854,
      "dysregulation": 8855,
      "Bu": 8856,
      "Cs": 8857,
      "F12": 8858,
      "TCT": 8859,
      "sarcomas": 8860,
      "property": 8861,
      "deposi": 8862,
      "application": 8863,
      "reflected": 8864,
      "homogene": 8865,
      "IFDI": 8866,
      "repressed": 8867,
      "NKX2": 8868,
      "Fab": 8869,
      "Pier": 8870,
      "inf": 8871,
      "histi": 8872,
      "measurable": 8873,
      "initiate": 8874,
      "follicular": 8875,
      "Blood": 8876,
      "529": 8877,
      "D17": 8878,
      "M13": 8879,
      "MTC": 8880,
      "Por": 8881,
      "sities": 8882,
      "imide": 8883,
      "141": 8884,
      "Reverse": 8885,
      "hypermutated": 8886,
      "Brca1SCo": 8887,
      "Distribution": 8888,
      "traffic": 8889,
      "flexibility": 8890,
      "assembled": 8891,
      "S1613G": 8892,
      "acinar": 8893,
      "453": 8894,
      "MH1": 8895,
      "PJ": 8896,
      "rely": 8897,
      "olaparib": 8898,
      "245": 8899,
      "IL3": 8900,
      "Google": 8901,
      "retrospective": 8902,
      "chron": 8903,
      "Previously": 8904,
      "TAE684": 8905,
      "1I": 8906,
      "ductal": 8907,
      "modeled": 8908,
      "publications": 8909,
      "accurate": 8910,
      "MVs": 8911,
      "VIC": 8912,
      "dea": 8913,
      "conjunction": 8914,
      "collabor": 8915,
      "explaining": 8916,
      "4002": 8917,
      "comprises": 8918,
      "coordination": 8919,
      "publication": 8920,
      "W17": 8921,
      "ossi": 8922,
      "progressed": 8923,
      "contributed": 8924,
      "accounted": 8925,
      "acceler": 8926,
      "Madison": 8927,
      "nervous": 8928,
      "Striking": 8929,
      "T28": 8930,
      "gap": 8931,
      "loo": 8932,
      "perme": 8933,
      "AKT3": 8934,
      "decisions": 8935,
      "MMP": 8936,
      "Comple": 8937,
      "V559": 8938,
      "biomarkers": 8939,
      "MSCV": 8940,
      "Dye": 8941,
      "kcat": 8942,
      "alb": 8943,
      "notable": 8944,
      "oligo": 8945,
      "PubMed": 8946,
      "Characterization": 8947,
      "confluence": 8948,
      "autonom": 8949,
      "LBD": 8950,
      "dr": 8951,
      "truc": 8952,
      "mammals": 8953,
      "Caucasian": 8954,
      "S14": 8955,
      "applic": 8956,
      "701": 8957,
      "Medi": 8958,
      "G1738": 8959,
      "A750": 8960,
      "ara": 8961,
      "adrenal": 8962,
      "oblots": 8963,
      "SH3": 8964,
      "concluded": 8965,
      "denatured": 8966,
      "*)": 8967,
      "Rosa": 8968,
      "136": 8969,
      "nonspecific": 8970,
      "conferring": 8971,
      "Constitutive": 8972,
      "B7": 8973,
      "Hind": 8974,
      "King": 8975,
      "spread": 8976,
      "splen": 8977,
      "Their": 8978,
      "stit": 8979,
      "steroid": 8980,
      "incorporated": 8981,
      "DICER1": 8982,
      "reserved": 8983,
      "dehydrogen": 8984,
      "stimulating": 8985,
      "HRP": 8986,
      "filter": 8987,
      "calls": 8988,
      "tumorigenicity": 8989,
      "OT": 8990,
      "omat": 8991,
      "verte": 8992,
      "transloc": 8993,
      "regular": 8994,
      "outgrowth": 8995,
      "complexity": 8996,
      "stabilizes": 8997,
      "Retro": 8998,
      "330": 8999,
      "avi": 9000,
      "micals": 9001,
      "lanted": 9002,
      "cooperate": 9003,
      "Famil": 9004,
      "MF": 9005,
      "refly": 9006,
      "bioche": 9007,
      "Neasy": 9008,
      "marg": 9009,
      "spati": 9010,
      "594": 9011,
      "mortality": 9012,
      "Scholar": 9013,
      "tightly": 9014,
      "RBM10": 9015,
      "Recombinant": 9016,
      ".'": 9017,
      "211": 9018,
      "M9": 9019,
      "VBC": 9020,
      "concordance": 9021,
      "covering": 9022,
      "154": 9023,
      "596": 9024,
      "assessing": 9025,
      "sufficiently": 9026,
      "pools": 9027,
      "extreme": 9028,
      "retard": 9029,
      "ASP3026": 9030,
      "wich": 9031,
      "indirectly": 9032,
      "elig": 9033,
      "medical": 9034,
      "crine": 9035,
      "Chromo": 9036,
      "examining": 9037,
      "candid": 9038,
      "DSBs": 9039,
      "phenomenon": 9040,
      "YAP": 9041,
      "dabrafenib": 9042,
      "k1": 9043,
      "perior": 9044,
      "formaldehyde": 9045,
      "3_Y764": 9046,
      "A763_Y764": 9047,
      "Exome": 9048,
      "493": 9049,
      "introduc": 9050,
      "telomerase": 9051,
      "attractive": 9052,
      "pig": 9053,
      "sat": 9054,
      "ards": 9055,
      "tometry": 9056,
      "dish": 9057,
      "cereb": 9058,
      "clarify": 9059,
      "deaths": 9060,
      "pip": 9061,
      "edge": 9062,
      "rot": 9063,
      "Tokyo": 9064,
      "H3K27me3": 9065,
      "R683": 9066,
      "accommod": 9067,
      "safety": 9068,
      "Das": 9069,
      "reson": 9070,
      "alters": 9071,
      "ROCK": 9072,
      "surveillance": 9073,
      "ASXL1": 9074,
      "era": 9075,
      "trk": 9076,
      "PTPRT": 9077,
      "IRE": 9078,
      "Y2": 9079,
      "commer": 9080,
      "irradi": 9081,
      "coring": 9082,
      "GCB": 9083,
      "drawn": 9084,
      "2T": 9085,
      "Gib": 9086,
      "HG": 9087,
      "external": 9088,
      "ending": 9089,
      "CTGG": 9090,
      "predicts": 9091,
      "NPG": 9092,
      "Analyses": 9093,
      "NM_00": 9094,
      "(+)": 9095,
      "Em": 9096,
      "SL": 9097,
      "unfolding": 9098,
      "....": 9099,
      "retroviruses": 9100,
      "Y537S": 9101,
      "dehydrogenase": 9102,
      "Ni": 9103,
      "505": 9104,
      "square": 9105,
      "supervised": 9106,
      "entered": 9107,
      "disordered": 9108,
      "seconds": 9109,
      "glioblastomas": 9110,
      "labelled": 9111,
      "oids": 9112,
      "kindred": 9113,
      "G1706E": 9114,
      "shifted": 9115,
      "tomography": 9116,
      "FERM": 9117,
      "mediator": 9118,
      "langi": 9119,
      "Termin": 9120,
      "GY": 9121,
      "ictor": 9122,
      "Turn": 9123,
      "C25": 9124,
      "Cos": 9125,
      "E10": 9126,
      "rights": 9127,
      "delAG": 9128,
      "lineages": 9129,
      "273": 9130,
      "losses": 9131,
      "468": 9132,
      "precis": 9133,
      "transplanted": 9134,
      "VEGFA": 9135,
      "Strikingly": 9136,
      "vin": 9137,
      "labeling": 9138,
      "amplicons": 9139,
      "elucidated": 9140,
      "nl": 9141,
      "escape": 9142,
      "ades": 9143,
      "PI5P": 9144,
      "tensin": 9145,
      "physic": 9146,
      "Low": 9147,
      "ont": 9148,
      "CAM": 9149,
      "Board": 9150,
      "intestine": 9151,
      "isogenic": 9152,
      "Du": 9153,
      "eric": 9154,
      "neut": 9155,
      "Matrigel": 9156,
      "implemented": 9157,
      "KDR": 9158,
      "candidates": 9159,
      "Cox": 9160,
      "NGF": 9161,
      "massi": 9162,
      "heart": 9163,
      "congenital": 9164,
      "plasmic": 9165,
      "harbors": 9166,
      "Pri": 9167,
      "atomic": 9168,
      "pread": 9169,
      "188": 9170,
      "Ann": 9171,
      "England": 9172,
      "obviously": 9173,
      "prevented": 9174,
      "Aber": 9175,
      "inous": 9176,
      "retrie": 9177,
      "forced": 9178,
      "Perkin": 9179,
      "FOP": 9180,
      "cel": 9181,
      "fizer": 9182,
      "bles": 9183,
      "raises": 9184,
      "homotrimer": 9185,
      "tember": 9186,
      "themia": 9187,
      "accumul": 9188,
      "Elmer": 9189,
      "architec": 9190,
      "undetectable": 9191,
      "plementation": 9192,
      "WNT": 9193,
      "rid": 9194,
      "207": 9195,
      "correction": 9196,
      "gradi": 9197,
      "23D": 9198,
      "tomatic": 9199,
      "September": 9200,
      "Found": 9201,
      "GP": 9202,
      "V16": 9203,
      "1234": 9204,
      "Level": 9205,
      "ccRCC": 9206,
      "annotated": 9207,
      "exin": 9208,
      "S310": 9209,
      "centers": 9210,
      ")].": 9211,
      "Jolla": 9212,
      "Pfizer": 9213,
      "hmC": 9214,
      "nia": 9215,
      "tries": 9216,
      "ama": 9217,
      "Consider": 9218,
      "p21W": 9219,
      "6244": 9220,
      "D770_": 9221,
      "S25": 9222,
      "Ski": 9223,
      "space": 9224,
      "Chan": 9225,
      "GTPases": 9226,
      "inflammation": 9227,
      "Waals": 9228,
      "T315I": 9229,
      "gan": 9230,
      "BRIP1": 9231,
      "Extrac": 9232,
      "BP2": 9233,
      "exhibiting": 9234,
      "networks": 9235,
      "Msh": 9236,
      "Net": 9237,
      "PU": 9238,
      "PAK1": 9239,
      "spine": 9240,
      "195": 9241,
      "530": 9242,
      "597": 9243,
      "R248": 9244,
      "R1275Q": 9245,
      "D770_N": 9246,
      "KM": 9247,
      "aid": 9248,
      "yces": 9249,
      "CAGA": 9250,
      "PD0325901": 9251,
      "GGC": 9252,
      "Activated": 9253,
      "tavidin": 9254,
      "irradiated": 9255,
      "Pad": 9256,
      "S249": 9257,
      "T58": 9258,
      "ΔC": 9259,
      "discussion": 9260,
      "Aster": 9261,
      "ligated": 9262,
      "B2M": 9263,
      "diminish": 9264,
      "mobilized": 9265,
      "eukaryotic": 9266,
      "A763_Y764insFQEA": 9267,
      "Alex": 9268,
      "R49": 9269,
      "strains": 9270,
      "rench": 9271,
      "potenti": 9272,
      "ETGE": 9273,
      "importantly": 9274,
      "cyclins": 9275,
      "superfamily": 9276,
      "shRNAs": 9277,
      "Primers": 9278,
      "AZD6244": 9279,
      "identifies": 9280,
      "aromyces": 9281,
      "keeping": 9282,
      "autonomous": 9283,
      "Are": 9284,
      "Ped": 9285,
      "q34": 9286,
      "lose": 9287,
      "K642": 9288,
      "accuracy": 9289,
      "accharomyces": 9290,
      "P29S": 9291,
      "PJS": 9292,
      "q11": 9293,
      "depth": 9294,
      "Asxl": 9295,
      "homozygo": 9296,
      "transitions": 9297,
      "Cali": 9298,
      "hepar": 9299,
      "superior": 9300,
      "183": 9301,
      "K125": 9302,
      "mx": 9303,
      "isk": 9304,
      "prop": 9305,
      "positioned": 9306,
      "SETD2": 9307,
      "prompted": 9308,
      "Pierce": 9309,
      "VV": 9310,
      "v1": 9311,
      "Leuk": 9312,
      "picture": 9313,
      "thromb": 9314,
      "stringent": 9315,
      "Animal": 9316,
      "OvCa": 9317,
      "Asxl1": 9318,
      "coated": 9319,
      "567": 9320,
      "technologies": 9321,
      "MOD": 9322,
      "Sal": 9323,
      "T50": 9324,
      "4720": 9325,
      "partly": 9326,
      "Complete": 9327,
      "Mus": 9328,
      "TN": 9329,
      "precl": 9330,
      "558": 9331,
      "uncharacterized": 9332,
      "1989": 9333,
      "Real": 9334,
      "autocrine": 9335,
      "Receptor": 9336,
      "polymorphic": 9337,
      "technique": 9338,
      "G0": 9339,
      "VOL": 9340,
      "scat": 9341,
      "ember": 9342,
      "Chk2": 9343,
      "NADPH": 9344,
      "scaffolding": 9345,
      "aliqu": 9346,
      "cullin": 9347,
      "595": 9348,
      "largeDownload": 9349,
      "Child": 9350,
      "intensities": 9351,
      "H115N": 9352,
      "December": 9353,
      "andwich": 9354,
      "dimethyl": 9355,
      "467": 9356,
      "measures": 9357,
      "versal": 9358,
      "FRK": 9359,
      "q23": 9360,
      "vate": 9361,
      "ario": 9362,
      "somatically": 9363,
      "MG132": 9364,
      "Plasmids": 9365,
      "Copy": 9366,
      "HAT": 9367,
      "ectopically": 9368,
      "seemed": 9369,
      "reconstituted": 9370,
      "Chinese": 9371,
      ")).": 9372,
      "Lines": 9373,
      "TAT": 9374,
      "pB": 9375,
      "confirms": 9376,
      "expect": 9377,
      "hybridized": 9378,
      "Pharmacia": 9379,
      "PLX4720": 9380,
      "Lex": 9381,
      "p14": 9382,
      "igm": 9383,
      "unusual": 9384,
      "compens": 9385,
      "Neo": 9386,
      "introns": 9387,
      "MGH": 9388,
      "Brd4": 9389,
[...]
