{
  "version": "1.0",
  "truncation": null,
  "padding": null,
  "added_tokens": [
    {
      "id": 0,
      "content": "<UNK>",
      "single_word": false,
      "lstrip": false,
      "rstrip": false,
      "normalized": false,
      "special": true
    },
    {
      "id": 1,
      "content": "<SEP>",
      "single_word": false,
      "lstrip": false,
      "rstrip": false,
      "normalized": false,
      "special": true
    },
    {
      "id": 2,
      "content": "<MASK>",
      "single_word": false,
      "lstrip": false,
      "rstrip": false,
      "normalized": false,
      "special": true
    },
    {
      "id": 3,
      "content": "<CLS>",
      "single_word": false,
      "lstrip": false,
      "rstrip": false,
      "normalized": false,
      "special": true
    }
  ],
  "normalizer": null,
  "pre_tokenizer": {
    "type": "Whitespace"
  },
  "post_processor": null,
  "decoder": null,
  "model": {
    "type": "Unigram",
    "unk_id": 0,
    "vocab": [
      [
        "<UNK>",
        0.0
      ],
      [
        "<SEP>",
        0.0
      ],
      [
        "<MASK>",
        0.0
      ],
      [
        "<CLS>",
        0.0
      ],
      [
        ",",
        -3.3265074764335125
      ],
      [
        ".",
        -3.5095057142255737
      ],
      [
        "the",
        -3.601537385686086
      ],
      [
        "s",
        -3.6927085986791965
      ],
      [
        "of",
        -3.707279634145797
      ],
      [
        "a",
        -3.8080252663800156
      ],
      [
        "-",
        -3.8389026196117744
      ],
      [
        "t",
        -3.853108605128501
      ],
      [
        "o",
        -3.946669689162679
      ],
      [
        "and",
        -3.9762344597523818
      ],
      [
        "in",
        -3.9908645261375604
      ],
      [
        "(",
        -3.9966981668352464
      ],
      [
        "e",
        -4.155828277707027
      ],
      [
        ")",
        -4.46275659667754
      ],
      [
        "i",
        -4.628234804383732
      ],
      [
        "n",
        -4.66065617489866
      ],
      [
        "d",
        -4.716646064283909
      ],
      [
        "1",
        -4.838940431217264
      ],
      [
        "with",
        -4.8536148459859
      ],
      [
        ").",
        -5.063575201949774
      ],
      [
        "2",
        -5.1151683787152304
      ],
      [
        "that",
        -5.161015448310847
      ],
      [
        "for",
        -5.265115178772511
      ],
      [
        "were",
        -5.265789010991085
      ],
      [
        "A",
        -5.30979961967682
      ],
      [
        "3",
        -5.34323565472207
      ],
      [
        "mutations",
        -5.412903467685249
      ],
      [
        "C",
        -5.436869756184866
      ],
      [
        "by",
        -5.465763413252901
      ],
      [
        "was",
        -5.466859671384448
      ],
      [
        "ing",
        -5.4983765877122295
      ],
      [
        "/",
        -5.5295007855463965
      ],
      [
        "c",
        -5.545539365046608
      ],
      [
        "or",
        -5.554479031537831
      ],
      [
        "ly",
        -5.563019088223379
      ],
      [
        "b",
        -5.577046071541325
      ],
      [
        "T",
        -5.636268743649785
      ],
      [
        "The",
        -5.643052134169292
      ],
      [
        "cells",
        -5.672388249587355
      ],
      [
        "5",
        -5.678712566566407
      ],
      [
        "al",
        -5.685265353133486
      ],
      [
        ";",
        -5.75588114915057
      ],
      [
        "r",
        -5.799515820136122
      ],
      [
        "4",
        -5.802154935419313
      ],
      [
        "are",
        -5.807536096924011
      ],
      [
        "p",
        -5.862440059074576
      ],
      [
        "S",
        -5.893499270584856
      ],
      [
        "0",
        -5.908997263541847
      ],
      [
        "y",
        -5.919146469391309
      ],
      [
        "l",
        -5.961253099730875
      ],
      [
        "from",
        -5.984871467851466
      ],
      [
        "P",
        -6.010327229883492
      ],
      [
        "w",
        -6.023414713018909
      ],
      [
        "B",
        -6.02525818899046
      ],
      [
        "m",
        -6.054011201381853
      ],
      [
        "cell",
        -6.066572902581875
      ],
      [
        "G",
        -6.082042378560674
      ],
      [
        "R",
        -6.083623399787188
      ],
      [
        "–",
        -6.1350759020086
      ],
      [
        "D",
        -6.1398595462525645
      ],
      [
        "not",
        -6.172449747771013
      ],
      [
        "mutation",
        -6.190138886104771
      ],
      [
        "Fig",
        -6.195628481000464
      ],
      [
        "M",
        -6.209621116981294
      ],
      [
        "L",
        -6.225246180196606
      ],
      [
        "I",
        -6.2338194365864705
      ],
      [
        "Figure",
        -6.2373932348032
      ],
      [
        "%",
        -6.246983100874816
      ],
      [
        "6",
        -6.253064480651524
      ],
      [
        "this",
        -6.253297262808193
      ],
      [
        "N",
        -6.287458182795357
      ],
      [
        "In",
        -6.296237087378051
      ],
      [
        "H",
        -6.301210529084862
      ],
      [
        "7",
        -6.346650729884477
      ],
      [
        "cancer",
        -6.346668080385642
      ],
      [
        "E",
        -6.358856836339198
      ],
      [
        "F",
        -6.3910237693888075
      ],
      [
        "these",
        -6.39781228548903
      ],
      [
        "protein",
        -6.407679200557208
      ],
      [
        "u",
        -6.417974586679756
      ],
      [
        "patients",
        -6.439680580717498
      ],
      [
        "have",
        -6.439961570134708
      ],
      [
        "K",
        -6.447276007653656
      ],
      [
        ":",
        -6.456352354651317
      ],
      [
        "10",
        -6.461989152194345
      ],
      [
        "f",
        -6.463273927097147
      ],
      [
        "which",
        -6.471710916301337
      ],
      [
        "h",
        -6.472332497248615
      ],
      [
        "8",
        -6.482238308361355
      ],
      [
        "activity",
        -6.500116772176634
      ],
      [
        "[",
        -6.5192733685340585
      ],
      [
        "expression",
        -6.537615865051224
      ],
      [
        "mutant",
        -6.540119751109266
      ],
      [
        "type",
        -6.543966466818993
      ],
      [
        "g",
        -6.567859697080209
      ],
      [
        "tumor",
        -6.605338557221138
      ],
      [
        "domain",
        -6.630115750754303
      ],
      [
        "kinase",
        -6.642174381468681
      ],
      [
        "also",
        -6.671784023906582
      ],
      [
        "been",
        -6.67595012205523
      ],
      [
        "9",
        -6.685280039084885
      ],
      [
        "variants",
        -6.6903708688224075
      ],
      [
        "gene",
        -6.706965215352149
      ],
      [
        "binding",
        -6.711630187281218
      ],
      [
        "using",
        -6.743426867080737
      ],
      [
        "BRCA1",
        -6.758952244774617
      ],
      [
        "DNA",
        -6.76380752640191
      ],
      [
        "EGFR",
        -6.821955684664124
      ],
      [
        "data",
        -6.82245916075553
      ],
      [
        "wild",
        -6.8286893222817415
      ],
      [
        "We",
        -6.853471627226826
      ],
      [
        "all",
        -6.854263205107664
      ],
      [
        "other",
        -6.858673699632696
      ],
      [
        "analysis",
        -6.865646768041346
      ],
      [
        "V",
        -6.894241541427567
      ],
      [
        "activation",
        -6.906568264510822
      ],
      [
        "Table",
        -6.906686255044077
      ],
      [
        "20",
        -6.913057485536136
      ],
      [
        "tumors",
        -6.9185170670399145
      ],
      [
        "mutants",
        -6.932193691971474
      ],
      [
        "has",
        -6.96536841817618
      ],
      [
        "two",
        -6.977262580839927
      ],
      [
        "p53",
        -6.988470558021435
      ],
      [
        "but",
        -6.991867977493774
      ],
      [
        "may",
        -7.004487524545855
      ],
      [
        "O",
        -7.045702475936794
      ],
      [
        "shown",
        -7.064332482601229
      ],
      [
        "more",
        -7.066863394151287
      ],
      [
        "Y",
        -7.068442682849295
      ],
      [
        "11",
        -7.083681135712684
      ],
      [
        "12",
        -7.091354609446263
      ],
      [
        "between",
        -7.092307894528828
      ],
      [
        "than",
        -7.115615625858512
      ],
      [
        "−",
        -7.136033303612509
      ],
      [
        "associated",
        -7.138493262166596
      ],
      [
        "15",
        -7.146731735045583
      ],
      [
        "one",
        -7.159814452438921
      ],
      [
        "exon",
        -7.172515318990364
      ],
      [
        "function",
        -7.17427677659793
      ],
      [
        "genes",
        -7.17470031933402
      ],
      [
        "14",
        -7.178270729127718
      ],
      [
        "used",
        -7.180697770589298
      ],
      [
        "identified",
        -7.184774863616887
      ],
      [
        "both",
        -7.188288986368288
      ],
      [
        "18",
        -7.190783394273993
      ],
      [
        "found",
        -7.1930918501991705
      ],
      [
        "proteins",
        -7.199839674580609
      ],
      [
        "high",
        -7.214227949028418
      ],
      [
        "growth",
        -7.222082504521204
      ],
      [
        "human",
        -7.222546960639772
      ],
      [
        "results",
        -7.225060610274243
      ],
      [
        "study",
        -7.23405103173741
      ],
      [
        "had",
        -7.249566141607312
      ],
      [
        "suggest",
        -7.256068279858479
      ],
      [
        "our",
        -7.2624268477276015
      ],
      [
        "can",
        -7.269368096995711
      ],
      [
        "This",
        -7.2743963824099325
      ],
      [
        "=",
        -7.276701390376976
      ],
      [
        "ever",
        -7.2999037443043875
      ],
      [
        "functional",
        -7.310490288118107
      ],
      [
        "].",
        -7.312834478041296
      ],
      [
        "13",
        -7.320734811140218
      ],
      [
        "16",
        -7.3221001013607765
      ],
      [
        "levels",
        -7.322456392439349
      ],
      [
        "phosphorylation",
        -7.32594494159115
      ],
      [
        "17",
        -7.33293042141462
      ],
      [
        "lines",
        -7.3380279161640125
      ],
      [
        "observed",
        -7.342345106895618
      ],
      [
        "v",
        -7.35213560462004
      ],
      [
        "50",
        -7.352285411433559
      ],
      [
        "PTEN",
        -7.355818667274818
      ],
      [
        "only",
        -7.361169327307
      ],
      [
        "re",
        -7.365116510685965
      ],
      [
        "19",
        -7.367802484357831
      ],
      [
        "clinical",
        -7.37202436689387
      ],
      [
        "its",
        -7.373513376472731
      ],
      [
        "signaling",
        -7.388482262230422
      ],
      [
        "different",
        -7.399202866725592
      ],
      [
        "KIT",
        -7.4112461645999606
      ],
      [
        "studies",
        -7.41335611827196
      ],
      [
        "well",
        -7.417643431338311
      ],
      [
        "each",
        -7.425813616093887
      ],
      [
        "These",
        -7.426177774927826
      ],
      [
        "WT",
        -7.431727472249225
      ],
      [
        "30",
        -7.436145107062908
      ],
      [
        "assay",
        -7.440977094837551
      ],
      [
        "W",
        -7.443198464342252
      ],
      [
        "three",
        -7.444303591554231
      ],
      [
        "treatment",
        -7.4516399365158605
      ],
      [
        "ALK",
        -7.453530579213501
      ],
      [
        "reported",
        -7.465596457571046
      ],
      [
        "residues",
        -7.480977570023958
      ],
      [
        "their",
        -7.482283486863414
      ],
      [
        "Supplementary",
        -7.484718090031084
      ],
      [
        "control",
        -7.485484176697485
      ],
      [
        ">",
        -7.4875080383616694
      ],
      [
        "resistance",
        -7.49015740808637
      ],
      [
        "cases",
        -7.490481243423149
      ],
      [
        "Q",
        -7.494191214885692
      ],
      [
        "specific",
        -7.498299447768703
      ],
      [
        "into",
        -7.50051470701467
      ],
      [
        "previously",
        -7.503926592160912
      ],
      [
        "number",
        -7.507099502624861
      ],
      [
        "k",
        -7.509067912729279
      ],
      [
        "most",
        -7.514237659253649
      ],
      [
        "such",
        -7.515205974574373
      ],
      [
        "line",
        -7.515538436469244
      ],
      [
        "amino",
        -7.5174311017705815
      ],
      [
        "25",
        -7.518313044089277
      ],
      [
        "described",
        -7.518830954323132
      ],
      [
        "24",
        -7.525226410306065
      ],
      [
        "%)",
        -7.527794266094528
      ],
      [
        "U",
        -7.5327797071811045
      ],
      [
        "pathway",
        -7.537202547034674
      ],
      [
        "]",
        -7.544003260280288
      ],
      [
        "showed",
        -7.548879326393871
      ],
      [
        "response",
        -7.5545275077709615
      ],
      [
        "site",
        -7.558959976856896
      ],
      [
        "disease",
        -7.560860842594041
      ],
      [
        "sequence",
        -7.5645516711258605
      ],
      [
        "non",
        -7.56529547860219
      ],
      [
        "Ras",
        -7.569372386739053
      ],
      [
        "+",
        -7.571708883684039
      ],
      [
        "receptor",
        -7.576589015607826
      ],
      [
        "anti",
        -7.576989361642411
      ],
      [
        "BRAF",
        -7.5776578180613505
      ],
      [
        "after",
        -7.579774778090329
      ],
      [
        "X",
        -7.591683373141585
      ],
      [
        "compared",
        -7.607630542331853
      ],
      [
        "'",
        -7.612917348133008
      ],
      [
        "assays",
        -7.622548119347462
      ],
      [
        "expressing",
        -7.627494512311097
      ],
      [
        "samples",
        -7.629889356993692
      ],
      [
        "β",
        -7.633112094382685
      ],
      [
        "How",
        -7.633837084441078
      ],
      [
        "21",
        -7.634429662145687
      ],
      [
        "including",
        -7.63473192500102
      ],
      [
        "similar",
        -7.639086386489229
      ],
      [
        "variant",
        -7.644192612017298
      ],
      [
        "structure",
        -7.645448307776803
      ],
      [
        "performed",
        -7.6459772533172785
      ],
      [
        "region",
        -7.671595493748049
      ],
      [
        "PCR",
        -7.686835287224861
      ],
      [
        "missense",
        -7.696649449857649
      ],
      [
        "mice",
        -7.70457385524937
      ],
      [
        "22",
        -7.709017122119937
      ],
      [
        "patient",
        -7.7098782179093295
      ],
      [
        "loss",
        -7.720026950400213
      ],
      [
        "effect",
        -7.726332845448258
      ],
      [
        "acid",
        -7.730325612336966
      ],
      [
        "increased",
        -7.73809837273701
      ],
      [
        "large",
        -7.74596975875753
      ],
      [
        "For",
        -7.754724851836851
      ],
      [
        "100",
        -7.758286442580259
      ],
      [
        "based",
        -7.764406030027837
      ],
      [
        "could",
        -7.775853908616055
      ],
      [
        "RAF",
        -7.789317970556059
      ],
      [
        "40",
        -7.790889317626165
      ],
      [
        "complex",
        -7.790986939220396
      ],
      [
        "role",
        -7.791974373225996
      ],
      [
        "transfected",
        -7.797953858727528
      ],
      [
        "inhibitors",
        -7.798092378662444
      ],
      [
        "breast",
        -7.800262036061486
      ],
      [
        "either",
        -7.80141921503316
      ],
      [
        "sequencing",
        -7.803922128558629
      ],
      [
        "vitro",
        -7.808613122602729
      ],
      [
        "known",
        -7.811736943438996
      ],
      [
        "independent",
        -7.811751478218557
      ],
      [
        "expressed",
        -7.819326607453711
      ],
      [
        "tyrosine",
        -7.825293834047459
      ],
      [
        "show",
        -7.825965179590716
      ],
      [
        "family",
        -7.826221606407438
      ],
      [
        "mutated",
        -7.826676450100178
      ],
      [
        "lung",
        -7.829995787993033
      ],
      [
        "interaction",
        -7.83373147330429
      ],
      [
        "presence",
        -7.840431133718418
      ],
      [
        "26",
        -7.844819465589508
      ],
      [
        "inhibitor",
        -7.847827707657109
      ],
      [
        "ability",
        -7.858841438656492
      ],
      [
        "over",
        -7.8617335378968605
      ],
      [
        "37",
        -7.863890247974309
      ],
      [
        "terminal",
        -7.870359126012826
      ],
      [
        "normal",
        -7.870627302936455
      ],
      [
        "x",
        -7.880080763824418
      ],
      [
        "induced",
        -7.880849157468639
      ],
      [
        "dependent",
        -7.882508241994348
      ],
      [
        "inhibition",
        -7.888479574466183
      ],
      [
        "cancers",
        -7.889591377541452
      ],
      [
        "RAS",
        -7.893352981868798
      ],
      [
        "through",
        -7.899990116342876
      ],
      [
        "fusion",
        -7.907760772972983
      ],
      [
        "containing",
        -7.908539744212975
      ],
      [
        "27",
        -7.9088776494124815
      ],
      [
        "survival",
        -7.9107933321434345
      ],
      [
        "some",
        -7.912482044332641
      ],
      [
        "35",
        -7.915250040109031
      ],
      [
        "addition",
        -7.915419571909403
      ],
      [
        "ion",
        -7.9154542605652285
      ],
      [
        "positive",
        -7.9158155276740025
      ],
      [
        "did",
        -7.916105667769054
      ],
      [
        "significant",
        -7.921668050442131
      ],
      [
        "likely",
        -7.921718264632776
      ],
      [
        "those",
        -7.926939087035155
      ],
      [
        "proliferation",
        -7.931671408759275
      ],
      [
        "23",
        -7.935164095479468
      ],
      [
        "28",
        -7.936732497252498
      ],
      [
        "detected",
        -7.937617282815918
      ],
      [
        "domains",
        -7.948867837907763
      ],
      [
        "per",
        -7.950230434583446
      ],
      [
        "indicated",
        -7.958246180190738
      ],
      [
        "genetic",
        -7.959361472619763
      ],
      [
        "29",
        -7.9600477170985116
      ],
      [
        "effects",
        -7.9615461933181155
      ],
      [
        "common",
        -7.963004918644314
      ],
      [
        "α",
        -7.965355971102985
      ],
      [
        "model",
        -7.966194192448908
      ],
      [
        "further",
        -7.967530287028286
      ],
      [
        "whereas",
        -7.96896637839
      ],
      [
        "analyzed",
        -7.974408958836879
      ],
      [
        "small",
        -7.978117748845964
      ],
      [
        "primary",
        -7.980694732023297
      ],
      [
        "loop",
        -7.984192762010608
      ],
      [
        "low",
        -7.985474926755419
      ],
      [
        "same",
        -7.998465238185306
      ],
      [
        "there",
        -7.999418373986675
      ],
      [
        "imatinib",
        -8.000636536296923
      ],
      [
        "J",
        -8.002707508968351
      ],
      [
        "active",
        -8.003209094583328
      ],
      [
        "lead",
        -8.003445373247297
      ],
      [
        "VUS",
        -8.007202062234763
      ],
      [
        "fold",
        -8.007340478327967
      ],
      [
        "transcription",
        -8.009137822677822
      ],
      [
        "less",
        -8.011663349064158
      ],
      [
        "48",
        -8.011698012973044
      ],
      [
        "target",
        -8.016416246423562
      ],
      [
        "present",
        -8.016632892540903
      ],
      [
        "34",
        -8.017413154957701
      ],
      [
        "factor",
        -8.023288282646211
      ],
      [
        "first",
        -8.024108910020317
      ],
      [
        "relative",
        -8.024224111769163
      ],
      [
        "treated",
        -8.031960098802422
      ],
      [
        "oncogenic",
        -8.03742747752412
      ],
      [
        "when",
        -8.038657253286537
      ],
      [
        "deletion",
        -8.041892424294895
      ],
      [
        "whether",
        -8.041998200970555
      ],
      [
        "potential",
        -8.04813941040167
      ],
      [
        "respectively",
        -8.049411413508084
      ],
      [
        "significantly",
        -8.051039370560641
      ],
      [
        "important",
        -8.052037848072267
      ],
      [
        "60",
        -8.054946864113369
      ],
      [
        "melanoma",
        -8.05882393354524
      ],
      [
        "molecular",
        -8.067679700587906
      ],
      [
        "36",
        -8.069157927432773
      ],
      [
        "ies",
        -8.070886103368997
      ],
      [
        "several",
        -8.073710295640218
      ],
      [
        "AR",
        -8.080429489387376
      ],
      [
        "resistant",
        -8.087855904332791
      ],
      [
        "ity",
        -8.089156043266467
      ],
      [
        "transcriptional",
        -8.098503158433903
      ],
      [
        "All",
        -8.100719291361957
      ],
      [
        "activating",
        -8.10144531760974
      ],
      [
        "single",
        -8.101680588146793
      ],
      [
        "ation",
        -8.104026933657224
      ],
      [
        "33",
        -8.107606728600482
      ],
      [
        "activated",
        -8.111290061001297
      ],
      [
        "Although",
        -8.114289373755376
      ],
      [
        "RNA",
        -8.116203761540673
      ],
      [
        "level",
        -8.121660413998384
      ],
      [
        "<",
        -8.1220606061991
      ],
      [
        "Cancer",
        -8.124681948102197
      ],
      [
        "total",
        -8.12774146531482
      ],
      [
        "negative",
        -8.129432806789724
      ],
      [
        "BRCT",
        -8.13007614985835
      ],
      [
        "contrast",
        -8.147201501705485
      ],
      [
        "residue",
        -8.150698811704862
      ],
      [
        "able",
        -8.150779252022087
      ],
      [
        "′",
        -8.155336139104973
      ],
      [
        "sensitivity",
        -8.157040797400136
      ],
      [
        "group",
        -8.158307168310929
      ],
      [
        "alterations",
        -8.158711393093366
      ],
      [
        "increase",
        -8.16001035923432
      ],
      [
        "°",
        -8.16213891303015
      ],
      [
        "mM",
        -8.16563955105786
      ],
      [
        "tested",
        -8.168898281388968
      ],
      [
        "antibody",
        -8.17028742918238
      ],
      [
        "result",
        -8.174568212770406
      ],
      [
        "within",
        -8.177050049747248
      ],
      [
        "development",
        -8.177835531465337
      ],
      [
        "cellular",
        -8.17851379518659
      ],
      [
        "’",
        -8.186677372674614
      ],
      [
        "obtained",
        -8.186764707114103
      ],
      [
        "mediated",
        -8.187949727793258
      ],
      [
        "available",
        -8.190780321836247
      ],
      [
        "II",
        -8.1930923901185
      ],
      [
        "against",
        -8.193213991219812
      ],
      [
        "changes",
        -8.19518946382588
      ],
      [
        "FLT3",
        -8.1952708736505
      ],
      [
        "amplification",
        -8.197733067569045
      ],
      [
        "somatic",
        -8.19841069670222
      ],
      [
        "because",
        -8.199657859509069
      ],
      [
        "32",
        -8.199829172445714
      ],
      [
        "Download",
        -8.201082533987138
      ],
      [
        "additional",
        -8.20396174638398
      ],
      [
        "_",
        -8.204648040722793
      ],
      [
        "test",
        -8.205094948408759
      ],
      [
        "KRAS",
        -8.206855616800445
      ],
      [
        "four",
        -8.208907602719718
      ],
      [
        "gefitinib",
        -8.218251711017572
      ],
      [
        "z",
        -8.223769553148223
      ],
      [
        "risk",
        -8.228495998215084
      ],
      [
        "evidence",
        -8.22952801816968
      ],
      [
        "D1",
        -8.232675836303168
      ],
      [
        "formation",
        -8.232857322130585
      ],
      [
        "31",
        -8.236899309392445
      ],
      [
        "vector",
        -8.24042872588591
      ],
      [
        "how",
        -8.240636599121315
      ],
      [
        "vivo",
        -8.240666190751641
      ],
      [
        "cyclin",
        -8.24281445789548
      ],
      [
        "experiments",
        -8.244063275743338
      ],
      [
        "under",
        -8.246563299578435
      ],
      [
        "form",
        -8.247066850521158
      ],
      [
        "“",
        -8.248388062547651
      ],
      [
        "structural",
        -8.248614013956418
      ],
      [
        "×",
        -8.249894257055432
      ],
      [
        "multiple",
        -8.254880292305021
      ],
      [
        "any",
        -8.258838526689946
      ],
      [
        "higher",
        -8.262466851177349
      ],
      [
        "sites",
        -8.262557806452694
      ],
      [
        "determined",
        -8.263152506990775
      ],
      [
        "Our",
        -8.26972876741163
      ],
      [
        "Cell",
        -8.272782171485101
      ],
      [
        "39",
        -8.27382051152509
      ],
      [
        "catalytic",
        -8.274307110882505
      ],
      [
        "”",
        -8.27530905737411
      ],
      [
        "point",
        -8.277410579226691
      ],
      [
        "phosphorylated",
        -8.278303456477424
      ],
      [
        "harbor",
        -8.278951638871366
      ],
      [
        "derived",
        -8.279954384404821
      ],
      [
        "new",
        -8.281164245868798
      ],
      [
        "allele",
        -8.285090004812842
      ],
      [
        "progression",
        -8.285295699869232
      ],
      [
        "reduced",
        -8.286672144474613
      ],
      [
        "del",
        -8.28672408817288
      ],
      [
        "genomic",
        -8.289873679934988
      ],
      [
        "45",
        -8.291323286930968
      ],
      [
        "might",
        -8.294641013417815
      ],
      [
        "80",
        -8.301802138259472
      ],
      [
        "would",
        -8.302028272742655
      ],
      [
        "mouse",
        -8.304879507408664
      ],
      [
        "BRCA2",
        -8.305799440673718
      ],
      [
        "PDGFRA",
        -8.307080514412572
      ],
      [
        "deleterious",
        -8.307314931189012
      ],
      [
        "red",
        -8.307935412749492
      ],
      [
        "position",
        -8.307943926378067
      ],
      [
        "PI3K",
        -8.309807178875285
      ],
      [
        "pathways",
        -8.314759483770692
      ],
      [
        "S1",
        -8.316009499024037
      ],
      [
        "therapy",
        -8.316701491462283
      ],
      [
        "000",
        -8.322536509534633
      ],
      [
        "ERK",
        -8.327577556233093
      ],
      [
        "related",
        -8.331407953139692
      ],
      [
        "required",
        -8.331881171299193
      ],
      [
        "out",
        -8.33320850904463
      ],
      [
        "revealed",
        -8.333864106654257
      ],
      [
        "drug",
        -8.336036852201861
      ],
      [
        "sensitive",
        -8.340735782486362
      ],
      [
        "mechanism",
        -8.341435161065801
      ],
      [
        "inhibit",
        -8.342236398999212
      ],
      [
        "time",
        -8.347306209239322
      ],
      [
        "affect",
        -8.349491386682878
      ],
      [
        "consistent",
        -8.350943059261805
      ],
      [
        "rate",
        -8.351379800226361
      ],
      [
        "Thus",
        -8.355523753427901
      ],
      [
        "49",
        -8.356421286186645
      ],
      [
        "age",
        -8.360702819349896
      ],
      [
        "case",
        -8.364822212042942
      ],
      [
        "CA",
        -8.367166007255328
      ],
      [
        "without",
        -8.367356742545926
      ],
      [
        "frequency",
        -8.368077757192943
      ],
      [
        "38",
        -8.369742610307178
      ],
      [
        "will",
        -8.371591912251912
      ],
      [
        "tissue",
        -8.373840113506558
      ],
      [
        "lack",
        -8.374910596219
      ],
      [
        "nuclear",
        -8.381764435524431
      ],
      [
        "NSCLC",
        -8.383368562674372
      ],
      [
        "ng",
        -8.388504181383464
      ],
      [
        "substitution",
        -8.391908055414342
      ],
      [
        "up",
        -8.3935784532726
      ],
      [
        "Raf",
        -8.394760776335017
      ],
      [
        "min",
        -8.396657804830854
      ],
      [
        "change",
        -8.402029269235141
      ],
      [
        "due",
        -8.402681955190168
      ],
      [
        "ally",
        -8.403336738106017
      ],
      [
        "Further",
        -8.404968712789485
      ],
      [
        "95",
        -8.406412288838245
      ],
      [
        "HER2",
        -8.411117615558261
      ],
      [
        "pathogenic",
        -8.414914618976903
      ],
      [
        "AKT",
        -8.42356432587411
      ],
      [
        "conserved",
        -8.425246848675304
      ],
      [
        "absence",
        -8.425688655050589
      ],
      [
        "90",
        -8.426037009841766
      ],
      [
        "S2",
        -8.427313793445302
      ],
      [
        "examined",
        -8.429555319624267
      ],
      [
        "involved",
        -8.43023751011554
      ],
      [
        "second",
        -8.434402451994385
      ],
      [
        "Δ",
        -8.434649363512188
      ],
      [
        "70",
        -8.435142409401312
      ],
      [
        "constitutive",
        -8.4376220612195
      ],
      [
        "SPOP",
        -8.440045823833414
      ],
      [
        "end",
        -8.442877703381518
      ],
      [
        "47",
        -8.443734704362118
      ],
      [
        "predicted",
        -8.445090434198766
      ],
      [
        "least",
        -8.446297145011913
      ],
      [
        "provide",
        -8.447131834679505
      ],
      [
        "42",
        -8.453961192702717
      ],
      [
        "],",
        -8.45464573847004
      ],
      [
        "use",
        -8.456822023389792
      ],
      [
        "promoter",
        -8.457172899563943
      ],
      [
        "induce",
        -8.458872815362584
      ],
      [
        "verall",
        -8.459919375190134
      ],
      [
        "cDNA",
        -8.460897836403419
      ],
      [
        "confirmed",
        -8.465266423577674
      ],
      [
        "TSC2",
        -8.46725101830259
      ],
      [
        "many",
        -8.468867260719021
      ],
      [
        "MEK",
        -8.469693045631287
      ],
      [
        "46",
        -8.470059959507012
      ],
      [
        "59",
        -8.47070961716972
      ],
      [
        "Met",
        -8.472295954967079
      ],
      [
        "mechanisms",
        -8.472531525943186
      ],
      [
        "downstream",
        -8.474626007853262
      ],
      [
        "status",
        -8.477618701123982
      ],
      [
        "Notch",
        -8.478468565730367
      ],
      [
        "interactions",
        -8.479680285437796
      ],
      [
        "demonstrated",
        -8.48063815554672
      ],
      [
        "phenotype",
        -8.480876117777772
      ],
      [
        "Z",
        -8.483763368380444
      ],
      [
        "ous",
        -8.485205201818346
      ],
      [
        "ligand",
        -8.485219862975352
      ],
      [
        "antibodies",
        -8.485313237425471
      ],
      [
        "lower",
        -8.485857222309898
      ],
      [
        "44",
        -8.488201790856506
      ],
      [
        "following",
        -8.49123753177112
      ],
      [
        "panel",
        -8.492617678745932
      ],
      [
        "according",
        -8.494824271901892
      ],
      [
        "like",
        -8.494960747634714
      ],
      [
        "F3",
        -8.495639659680803
      ],
      [
        "suppressor",
        -8.498509945035835
      ],
      [
        "regulation",
        -8.500978868571586
      ],
      [
        "*",
        -8.504290334793266
      ],
      [
        "classification",
        -8.50563791362384
      ],
      [
        "determine",
        -8.507399204889156
      ],
      [
        "Akt",
        -8.509930653176662
      ],
      [
        "cycle",
        -8.511760531267772
      ],
      [
        "PIK3CA",
        -8.512066359063946
      ],
      [
        "substitutions",
        -8.512998316971643
      ],
      [
        "transfection",
        -8.514468468295926
      ],
      [
        "analyses",
        -8.514651392757997
      ],
      [
        "apoptosis",
        -8.518188520848966
      ],
      [
        "among",
        -8.521911624975738
      ],
      [
        "acids",
        -8.521917995509245
      ],
      [
        "alleles",
        -8.523869641573539
      ],
      [
        "GFP",
        -8.52425913650601
      ],
      [
        "signal",
        -8.524318855915093
      ],
      [
        "system",
        -8.525014722703569
      ],
      [
        "IL",
        -8.526888254871029
      ],
      [
        "indicate",
        -8.528076206553354
      ],
      [
        "located",
        -8.532812489352684
      ],
      [
        "exons",
        -8.536257279516274
      ],
      [
        "mRNA",
        -8.5388343526088
      ],
      [
        "56",
        -8.539842608985355
      ],
      [
        "factors",
        -8.540265488156995
      ],
      [
        "carcinoma",
        -8.542651129729038
      ],
      [
        "phosphatase",
        -8.543607482920855
      ],
      [
        "who",
        -8.544565045994654
      ],
      [
        "therefore",
        -8.54555081193158
      ],
      [
        "tumour",
        -8.549428326263769
      ],
      [
        "months",
        -8.549750666194189
      ],
      [
        "class",
        -8.550590124564662
      ],
      [
        "identify",
        -8.550713293922882
      ],
      [
        "Mutations",
        -8.554254827474056
      ],
      [
        "types",
        -8.558443859205806
      ],
      [
        "bound",
        -8.560753726507674
      ],
      [
        "43",
        -8.564994079115099
      ],
      [
        "remain",
        -8.568357602553242
      ],
      [
        "findings",
        -8.569004944862892
      ],
      [
        "leukemia",
        -8.570445491167577
      ],
      [
        "distinct",
        -8.574140223161404
      ],
      [
        "values",
        -8.575153972329645
      ],
      [
        "ATP",
        -8.580603594789183
      ],
      [
        "regions",
        -8.580889521480277
      ],
      [
        "where",
        -8.584677797064085
      ],
      [
        "57",
        -8.587100486960235
      ],
      [
        "promote",
        -8.587422862197736
      ],
      [
        "stability",
        -8.587663438616122
      ],
      [
        "ance",
        -8.58796525640181
      ],
      [
        "CD",
        -8.58970345220642
      ],
      [
        "novel",
        -8.591461610893758
      ],
      [
        "full",
        -8.592318238629872
      ],
      [
        "phospho",
        -8.59296275077102
      ],
      [
        "length",
        -8.594631996478855
      ],
      [
        "secondary",
        -8.600184376260783
      ],
      [
        "possible",
        -8.60061464321551
      ],
      [
        "part",
        -8.600686367517323
      ],
      [
        "although",
        -8.602509948745572
      ],
      [
        "AML",
        -8.604314222939365
      ],
      [
        "substrate",
        -8.605061327632274
      ],
      [
        "models",
        -8.606748029775822
      ],
      [
        "support",
        -8.607878110107146
      ],
      [
        "41",
        -8.609500123848528
      ],
      [
        "clear",
        -8.61159180134429
      ],
      [
        "cross",
        -8.61440099334889
      ],
      [
        "chromosome",
        -8.61779084679304
      ],
      [
        "conformation",
        -8.620252609305409
      ],
      [
        "information",
        -8.620360233320996
      ],
      [
        "included",
        -8.620628857747706
      ],
      [
        "individuals",
        -8.621228323110923
      ],
      [
        "nucleotide",
        -8.624011993120876
      ],
      [
        "75",
        -8.627748121516198
      ],
      [
        "therapeutic",
        -8.628142779399846
      ],
      [
        "individual",
        -8.630401900964072
      ],
      [
        "serum",
        -8.63074874452455
      ],
      [
        "while",
        -8.630921384603747
      ],
      [
        "range",
        -8.635617345455808
      ],
      [
        "tic",
        -8.636428451046937
      ],
      [
        "immuno",
        -8.636865813854786
      ],
      [
        "sample",
        -8.637209140186007
      ],
      [
        "membrane",
        -8.638372824348119
      ],
      [
        "repair",
        -8.638791168336246
      ],
      [
        "association",
        -8.639134079635008
      ],
      [
        "copy",
        -8.640901308060647
      ],
      [
        "Smad4",
        -8.641601616154457
      ],
      [
        "germline",
        -8.642966288908427
      ],
      [
        "side",
        -8.64312601078782
      ],
      [
        "affected",
        -8.64887634164509
      ],
      [
        "deletions",
        -8.649504912059248
      ],
      [
        "sequences",
        -8.649645630341071
      ],
      [
        "74",
        -8.651902549567037
      ],
      [
        "FGFR2",
        -8.652708834326807
      ],
      [
        "splicing",
        -8.653232589656952
      ],
      [
        "generated",
        -8.653980133341571
      ],
      [
        "Cells",
        -8.656984146526346
      ],
      [
        "state",
        -8.657951958647807
      ],
      [
        "direct",
        -8.659080309162304
      ],
      [
        "yeast",
        -8.66287045983929
      ],
      [
        "syndrome",
        -8.664373832808588
      ],
      [
        "phase",
        -8.66666644812823
      ],
      [
        "families",
        -8.66907946008268
      ],
      [
        "pre",
        -8.66918053084699
      ],
      [
        "54",
        -8.670215221169784
      ],
      [
        "53",
        -8.670471417462197
      ],
      [
        "72",
        -8.673531928288439
      ],
      [
        "mTOR",
        -8.67494066910081
      ],
      [
        "55",
        -8.676181449815699
      ],
      [
        "codon",
        -8.676810535826597
      ],
      [
        "characterized",
        -8.67869309128449
      ],
      [
        "NIH",
        -8.682617480101092
      ],
      [
        "very",
        -8.682719226871109
      ],
      [
        "ovarian",
        -8.683683094173754
      ],
      [
        "kinases",
        -8.684544376367382
      ],
      [
        "particular",
        -8.685224092876764
      ],
      [
        "interact",
        -8.685290905083434
      ],
      [
        "Western",
        -8.686398542122493
      ],
      [
        "buffer",
        -8.686470691220153
      ],
      [
        "±",
        -8.687778076663202
      ],
      [
        "MAPK",
        -8.688985019319173
      ],
      [
        "include",
        -8.692903412913086
      ],
      [
        "gain",
        -8.693469954817195
      ],
      [
        "early",
        -8.694400861707036
      ],
      [
        "confer",
        -8.697484423059276
      ],
      [
        "ur",
        -8.70079302713094
      ],
      [
        "JAK2",
        -8.701469680307202
      ],
      [
        "68",
        -8.70224429969916
      ],
      [
        "GTP",
        -8.702763442228997
      ],
      [
        "HA",
        -8.70477154467179
      ],
      [
        "controls",
        -8.705222909160513
      ],
      [
        "five",
        -8.706293446455641
      ],
      [
        "differences",
        -8.708181201337684
      ],
      [
        "2011",
        -8.708610296457305
      ],
      [
        "helix",
        -8.708718006108223
      ],
      [
        "58",
        -8.709051894021355
      ],
      [
        "surface",
        -8.709261132778598
      ],
      [
        "evaluate",
        -8.71038083550895
      ],
      [
        "previous",
        -8.712831153779392
      ],
      [
        "ive",
        -8.713436162258775
      ],
      [
        "μg",
        -8.713677182014013
      ],
      [
        "during",
        -8.718175306150107
      ],
      [
        "contribute",
        -8.719480272286368
      ],
      [
        "targeted",
        -8.719688298392853
      ],
      [
        "figure",
        -8.720194099448038
      ],
      [
        "complete",
        -8.721615491625249
      ],
      [
        "directly",
        -8.722217237783855
      ],
      [
        "resulting",
        -8.722228044337124
      ],
      [
        "MET",
        -8.724788074292672
      ],
      [
        "endogenous",
        -8.727075864482648
      ],
      [
        "blot",
        -8.728838492932391
      ],
      [
        "occur",
        -8.73261162350542
      ],
      [
        "free",
        -8.733157124255984
      ],
      [
        "motif",
        -8.733214052402303
      ],
      [
        "corresponding",
        -8.734121673001637
      ],
      [
        "transformation",
        -8.73511256266648
      ],
      [
        "even",
        -8.735265565831167
      ],
      [
        "ER",
        -8.736896536363206
      ],
      [
        "constructs",
        -8.737470763128757
      ],
      [
        "More",
        -8.74112833015502
      ],
      [
        "various",
        -8.747248099633918
      ],
      [
        "represent",
        -8.747251741365332
      ],
      [
        "critical",
        -8.75079579208037
      ],
      [
        "strong",
        -8.750913953972677
      ],
      [
        "activate",
        -8.751668129171136
      ],
      [
        "65",
        -8.752141801221248
      ],
      [
        "thus",
        -8.752476757662093
      ],
      [
        "defined",
        -8.75587316685023
      ],
      [
        "size",
        -8.757014860184963
      ],
      [
        "After",
        -8.757541094935387
      ],
      [
        "—",
        -8.759038110885784
      ],
      [
        "q",
        -8.76108878526648
      ],
      [
        "62",
        -8.762123768958059
      ],
      [
        "peptide",
        -8.76212673999163
      ],
      [
        "medium",
        -8.762569496320731
      ],
      [
        "ex",
        -8.764454479625309
      ],
      [
        "Methods",
        -8.764949343283321
      ],
      [
        "2006",
        -8.766978913106358
      ],
      [
        "example",
        -8.77103258205496
      ],
      [
        "mean",
        -8.771192144987241
      ],
      [
        "classified",
        -8.775636062712877
      ],
      [
        "recently",
        -8.777681495123225
      ],
      [
        "reporter",
        -8.777941278877027
      ],
      [
        "limit",
        -8.780615649440252
      ],
      [
        "crizotinib",
        -8.78148389213674
      ],
      [
        "j",
        -8.781965621878486
      ],
      [
        "should",
        -8.783538037857834
      ],
      [
        "Pro",
        -8.784579647185723
      ],
      [
        "above",
        -8.785211319394229
      ],
      [
        "years",
        -8.786879645683062
      ],
      [
        "incubated",
        -8.78869159465306
      ],
      [
        "IC50",
        -8.789632685522896
      ],
      [
        "RT",
        -8.793149383475368
      ],
      [
        "Interesting",
        -8.798296462924496
      ],
      [
        "bind",
        -8.798796530072284
      ],
      [
        "assessed",
        -8.798814718923182
      ],
      [
        "staining",
        -8.799620813405394
      ],
      [
        "expected",
        -8.804305351559377
      ],
      [
        "here",
        -8.805034024070766
      ],
      [
        "does",
        -8.80620825868074
      ],
      [
        "days",
        -8.81014894419633
      ],
      [
        "...",
        -8.811628460813433
      ],
      [
        "targeting",
        -8.812759360540824
      ],
      [
        "population",
        -8.816890252426328
      ],
      [
        "image",
        -8.817047477294553
      ],
      [
        "PA",
        -8.818606522358479
      ],
      [
        "um",
        -8.819507453245633
      ],
      [
        "measured",
        -8.82048979867057
      ],
      [
        "69",
        -8.822188271546425
      ],
      [
        "history",
        -8.826335448248646
      ],
      [
        "concentrations",
        -8.828416217443815
      ],
      [
        "major",
        -8.828798490802834
      ],
      [
        "via",
        -8.83016890298188
      ],
      [
        "require",
        -8.830189755747972
      ],
      [
        "Ser",
        -8.831712965512759
      ],
      [
        "indicating",
        -8.833334203380138
      ],
      [
        "E2",
        -8.834152705491746
      ],
      [
        "amplified",
        -8.834464588149066
      ],
      [
        "52",
        -8.834684268974781
      ],
      [
        "inhibited",
        -8.835456605288877
      ],
      [
        "67",
        -8.837850921422339
      ],
      [
        "core",
        -8.839916805180481
      ],
      [
        "2013",
        -8.842068610008866
      ],
      [
        "78",
        -8.842319051135105
      ],
      [
        "III",
        -8.842959256012307
      ],
      [
        "64",
        -8.844120330615295
      ],
      [
        "ratio",
        -8.844220690925413
      ],
      [
        "six",
        -8.845248151102512
      ],
      [
        "splice",
        -8.846054525057946
      ],
      [
        "neutral",
        -8.850174605704815
      ],
      [
        "rare",
        -8.850436770050763
      ],
      [
        "together",
        -8.8511440961411
      ],
      [
        "selected",
        -8.851604429213227
      ],
      [
        "Smad2",
        -8.853706709075281
      ],
      [
        "PR",
        -8.854000643276203
      ],
      [
        "impact",
        -8.858224473537518
      ],
      [
        "tumours",
        -8.8597126442226
      ],
      [
        "catenin",
        -8.860997760481448
      ],
      [
        "05",
        -8.863640503988396
      ],
      [
        "genome",
        -8.867852273879095
      ],
      [
        "activities",
        -8.867865077458873
      ],
      [
        "Smad3",
        -8.868199614912967
      ],
      [
        "resulted",
        -8.868385353128303
      ],
      [
        "•",
        -8.870485063930127
      ],
      [
        "TP53",
        -8.870711978779127
      ],
      [
        "frequently",
        -8.87241597538265
      ],
      [
        "98",
        -8.872616203441082
      ],
      [
        "GIST",
        -8.880486615334963
      ],
      [
        "hours",
        -8.881663590606909
      ],
      [
        "One",
        -8.882976758210829
      ],
      [
        "pro",
        -8.887224571315478
      ],
      [
        "ubiquitin",
        -8.888136629250724
      ],
      [
        "96",
        -8.888695408094016
      ],
      [
        "NF1",
        -8.889104230054443
      ],
      [
        "immunoprecipitat",
        -8.889205585029142
      ],
      [
        "chain",
        -8.889297455585496
      ],
      [
        "value",
        -8.889858104547924
      ],
      [
        "general",
        -8.890583282249786
      ],
      [
        "conditions",
        -8.892543778563091
      ],
      [
        "significance",
        -8.89418175820374
      ],
      [
        "66",
        -8.895164619959958
      ],
      [
        "Arg",
        -8.896658922373007
      ],
      [
        "cause",
        -8.897979591998071
      ],
      [
        "assess",
        -8.898377033313173
      ],
      [
        "developed",
        -8.899477567861862
      ],
      [
        "regulatory",
        -8.899599437362395
      ],
      [
        "report",
        -8.90443407547755
      ],
      [
        "′-",
        -8.90483542780998
      ],
      [
        "localization",
        -8.905699164079047
      ],
      [
        "combination",
        -8.906503042395032
      ],
      [
        "88",
        -8.906962814303503
      ],
      [
        "features",
        -8.907729425309315
      ],
      [
        "encoding",
        -8.907895052872089
      ],
      [
        "herefore",
        -8.908301570502806
      ],
      [
        "before",
        -8.908813786685341
      ],
      [
        "overexpression",
        -8.909151748690638
      ],
      [
        "seen",
        -8.909206248738522
      ],
      [
        "ter",
        -8.912179649765173
      ],
      [
        "SD",
        -8.912781127233613
      ],
      [
        "Results",
        -8.913040294854056
      ],
      [
        "S3",
        -8.913314762759141
      ],
      [
        "2A",
        -8.91503648091869
      ],
      [
        "decreased",
        -8.915494949245044
      ],
      [
        "61",
        -8.916140013643334
      ],
      [
        "2010",
        -8.916330924994229
      ],
      [
        "TSC1",
        -8.921705872974362
      ],
      [
        "followed",
        -8.926646125805862
      ],
      [
        "estimate",
        -8.926782867231454
      ],
      [
        "recurrent",
        -8.927189927051357
      ],
      [
        "ALL",
        -8.928020785044366
      ],
      [
        "Myc",
        -8.931030893433638
      ],
      [
        "alternative",
        -8.932999404923185
      ],
      [
        "functions",
        -8.933447651982933
      ],
      [
        "plasmid",
        -8.936524804359935
      ],
      [
        "ary",
        -8.938117822102305
      ],
      [
        "HIF",
        -8.940429568662223
      ],
      [
        "considered",
        -8.942587001923748
      ],
      [
        "drive",
        -8.943382046958797
      ],
      [
        "Author",
        -8.944210339004167
      ],
      [
        "regulate",
        -8.946040108200405
      ],
      [
        "prostate",
        -8.946066074284717
      ],
      [
        "RET",
        -8.946385924759786
      ],
      [
        "complexes",
        -8.947723025351149
      ],
      [
        "clone",
        -8.948012659857012
      ],
      [
        "FGFR3",
        -8.949209737757306
      ],
      [
        "basis",
        -8.94922863447387
      ],
      [
        "auto",
        -8.949490783928335
      ],
      [
        "being",
        -8.94956973982172
      ],
      [
        "standard",
        -8.951567441955293
      ],
      [
        "recent",
        -8.952114369051866
      ],
      [
        "lysates",
        -8.95332511062191
      ],
      [
        "led",
        -8.954156667463716
      ],
      [
        "allow",
        -8.954553602704893
      ],
      [
        "agged",
        -8.95837689753524
      ],
      [
        "regulated",
        -8.9626513355015
      ],
      [
        "Nrf2",
        -8.962793227891328
      ],
      [
        "suggested",
        -8.962796928938609
      ],
      [
        "th",
        -8.963079368744417
      ],
      [
        "concentration",
        -8.965178620358543
      ],
      [
        "org",
        -8.96534897500896
      ],
      [
        "targets",
        -8.96756570144082
      ],
      [
        "Analysis",
        -8.967595550578608
      ],
      [
        "stem",
        -8.969781679600148
      ],
      [
        "VHL",
        -8.969861853650018
      ],
      [
        "mutational",
        -8.972020166187663
      ],
      [
        "MEK1",
        -8.97768219441233
      ],
      [
        "inactive",
        -8.97822370082551
      ],
      [
        "sub",
        -8.978275334264836
      ],
      [
        "he",
        -8.98092977419341
      ],
      [
        "colorectal",
        -8.984329292247772
      ],
      [
        "p110α",
        -8.984676150614115
      ],
      [
        "subunit",
        -8.985151193944272
      ],
      [
        "2005",
        -8.985596360145067
      ],
      [
        "63",
        -8.987749387843785
      ],
      [
        "forms",
        -8.988952218759076
      ],
      [
        "2008",
        -8.99041141148564
      ],
      [
        "confirm",
        -8.990896557363175
      ],
      [
        "method",
        -8.990931823494165
      ],
      [
        "alone",
        -8.991302009807331
      ],
      [
        "showing",
        -8.992601487243755
      ],
      [
        "impair",
        -8.992616927794737
      ],
      [
        "coding",
        -8.994852317445932
      ],
      [
        "PD",
        -8.996352676405754
      ],
      [
        "Similar",
        -8.996723525843905
      ],
      [
        "crystal",
        -8.996983791134282
      ],
      [
        "clones",
        -8.999128984796357
      ],
      [
        "stable",
        -9.001301019372953
      ],
      [
        "differentiation",
        -9.001521053986714
      ],
      [
        "dose",
        -9.004399928874493
      ],
      [
        "gel",
        -9.00493557698245
      ],
      [
        "receptors",
        -9.005533607584361
      ],
      [
        "adenocarcinoma",
        -9.009139498069255
      ],
      [
        "given",
        -9.010366573459192
      ],
      [
        "HR",
        -9.01206115865713
      ],
      [
        "affinity",
        -9.013159660979106
      ],
      [
        "2012",
        -9.01339721470474
      ],
      [
        "groups",
        -9.014210684192136
      ],
      [
        "erlotinib",
        -9.01519473248849
      ],
      [
        "demonstrate",
        -9.017929640000123
      ],
      [
        "difference",
        -9.019610842321038
      ],
      [
        "context",
        -9.020103801062561
      ],
      [
        "altered",
        -9.02189217960768
      ],
      [
        "sufficient",
        -9.02211535518622
      ],
      [
        "correlation",
        -9.025305586699183
      ],
      [
        "Tyr",
        -9.025848169162078
      ],
      [
        "upon",
        -9.026120739773182
      ],
      [
        "members",
        -9.028026350558665
      ],
      [
        "score",
        -9.030248123266874
      ],
      [
        "Because",
        -9.031395289652277
      ],
      [
        "key",
        -9.031701064163055
      ],
      [
        "develop",
        -9.034888298558803
      ],
      [
        "TKI",
        -9.035656549807516
      ],
      [
        "degradation",
        -9.037794060188926
      ],
      [
        "TGF",
        -9.03797774000938
      ],
      [
        "disrupt",
        -9.038567782806014
      ],
      [
        "reaction",
        -9.039085029813819
      ],
      [
        "fraction",
        -9.03911309314548
      ],
      [
        "76",
        -9.039195704157388
      ],
      [
        "frame",
        -9.039616291838543
      ],
      [
        "77",
        -9.041736420544396
      ],
      [
        "purified",
        -9.041971147724167
      ],
      [
        "primers",
        -9.04221385810133
      ],
      [
        "87",
        -9.042404012032748
      ],
      [
        "fact",
        -9.044904174909407
      ],
      [
        "database",
        -9.045805018683303
      ],
      [
        "enhanced",
        -9.048328973249678
      ],
      [
        "Con",
        -9.048557281505706
      ],
      [
        "subset",
        -9.048891918520493
      ],
      [
        "2000",
        -9.048949968426234
      ],
      [
        "about",
        -9.049969625749991
      ],
      [
        "man",
        -9.050112452906138
      ],
      [
        "ve",
        -9.0501709245414
      ],
      [
        "insertion",
        -9.051567667427005
      ],
      [
        "prior",
        -9.053664935283296
      ],
      [
        "ment",
        -9.055120105760393
      ],
      [
        "99",
        -9.056277076835052
      ],
      [
        "initial",
        -9.05974862877977
      ],
      [
        "1997",
        -9.05977373583287
      ],
      [
        "contains",
        -9.05985867517961
      ],
      [
        "acquire",
        -9.063480400510098
      ],
      [
        "down",
        -9.064198720761526
      ],
      [
        "right",
        -9.065669586833074
      ],
      [
        "94",
        -9.066504489798692
      ],
      [
        "greate",
        -9.068858065706904
      ],
      [
        "com",
        -9.069984829128106
      ],
      [
        "approach",
        -9.070080326899836
      ],
      [
        "majorit",
        -9.070240901700117
      ],
      [
        "series",
        -9.070816401350655
      ],
      [
        "2004",
        -9.071160958795167
      ],
      [
        "TKIs",
        -9.072003056915971
      ],
      [
        "methods",
        -9.072251416604125
      ],
      [
        "predict",
        -9.073038363141084
      ],
      [
        "tissues",
        -9.073153391055186
      ],
      [
        "events",
        -9.07464879045484
      ],
      [
        "statistical",
        -9.076481317003555
      ],
      [
        "unknown",
        -9.077397659364754
      ],
      [
        "essential",
        -9.07780622167646
      ],
      [
        "CI",
        -9.078932309958097
      ],
      [
        "established",
        -9.079295844734423
      ],
      [
        "2007",
        -9.079665772568001
      ],
      [
        "200",
        -9.07973641098446
      ],
      [
        "double",
        -9.082875046216177
      ],
      [
        "IP",
        -9.084950432242373
      ],
      [
        "S4",
        -9.085697140912092
      ],
      [
        "specificity",
        -9.085783481427589
      ],
      [
        "caused",
        -9.086424518581172
      ],
      [
        "blood",
        -9.086522370893409
      ],
      [
        "51",
        -9.087842839580581
      ],
      [
        "01",
        -9.09142700187342
      ],
      [
        "View",
        -9.09175875169426
      ],
      [
        "stage",
        -9.091895570058817
      ],
      [
        "85",
        -9.091967867625884
      ],
      [
        "signals",
        -9.092643281833853
      ],
      [
        "00",
        -9.09437863402233
      ],
      [
        "median",
        -9.094767498499193
      ],
      [
        "calculated",
        -9.094773293641266
      ],
      [
        "specimens",
        -9.095034385957002
      ],
      [
        "V600E",
        -9.09648360787162
      ],
      [
        "structures",
        -9.09650365542553
      ],
      [
        "CBL",
        -9.096556861074067
      ],
      [
        "3A",
        -9.09689577364554
      ],
      [
        "combine",
        -9.097893513464733
      ],
      [
        "marked",
        -9.098631383538107
      ],
      [
        "oncogene",
        -9.099564056556165
      ],
      [
        "top",
        -9.099998684313636
      ],
      [
        "GAP",
        -9.100641571831167
      ],
      [
        "terminus",
        -9.100715703146918
      ],
      [
        "Expression",
        -9.100740780196565
      ],
      [
        "carried",
        -9.101818614979035
      ],
      [
        "Gene",
        -9.101847960354153
      ],
      [
        "culture",
        -9.102112313097152
      ],
      [
        "97",
        -9.102851406118372
      ],
      [
        "ITD",
        -9.106305389617443
      ],
      [
        "driver",
        -9.10729202599665
      ],
      [
        "cohort",
        -9.108162495746864
      ],
      [
        "exist",
        -9.10862051937857
      ],
      [
        "Ala",
        -9.110422998369263
      ],
      [
        "approximately",
        -9.110456824084746
      ],
      [
        "fusions",
        -9.11431281289688
      ],
      [
        "stimulation",
        -9.115531002655295
      ],
      [
        "selective",
        -9.11587283640412
      ],
      [
        "ligase",
        -9.116546416444438
      ],
      [
        "transforming",
        -9.11718474819206
      ],
      [
        "day",
        -9.117623610641813
      ],
      [
        "possibility",
        -9.118810471771607
      ],
      [
        "mutagenesis",
        -9.119419586565455
      ],
      [
        "another",
        -9.120625610812215
      ],
      [
        "L858R",
        -9.122300730039557
      ],
      [
        "ERBB2",
        -9.125505211597872
      ],
      [
        "2009",
        -9.125586534517431
      ],
      [
        "enzyme",
        -9.125633945933624
      ],
      [
        "damage",
        -9.12591601574976
      ],
      [
        "71",
        -9.12616676028985
      ],
      [
        "potent",
        -9.12663800271748
      ],
      [
        "embryonic",
        -9.128813249473499
      ],
      [
        "PC",
        -9.129494371306063
      ],
      [
        "effective",
        -9.129582716046517
      ],
      [
        "diagnosis",
        -9.130629881936624
      ],
      [
        "MA",
        -9.131147036779984
      ],
      [
        "Neutral",
        -9.13600712227429
      ],
      [
        "access",
        -9.137092798472732
      ],
      [
        "metastatic",
        -9.137619820292484
      ],
      [
        "Two",
        -9.137831956622176
      ],
      [
        "cluster",
        -9.137860591649403
      ],
      [
        "KD",
        -9.139182311301681
      ],
      [
        "SDS",
        -9.139321769299833
      ],
      [
        "79",
        -9.141106194433858
      ],
      [
        "distribution",
        -9.141232302760516
      ],
      [
        "act",
        -9.14287715117905
      ],
      [
        "alter",
        -9.143126990096064
      ],
      [
        "3T3",
        -9.143726550641546
      ],
      [
        "versus",
        -9.144361826923213
      ],
      [
        "mammalian",
        -9.144730097185732
      ],
      [
        "molecule",
        -9.144738319419377
      ],
      [
        "kit",
        -9.145600568606977
      ],
      [
        "2001",
        -9.145763032053189
      ],
      [
        "dominant",
        -9.146217157063395
      ],
      [
        "sequenced",
        -9.146490705479753
      ],
      [
        "reduction",
        -9.146958382871968
      ],
      [
        "http",
        -9.14844385861809
      ],
      [
        "displayed",
        -9.148920635277715
      ],
      [
        "89",
        -9.148956303911802
      ],
      [
        "hotspots",
        -9.14930030186505
      ],
      [
        "provided",
        -9.14948139094122
      ],
      [
        "luciferase",
        -9.154179861753109
      ],
      [
        "4A",
        -9.154244914866199
      ],
      [
        "Data",
        -9.154697153738534
      ],
      [
        "still",
        -9.157008585686297
      ],
      [
        "induction",
        -9.158306861502401
      ],
      [
        "2002",
        -9.158753757849821
      ],
      [
        "mL",
        -9.160990638026012
      ],
      [
        "remaining",
        -9.16199243088185
      ],
      [
        "wide",
        -9.162884907231117
      ],
      [
        "methylation",
        -9.164307748400825
      ],
      [
        "eight",
        -9.166908028201838
      ],
      [
        "unique",
        -9.167297304860696
      ],
      [
        "pattern",
        -9.170408647722029
      ],
      [
        "NA",
        -9.170484724334365
      ],
      [
        "comparison",
        -9.171193215767284
      ],
      [
        "1998",
        -9.174477187011343
      ],
      [
        "isolated",
        -9.176797710434808
      ],
      [
        "assessment",
        -9.179025823309148
      ],
      [
        "maintain",
        -9.179225096934301
      ],
      [
        "strongly",
        -9.179613905075115
      ],
      [
        "There",
        -9.180205335416327
      ],
      [
        "pVHL",
        -9.180851065780343
      ],
      [
        "myeloid",
        -9.181087446779097
      ],
      [
        "observations",
        -9.181770477701484
      ],
      [
        "2003",
        -9.182893153412147
      ],
      [
        "ated",
        -9.183514859641114
      ],
      [
        "hotspot",
        -9.184280546211667
      ],
      [
        "Mutation",
        -9.184372503162894
      ],
      [
        "studied",
        -9.184611441448975
      ],
      [
        "tumorigenesis",
        -9.184807965803058
      ],
      [
        "need",
        -9.185415911809928
      ],
      [
        "exhibited",
        -9.18608242668893
      ],
      [
        "proportion",
        -9.186595592558456
      ],
      [
        "relevant",
        -9.187443693012707
      ],
      [
        "GISTs",
        -9.189383392158323
      ],
      [
        "86",
        -9.190568141825446
      ],
      [
        "1B",
        -9.190676524202818
      ],
      [
        "www",
        -9.191103976671132
      ],
      [
        "malignant",
        -9.191458895852746
      ],
      [
        "NRAS",
        -9.191994875133364
      ],
      [
        "lysis",
        -9.193196126598341
      ],
      [
        "involving",
        -9.193312796841921
      ],
      [
        "version",
        -9.19487139701192
      ],
      [
        "products",
        -9.195054816636361
      ],
      [
        "Final",
        -9.19666208479059
      ],
      [
        "Asp",
        -9.196867205245617
      ],
      [
        "Research",
        -9.198541072719228
      ],
      [
        "frequent",
        -9.198767028619477
      ],
      [
        "2B",
        -9.201638817647831
      ],
      [
        "defects",
        -9.201687619381415
      ],
      [
        "criteria",
        -9.203402959498025
      ],
      [
        "intermediate",
        -9.203888414365142
      ],
      [
        "MMR",
        -9.20482857333636
      ],
      [
        "chemotherapy",
        -9.206405093738182
      ],
      [
        ":/",
        -9.206640392565983
      ],
      [
        "→",
        -9.20869708945954
      ],
      [
        "biological",
        -9.210326905952419
      ],
      [
        "MYC",
        -9.211806820855005
      ],
      [
        "observation",
        -9.2120099246697
      ],
      [
        "grade",
        -9.212687668131691
      ],
      [
        "interface",
        -9.215433734314605
      ],
      [
        "con",
        -9.218079395357313
      ],
      [
        "average",
        -9.218379878025342
      ],
      [
        "hyper",
        -9.218737478180701
      ],
      [
        "indicates",
        -9.218973117048204
      ],
      [
        "Thr",
        -9.220219742889022
      ],
      [
        "transformed",
        -9.220297843120287
      ],
      [
        "partial",
        -9.221557922579615
      ],
      [
        "Open",
        -9.22156207983177
      ],
      [
        "responses",
        -9.222448161271101
      ],
      [
        "investigated",
        -9.222578584401464
      ],
      [
        "times",
        -9.223042199914536
      ],
      [
        "⇓",
        -9.223950950940075
      ],
      [
        "play",
        -9.225533696262032
      ],
      [
        "selection",
        -9.225659338173184
      ],
      [
        "pocket",
        -9.22594916593815
      ],
      [
        "express",
        -9.226130614128692
      ],
      [
        "myc",
        -9.226942532291782
      ],
      [
        "lesions",
        -9.228107232070993
      ],
      [
        "published",
        -9.228537366707148
      ],
      [
        "E3",
        -9.22899661473251
      ],
      [
        "CR",
        -9.2297109409463
      ],
      [
        "phosphate",
        -9.23055863573062
      ],
      [
        "001",
        -9.23530159150157
      ],
      [
        "carcinomas",
        -9.236873842630995
      ],
      [
        "properties",
        -9.239037549412052
      ],
      [
        "73",
        -9.239736060294486
      ],
      [
        "cultured",
        -9.2405871955137
      ],
      [
        "Glu",
        -9.241343176152881
      ],
      [
        "trans",
        -9.243089359873622
      ],
      [
        "GST",
        -9.243099955445768
      ],
      [
        "Here",
        -9.24384821077609
      ],
      [
        "extracellular",
        -9.24468817127186
      ],
      [
        "decrease",
        -9.24498742682172
      ],
      [
        "6A",
        -9.24613553706548
      ],
      [
        "pH",
        -9.247236963111076
      ],
      [
        "molecules",
        -9.247778947700674
      ],
      [
        "next",
        -9.24794378807042
      ],
      [
        "death",
        -9.247997700219601
      ],
      [
        "FGFR",
        -9.25071785911444
      ],
      [
        "null",
        -9.25313319320462
      ],
      [
        "hydrophobic",
        -9.254145747279361
      ],
      [
        "γ",
        -9.254233629038001
      ],
      [
        "eleterious",
        -9.255499418462014
      ],
      [
        "locus",
        -9.257649543384925
      ],
      [
        "carrying",
        -9.257714987255305
      ],
      [
        "fluorescence",
        -9.258548589080624
      ],
      [
        "reverse",
        -9.258562073315748
      ],
      [
        "STAT3",
        -9.25863344841614
      ],
      [
        "siRNA",
        -9.25872633277898
      ],
      [
        "contact",
        -9.260085621156488
      ],
      [
        "Patients",
        -9.260277883669776
      ],
      [
        "display",
        -9.26290480713405
      ],
      [
        "whole",
        -9.265400939440108
      ],
      [
        "p16",
        -9.26662873754609
      ],
      [
        "SMO",
        -9.269097809759321
      ],
      [
        "neuroblastoma",
        -9.274306540867544
      ],
      [
        "seven",
        -9.274312583635062
      ],
      [
        "lymphoma",
        -9.275292108802622
      ],
      [
        "manufacturer",
        -9.275354567951322
      ],
      [
        "G1",
        -9.276945630390424
      ],
      [
        "ring",
        -9.277262519011906
      ],
      [
        "epithelial",
        -9.277356737588734
      ],
      [
        "bone",
        -9.277457372860493
      ],
      [
        "trials",
        -9.27807945282429
      ],
      [
        "long",
        -9.279983985260674
      ],
      [
        "Leu",
        -9.28017242469003
      ],
      [
        "weeks",
        -9.283655965169853
      ],
      [
        "manner",
        -9.284443160551566
      ],
      [
        "BCR",
        -9.284525202425558
      ],
      [
        "EGF",
        -9.284854346528574
      ],
      [
        "∼",
        -9.285705315162312
      ],
      [
        "CDK4",
        -9.285892597440307
      ],
      [
        "construct",
        -9.286351924418458
      ],
      [
        "exhibit",
        -9.286414776231195
      ],
      [
        "Brca1",
        -9.287219674486712
      ],
      [
        "toward",
        -9.287287653697403
      ],
      [
        "reveal",
        -9.288545449160988
      ],
      [
        "heterozygous",
        -9.291027874013912
      ],
      [
        "ill",
        -9.291990757865234
      ],
      [
        "repeats",
        -9.29207800743477
      ],
      [
        "500",
        -9.2952365671574
      ],
      [
        "1999",
        -9.296582387882948
      ],
      [
        "differential",
        -9.296907423721246
      ],
      [
        "generation",
        -9.298150140162813
      ],
      [
        "primer",
        -9.29948304478024
      ],
      [
        "melanomas",
        -9.30059656198506
      ],
      [
        "Consistent",
        -9.301542992321146
      ],
      [
        "grow",
        -9.301592777715161
      ],
      [
        "added",
        -9.303706008465191
      ],
      [
        "formed",
        -9.304081861958476
      ],
      [
        "detection",
        -9.304720023830965
      ],
      [
        "prevent",
        -9.304831926298673
      ],
      [
        "detect",
        -9.30723655360932
      ],
      [
        "linked",
        -9.308138677534023
      ],
      [
        "stained",
        -9.308570759985209
      ],
      [
        "S6",
        -9.311772046074712
      ],
      [
        "transactivation",
        -9.311934325197106
      ],
      [
        "University",
        -9.313065386207219
      ],
      [
        "green",
        -9.31390963810258
      ],
      [
        "BRCA",
        -9.316118637943212
      ],
      [
        "achieve",
        -9.316604019188452
      ],
      [
        "rates",
        -9.316942658723292
      ],
      [
        "directed",
        -9.317139472064634
      ],
      [
        "base",
        -9.317290725513764
      ],
      [
        "account",
        -9.31827276072587
      ],
      [
        "ErbB2",
        -9.318308058456122
      ],
      [
        "positions",
        -9.318374643624717
      ],
      [
        "dimerization",
        -9.319844628216506
      ],
      [
        "stimulated",
        -9.320036892604662
      ],
      [
        "ref",
        -9.321394178998437
      ],
      [
        "multi",
        -9.321701593591062
      ],
      [
        "work",
        -9.323749165864994
      ],
      [
        "suppression",
        -9.32439958467672
      ],
      [
        "nature",
        -9.326558434790325
      ],
      [
        "hypothesis",
        -9.326886459787506
      ],
      [
        "HCC",
        -9.327570242513879
      ],
      [
        "tab",
        -9.32934959628322
      ],
      [
        "defective",
        -9.33144954153269
      ],
      [
        "basal",
        -9.3323226248862
      ],
      [
        "seem",
        -9.33330670897183
      ],
      [
        "Kit",
        -9.33369103467893
      ],
      [
        "transduce",
        -9.334208399737895
      ],
      [
        "deficient",
        -9.335445729432529
      ],
      [
        "#",
        -9.335464409855016
      ],
      [
        "strand",
        -9.335654946433317
      ],
      [
        "experimental",
        -9.337151975329064
      ],
      [
        "biochemical",
        -9.337787157960971
      ],
      [
        "IDH1",
        -9.341075470585043
      ],
      [
        "brain",
        -9.341875227254377
      ],
      [
        "finding",
        -9.342042456138282
      ],
      [
        "Invitrogen",
        -9.342047577837345
      ],
      [
        "binds",
        -9.342657336579366
      ],
      [
        "lane",
        -9.343224735039273
      ],
      [
        "ence",
        -9.344999741981763
      ],
      [
        "p21",
        -9.34722185003376
      ],
      [
        "import",
        -9.347223144975985
      ],
      [
        "NOTCH1",
        -9.349144271380316
      ],
      [
        "Protein",
        -9.349741642435976
      ],
      [
        "percentage",
        -9.350692057872637
      ],
      [
        "Bio",
        -9.351246480489685
      ],
      [
        "ROS1",
        -9.352082909000428
      ],
      [
        "HD",
        -9.354787831598674
      ],
      [
        "plasma",
        -9.355508040562492
      ],
      [
        "American",
        -9.356469610177614
      ],
      [
        "DD",
        -9.357645079712077
      ],
      [
        "aberrant",
        -9.358809275097206
      ],
      [
        "colon",
        -9.359518938785785
      ],
      [
        "process",
        -9.359870311881675
      ],
      [
        "testing",
        -9.360010313852404
      ],
      [
        "Recent",
        -9.36019852505946
      ],
      [
        "FLAG",
        -9.36114794185886
      ],
      [
        "inhibitory",
        -9.362437246585113
      ],
      [
        "His",
        -9.363032173624617
      ],
      [
        "Materials",
        -9.364457231558685
      ],
      [
        "ized",
        -9.366898109461605
      ],
      [
        "TK",
        -9.368381607390965
      ],
      [
        "Inde",
        -9.372978044714891
      ],
      [
        "Val",
        -9.373691094171887
      ],
      [
        "Both",
        -9.375946461860519
      ],
      [
        "PI",
        -9.376950290387983
      ],
      [
        "elevated",
        -9.377253602282636
      ],
      [
        "fragment",
        -9.377979754585283
      ],
      [
        "1996",
        -9.379165831410955
      ],
      [
        "signalling",
        -9.379961896703929
      ],
      [
        "gen",
        -9.380956090505547
      ],
      [
        "subjected",
        -9.381808037414896
      ],
      [
        "sporadic",
        -9.381918334538856
      ],
      [
        "NF",
        -9.381924523907214
      ],
      [
        "correspond",
        -9.382468717423155
      ],
      [
        "reports",
        -9.382527156508923
      ],
      [
        "μM",
        -9.382667747544948
      ],
      [
        "knockdown",
        -9.386422975556986
      ],
      [
        "log",
        -9.386804442628103
      ],
      [
        "CT",
        -9.387073792964586
      ],
      [
        "BC",
        -9.388040662075218
      ],
      [
        "Functional",
        -9.388400268344116
      ],
      [
        "arrest",
        -9.389232709347677
      ],
      [
        "left",
        -9.390487473012447
      ],
      [
        "block",
        -9.390537210683648
      ],
      [
        "ID",
        -9.391109229211168
      ],
      [
        "journal",
        -9.392730562267054
      ],
      [
        "117",
        -9.39350842469996
      ],
      [
        "rather",
        -9.393568974515164
      ],
      [
        "anuscript",
        -9.3939320256807
      ],
      [
        "ubiquitination",
        -9.397467393538308
      ],
      [
        "unable",
        -9.397521974247756
      ],
      [
        "mer",
        -9.397808146690835
      ],
      [
        "increasing",
        -9.398180801365191
      ],
      [
        "shift",
        -9.400203119617016
      ],
      [
        "correlated",
        -9.400237188486665
      ],
      [
        "inactivation",
        -9.403765561865127
      ],
      [
        "receive",
        -9.405013858674822
      ],
      [
        "step",
        -9.405143394646853
      ],
      [
        "labeled",
        -9.406050062105663
      ],
      [
        "presented",
        -9.406656850221093
      ],
      [
        "product",
        -9.408091308489533
      ],
      [
        "colony",
        -9.408153970066992
      ],
      [
        "Discussion",
        -9.40821070508136
      ],
      [
        "screening",
        -9.408699315696206
      ],
      [
        "chromosomal",
        -9.409428651359859
      ],
      [
        "Ex",
        -9.409946731178517
      ],
      [
        "often",
        -9.41011550762926
      ],
      [
        "follow",
        -9.410680912916533
      ],
      [
        "insertions",
        -9.410905842095282
      ],
      [
        "rich",
        -9.411483760848185
      ],
      [
        "detail",
        -9.411933985889194
      ],
      [
        "Supplement",
        -9.414097561253902
      ],
      [
        "Gly",
        -9.415228487067608
      ],
      [
        "therapies",
        -9.415439074465468
      ],
      [
        "washed",
        -9.415523329209943
      ],
      [
        "repeat",
        -9.415800779270413
      ],
      [
        "specifically",
        -9.418142145134752
      ],
      [
        "PAGE",
        -9.41892353223495
      ],
      [
        "RE",
        -9.421380248203922
      ],
      [
        "dvanced",
        -9.422716096327452
      ],
      [
        "blue",
        -9.422719057016039
      ],
      [
        "date",
        -9.423028070332583
      ],
      [
        "identification",
        -9.42394722363981
      ],
      [
        "characteristics",
        -9.424315743717559
      ],
      [
        "post",
        -9.424813631751736
      ],
      [
        "FISH",
        -9.427600241657514
      ],
      [
        "&",
        -9.429067529892079
      ],
      [
        "made",
        -9.429533994550257
      ],
      [
        "probe",
        -9.42986330037335
      ],
      [
        "83",
        -9.430725807788663
      ],
      [
        "half",
        -9.431010877798133
      ],
      [
        "efficacy",
        -9.432750323268696
      ],
      [
        "rearrangements",
        -9.435206647930237
      ],
      [
        "appears",
        -9.43641132269022
      ],
      [
        "Using",
        -9.437876873690373
      ],
      [
        "Sigma",
        -9.440156874735981
      ],
      [
        "cannot",
        -9.440656542612588
      ],
      [
        "|",
        -9.440900528742082
      ],
      [
        "clinically",
        -9.441351620105912
      ],
      [
        "nucleus",
        -9.44191864350592
      ],
      [
        "Lys",
        -9.442875569339204
      ],
      [
        "late",
        -9.443061193783153
      ],
      [
        "First",
        -9.444378692169424
      ],
      [
        "93",
        -9.445242531198849
      ],
      [
        "degree",
        -9.445374955837654
      ],
      [
        "3B",
        -9.446559260003152
      ],
      [
        "recognition",
        -9.446713023882497
      ],
      [
        "histone",
        -9.446876519787503
      ],
      [
        "rapid",
        -9.447390065963202
      ],
      [
        "Tumor",
        -9.451060248119735
      ],
      [
        "SMAD",
        -9.451118151815816
      ],
      [
        "04",
        -9.451449929969959
      ],
      [
        "short",
        -9.452812837884183
      ],
      [
        "Among",
        -9.452875913709851
      ],
      [
        "While",
        -9.453126234404776
      ],
      [
        "ory",
        -9.455866518432812
      ],
      [
        "affecting",
        -9.456781359414977
      ],
      [
        "TCGA",
        -9.457200762389789
      ],
      [
        "MLH1",
        -9.457375295419082
      ],
      [
        "84",
        -9.458380272588151
      ],
      [
        "IV",
        -9.458624428521501
      ],
      [
        "consequences",
        -9.460318988558239
      ],
      [
        "GC",
        -9.46100063432235
      ],
      [
        "necessary",
        -9.462628460545988
      ],
      [
        "SF3B1",
        -9.46334907970812
      ],
      [
        "plates",
        -9.464169258219455
      ],
      [
        "ABL",
        -9.4660074316798
      ],
      [
        "150",
        -9.466479748201426
      ],
      [
        "AP",
        -9.466559684200758
      ],
      [
        "segregation",
        -9.468048105146691
      ],
      [
        "Additional",
        -9.468834957747198
      ],
      [
        "liver",
        -9.469056624970971
      ],
      [
        "discovery",
        -9.471475629337576
      ],
      [
        "hydrogen",
        -9.47266569121934
      ],
      [
        "inter",
        -9.473550685659063
      ],
      [
        "prepared",
        -9.473926188096124
      ],
      [
        "index",
        -9.474199888401674
      ],
      [
        "EC",
        -9.47501954225779
      ],
      [
        "screen",
        -9.477171741037534
      ],
      [
        "ell",
        -9.477463278674536
      ],
      [
        "stably",
        -9.47888726653305
      ],
      [
        "reflect",
        -9.480988241744651
      ],
      [
        "Smad",
        -9.481090572683721
      ],
      [
        "normalize",
        -9.481148343691865
      ],
      [
        "fully",
        -9.48226792734673
      ],
      [
        "exposed",
        -9.48267906955086
      ],
      [
        "options",
        -9.483178028506046
      ],
      [
        "GTPase",
        -9.48632419420797
      ],
      [
        "order",
        -9.486501849177046
      ],
      [
        "everal",
        -9.487840495348019
      ],
      [
        "marrow",
        -9.487868459425709
      ],
      [
        "FL",
        -9.488573941628843
      ],
      [
        "charge",
        -9.48942414694621
      ],
      [
        "NS",
        -9.489506472196503
      ],
      [
        "ki",
        -9.490001764045433
      ],
      [
        "RING",
        -9.490487396627561
      ],
      [
        "carriers",
        -9.492244689668249
      ],
      [
        "beta",
        -9.492677728598022
      ],
      [
        "putative",
        -9.493864278029776
      ],
      [
        "shRNA",
        -9.494013350811695
      ],
      [
        "contained",
        -9.494530287761904
      ],
      [
        "MC",
        -9.495235914733248
      ],
      [
        "BARD",
        -9.495536160662484
      ],
      [
        "S6K",
        -9.495538562994513
      ],
      [
        "proposed",
        -9.496502930142487
      ],
      [
        "investigate",
        -9.498764297152434
      ],
      [
        "contain",
        -9.49913831435529
      ],
      [
        "LOH",
        -9.500986351239673
      ],
      [
        "spectrum",
        -9.501997985998875
      ],
      [
        "L1",
        -9.502704874809666
      ],
      [
        "switch",
        -9.503052977242067
      ],
      [
        "comparabl",
        -9.50305483539347
      ],
      [
        "lapatinib",
        -9.503316991192545
      ],
      [
        "USA",
        -9.504162701332994
      ],
      [
        "subsequent",
        -9.504224810297341
      ],
      [
        "When",
        -9.50464954255878
      ],
      [
        "p16INK4a",
        -9.506790937388852
      ],
      [
        "92",
        -9.507115934021252
      ],
      [
        "81",
        -9.50754465360973
      ],
      [
        "FGFR1",
        -9.508781735370539
      ],
      [
        "PBS",
        -9.509654235524637
      ],
      [
        "1995",
        -9.51002404390664
      ],
      [
        "occurred",
        -9.510321591566477
      ],
      [
        "depend",
        -9.510380644974672
      ],
      [
        "occurs",
        -9.511166892871591
      ],
      [
        "transcript",
        -9.512597084548087
      ],
      [
        "quamous",
        -9.512598400363196
      ],
      [
        "help",
        -9.51276503499132
      ],
      [
        "ization",
        -9.512820278087766
      ],
      [
        "segment",
        -9.512865646774872
      ],
      [
        "lanes",
        -9.513946755795986
      ],
      [
        "heterodimer",
        -9.514673117821587
      ],
      [
        "recombination",
        -9.514732144625091
      ],
      [
        "TET2",
        -9.51578329492399
      ],
      [
        "translocation",
        -9.516944567506346
      ],
      [
        "isoforms",
        -9.517002177097911
      ],
      [
        "Santa",
        -9.517006936901252
      ],
      [
        "genotype",
        -9.517743077748257
      ],
      [
        "benefit",
        -9.517940930820686
      ],
      [
        "current",
        -9.518018642799365
      ],
      [
        "empty",
        -9.519012964199865
      ],
      [
        "noted",
        -9.51907629339266
      ],
      [
        "May",
        -9.519213095377964
      ],
      [
        "proliferative",
        -9.519304918009636
      ],
      [
        "responsible",
        -9.519549291666243
      ],
      [
        "homozygous",
        -9.519817603981732
      ],
      [
        "der",
        -9.520623713049691
      ],
      [
        "4B",
        -9.521178537888161
      ],
      [
        "blotting",
        -9.521652636555448
      ],
      [
        "‘",
        -9.521820112114142
      ],
      [
        "failed",
        -9.5226444268886
      ],
      [
        "AL",
        -9.523502033816076
      ],
      [
        "cytoplasmic",
        -9.524593722585573
      ],
      [
        "temperature",
        -9.526278792230645
      ],
      [
        "minute",
        -9.52628079724292
      ],
      [
        "volume",
        -9.526296215352037
      ],
      [
        "colonies",
        -9.528974817781373
      ],
      [
        "substrates",
        -9.529380629352083
      ],
      [
        "incidence",
        -9.530094584775597
      ],
      [
        "poor",
        -9.53441206176501
      ],
      [
        "09",
        -9.534751322674541
      ],
      [
        "malignancies",
        -9.535776828188983
      ],
      [
        "Signaling",
        -9.536155408192311
      ],
      [
        "agreement",
        -9.536341985223746
      ],
      [
        "alteration",
        -9.53642926749306
      ],
      [
        "extracted",
        -9.536911229276742
      ],
      [
        "understanding",
        -9.537090431130695
      ],
      [
        "agents",
        -9.538453844916
      ],
      [
        "MLL",
        -9.538509697587251
      ],
      [
        "APC",
        -9.539053079865317
      ],
      [
        "82",
        -9.53980407597194
      ],
      [
        "SH2",
        -9.539946528978774
      ],
      [
        "Å",
        -9.540149017118669
      ],
      [
        "close",
        -9.5413083607556
      ],
      [
        "final",
        -9.541713975553483
      ],
      [
        "equal",
        -9.542969452464186
      ],
      [
        "06",
        -9.5438039015505
      ],
      [
        "highlight",
        -9.543866953519059
      ],
      [
        "skin",
        -9.54396577188246
      ],
      [
        "influence",
        -9.544078509404844
      ],
      [
        "foci",
        -9.54428143708816
      ],
      [
        "LS",
        -9.54452347943209
      ],
      [
        "diagnose",
        -9.545641273102728
      ],
      [
        "box",
        -9.545768150182202
      ],
      [
        "Inc",
        -9.546454841380616
      ],
      [
        "likelihood",
        -9.54646771942127
      ],
      [
        "MS",
        -9.546632868100193
      ],
      [
        "ating",
        -9.5483719687611
      ],
      [
        "generate",
        -9.550666698367317
      ],
      [
        "metastasis",
        -9.551245650909882
      ],
      [
        "MD",
        -9.551561911010955
      ],
      [
        "variation",
        -9.551613032233732
      ],
      [
        "AKT1",
        -9.551642366400351
      ],
      [
        "much",
        -9.55184056928094
      ],
      [
        "micro",
        -9.552024593823804
      ],
      [
        "Introduction",
        -9.552989153783688
      ],
      [
        "106",
        -9.554552448625733
      ],
      [
        "intrinsic",
        -9.556160401466462
      ],
      [
        "4C",
        -9.556712242590516
      ],
      [
        "software",
        -9.556774023393041
      ],
      [
        "Full",
        -9.557071365005031
      ],
      [
        "PH",
        -9.56155108216251
      ],
      [
        "OR",
        -9.561818107681637
      ],
      [
        "collected",
        -9.562309432582754
      ],
      [
        "cisplatin",
        -9.56236569586236
      ],
      [
        "near",
        -9.562565369872724
      ],
      [
        "@",
        -9.563702336310012
      ],
      [
        "PF",
        -9.56632075039802
      ],
      [
        "components",
        -9.566712335462217
      ],
      [
        "species",
        -9.567154432314334
      ],
      [
        "Figures",
        -9.568419394797507
      ],
      [
        "NE",
        -9.568874451727181
      ],
      [
        "FGF",
        -9.5689254783844
      ],
      [
        "·",
        -9.569043928958724
      ],
      [
        "endometrial",
        -9.569220482538533
      ],
      [
        "MDS",
        -9.570569965841605
      ],
      [
        "better",
        -9.571304034090623
      ],
      [
        "91",
        -9.571967085242886
      ],
      [
        "make",
        -9.572598939484443
      ],
      [
        "produced",
        -9.573991787115338
      ],
      [
        "ES",
        -9.574840103906526
      ],
      [
        "rescue",
        -9.57498659030571
      ],
      [
        "random",
        -9.576599618561714
      ],
      [
        "Phe",
        -9.576745368276615
      ],
      [
        "table",
        -9.577764616326782
      ],
      [
        "correlate",
        -9.57922640620962
      ],
      [
        "way",
        -9.579250290387765
      ],
      [
        "02",
        -9.579250815919432
      ],
      [
        "bond",
        -9.579508669367378
      ],
      [
        "central",
        -9.57982321916319
      ],
      [
        "MSI",
        -9.580547953593348
      ],
      [
        "serine",
        -9.580976284533074
      ],
      [
        "explain",
        -9.581098931568008
      ],
      [
        "provides",
        -9.581169643204051
      ],
      [
        "RUNX1",
        -9.581329004613162
      ],
      [
        "defect",
        -9.581348169086674
      ],
      [
        "Notabl",
        -9.582330674899843
      ],
      [
        "apparent",
        -9.583534745516745
      ],
      [
        "approved",
        -9.58382673616063
      ],
      [
        "?",
        -9.584669246756704
      ],
      [
        "mTORC",
        -9.584699570008715
      ],
      [
        "JM",
        -9.585074754592052
      ],
      [
        "400",
        -9.587382817031251
      ],
      [
        "Sinc",
        -9.587862742611518
      ],
      [
        "codons",
        -9.588238595266953
      ],
      [
        "fixe",
        -9.590701638963253
      ],
      [
        "certain",
        -9.590714928436519
      ],
      [
        "OS",
        -9.590806674149029
      ],
      [
        "Clinical",
        -9.591186764313482
      ],
      [
        "classes",
        -9.591805107798256
      ],
      [
        "accumulation",
        -9.592487292838676
      ],
      [
        "amount",
        -9.592585078745566
      ],
      [
        "ruz",
        -9.592763105105732
      ],
      [
        "since",
        -9.592845059518364
      ],
      [
        "With",
        -9.592881258370904
      ],
      [
        "105",
        -9.59288707398
      ],
      [
        "Other",
        -9.59350148067621
      ],
      [
        "light",
        -9.594066449151706
      ],
      [
        "entire",
        -9.595030848407946
      ],
      [
        "104",
        -9.595076659585308
      ],
      [
        "prediction",
        -9.596828190039354
      ],
      [
        "Each",
        -9.597465994229982
      ],
      [
        "murine",
        -9.597931579034478
      ],
      [
        "efficient",
        -9.598148317127485
      ],
      [
        "GSK",
        -9.5988522467139
      ],
      [
        "mis",
        -9.599116398318964
      ],
      [
        "identical",
        -9.601116656494229
      ],
      [
        "currently",
        -9.601476792863378
      ],
      [
        "quantitative",
        -9.602586696597303
      ],
      [
        "lipid",
        -9.60333146006159
      ],
      [
        "250",
        -9.603611261176047
      ],
      [
        "homologous",
        -9.604739722089317
      ],
      [
        "~",
        -9.60696316356016
      ],
      [
        "mass",
        -9.60730023974347
      ],
      [
        "acute",
        -9.607402609990537
      ],
      [
        "probability",
        -9.608047066075383
      ],
      [
        "involve",
        -9.608454676386385
      ],
      [
        "CRC",
        -9.60905513128309
      ],
      [
        "exclusive",
        -9.609420981126732
      ],
      [
        "MSH2",
        -9.60952804825355
      ],
      [
        "advantage",
        -9.609601688226931
      ],
      [
        "1994",
        -9.61035791237607
      ],
      [
        "apoptoti",
        -9.610606966430355
      ],
      [
        "ACC",
        -9.610700720322532
      ],
      [
        "nonsense",
        -9.611561651555244
      ],
      [
        "Most",
        -9.613731911147847
      ],
      [
        "chromatin",
        -9.614014757420128
      ],
      [
        "Exon",
        -9.615388420529282
      ],
      [
        "293T",
        -9.616677680502484
      ],
      [
        "reference",
        -9.616813336482798
      ],
      [
        "consist",
        -9.617573487055983
      ],
      [
        "AT",
        -9.618068964330579
      ],
      [
        "transfer",
        -9.618313666836004
      ],
      [
        "whose",
        -9.61903771050007
      ],
      [
        "year",
        -9.6194685326617
      ],
      [
        "recombinant",
        -9.619632750074189
      ],
      [
        "probably",
        -9.619987764595441
      ],
      [
        "ck",
        -9.620698441029806
      ],
      [
        "STAT5",
        -9.621833843359418
      ],
      [
        "useful",
        -9.622652795833387
      ],
      [
        "alignment",
        -9.623018918053159
      ],
      [
        "outcome",
        -9.624535355885868
      ],
      [
        "old",
        -9.624932909245869
      ],
      [
        "PHTS",
        -9.625293640625191
      ],
      [
        "transition",
        -9.625581715630043
      ],
      [
        "polymerase",
        -9.625879052495263
      ],
      [
        "completely",
        -9.626733557959916
      ],
      [
        "approaches",
        -9.62685824236758
      ],
      [
        "Tris",
        -9.628196863324133
      ],
      [
        "relapse",
        -9.628310811375897
      ],
      [
        "aacr",
        -9.628955809932188
      ],
      [
        "implicated",
        -9.629816520703763
      ],
      [
        "introduced",
        -9.630053263306289
      ],
      [
        "sarcoma",
        -9.632735531841293
      ],
      [
        "round",
        -9.633238825474816
      ],
      [
        "espite",
        -9.633879307274313
      ],
      [
        "third",
        -9.633980725479914
      ],
      [
        "below",
        -9.636988047804278
      ],
      [
        "Sequence",
        -9.637079509267858
      ],
      [
        "©",
        -9.637282025980497
      ],
      [
        "experiment",
        -9.638016647396777
      ],
      [
        "solid",
        -9.638359861106057
      ],
      [
        "candidate",
        -9.63939782468017
      ],
      [
        "later",
        -9.640651615673043
      ],
      [
        "intron",
        -9.641615150722691
      ],
      [
        "cap",
        -9.64174120311264
      ],
      [
        "protocol",
        -9.643672574840924
      ],
      [
        "trial",
        -9.64368885055888
      ],
      [
        "appear",
        -9.6442562742104
      ],
      [
        "KB",
        -9.64442430299622
      ],
      [
        "Next",
        -9.646202013888686
      ],
      [
        "except",
        -9.649166501144336
      ],
      [
        "event",
        -9.650182506355458
      ],
      [
        "FA",
        -9.651826380698095
      ],
      [
        "Flag",
        -9.651876259506766
      ],
      [
        "upstream",
        -9.652818201555855
      ],
      [
        "600",
        -9.653048023444256
      ],
      [
        "numbers",
        -9.653465100435774
      ],
      [
        "divers",
        -9.654768383707157
      ],
      [
        "nmol",
        -9.654912801410596
      ],
      [
        "CDK",
        -9.65524273061432
      ],
      [
        "nine",
        -9.655334701413953
      ],
      [
        "DLBCL",
        -9.65648128422507
      ],
      [
        "poly",
        -9.656520058503357
      ],
      [
        "Molecular",
        -9.657401589302992
      ],
      [
        "drugs",
        -9.660442782480962
      ],
      [
        "bars",
        -9.662468176710313
      ],
      [
        "severe",
        -9.663085499070169
      ],
      [
        "ittle",
        -9.663582474504372
      ],
      [
        "detectable",
        -9.66397679460824
      ],
      [
        "transiently",
        -9.665164173793862
      ],
      [
        "UV",
        -9.665445716074368
      ],
      [
        "tuberin",
        -9.665766187938749
      ],
      [
        "truncated",
        -9.666199544161682
      ],
      [
        "compound",
        -9.666337413327133
      ],
      [
        "300",
        -9.668164521343899
      ],
      [
        "background",
        -9.668860434864932
      ],
      [
        "along",
        -9.671237618017923
      ],
      [
        "define",
        -9.672934245726053
      ],
      [
        "occurrence",
        -9.674243882547698
      ],
      [
        "powerpoint",
        -9.675215046819222
      ],
      [
        "androgen",
        -9.675259701176614
      ],
      [
        "plays",
        -9.675555109177308
      ],
      [
        "supplemented",
        -9.675815647084063
      ],
      [
        "08",
        -9.676190908956242
      ],
      [
        "itinib",
        -9.676194971408325
      ],
      [
        "validation",
        -9.677054611841095
      ],
      [
        "truncat",
        -9.678315044219618
      ],
      [
        "effector",
        -9.679105655133169
      ],
      [
        "insight",
        -9.679164959448679
      ],
      [
        "conformational",
        -9.680045932345536
      ],
      [
        "PDGF",
        -9.680237636536756
      ],
      [
        "facilitate",
        -9.680813091026499
      ],
      [
        "2017",
        -9.683083586273693
      ],
      [
        "review",
        -9.684760924637771
      ],
      [
        "variet",
        -9.686038748120552
      ],
      [
        "Institute",
        -9.687399420704192
      ],
      [
        "RhoA",
        -9.68816143863079
      ],
      [
        "None",
        -9.68990310121407
      ],
      [
        "Laborator",
        -9.692179535689721
      ],
      [
        "eede",
        -9.693602824087142
      ],
      [
        "SP",
        -9.695017273553063
      ],
      [
        "represents",
        -9.695078645482985
      ],
      [
        "last",
        -9.695137957575893
      ],
      [
        "adjacent",
        -9.695372890501353
      ],
      [
        "ERK1",
        -9.695620543449872
      ],
      [
        "map",
        -9.696210858261104
      ],
      [
        "RA",
        -9.6979592107303
      ],
      [
        "location",
        -9.698683028562225
      ],
      [
        "];",
        -9.69892004864813
      ],
      [
        "typical",
        -9.700797512405156
      ],
      [
        "exome",
        -9.701599187846272
      ],
      [
        "longe",
        -9.702594398898562
      ],
      [
        "Important",
        -9.703078819896348
      ],
      [
        "chronic",
        -9.703087353845817
      ],
      [
        "pancreatic",
        -9.703247557453782
      ],
      [
        "conducte",
        -9.705123440357399
      ],
      [
        "link",
        -9.706316604222787
      ],
      [
        "BL",
        -9.708367280610474
      ],
      [
        "share",
        -9.709634856140774
      ],
      [
        "Human",
        -9.709877480801572
      ],
      [
        "BaF",
        -9.709979293550584
      ],
      [
        "1α",
        -9.711936021474727
      ],
      [
        "representative",
        -9.713195839743527
      ],
      [
        "COS",
        -9.713235494216804
      ],
      [
        "exposure",
        -9.715402637378721
      ],
      [
        "ERBB3",
        -9.716100929972843
      ],
      [
        "adult",
        -9.71670909796701
      ],
      [
        "LC",
        -9.716904463157094
      ],
      [
        "undergo",
        -9.7172042569958
      ],
      [
        "patterns",
        -9.717209031220776
      ],
      [
        "5A",
        -9.717397021054069
      ],
      [
        "familial",
        -9.718016587376122
      ],
      [
        "underlying",
        -9.719395310926151
      ],
      [
        "chi",
        -9.719600869993785
      ],
      [
        "causality",
        -9.719718847212999
      ],
      [
        "solution",
        -9.720615931007474
      ],
      [
        "viability",
        -9.721071766673104
      ],
      [
        "transduction",
        -9.721953845986233
      ],
      [
        "wise",
        -9.723820239372802
      ],
      [
        "Immuno",
        -9.724497184793472
      ],
      [
        "phenotypes",
        -9.724617212243205
      ],
      [
        "mol",
        -9.726376995088662
      ],
      [
        "3D",
        -9.727890429837876
      ],
      [
        "Previous",
        -9.728328002985958
      ],
      [
        "Ref",
        -9.72852908514906
      ],
      [
        "H3",
        -9.728909527003006
      ],
      [
        "parental",
        -9.731487787188625
      ],
      [
        "transcripts",
        -9.73232476723566
      ],
      [
        "MSH6",
        -9.73358208889428
      ],
      [
        "clonal",
        -9.734291590071006
      ],
      [
        "Src",
        -9.735194287369074
      ],
      [
        "examine",
        -9.735860346481187
      ],
      [
        "lysed",
        -9.736064895472902
      ],
      [
        "reviewed",
        -9.736989318152515
      ],
      [
        "favor",
        -9.73722158160169
      ],
      [
        "partially",
        -9.737288268338968
      ],
      [
        "inositol",
        -9.737509941709106
      ],
      [
        "S5",
        -9.737838897978174
      ],
      [
        "open",
        -9.738358466174635
      ],
      [
        "IN",
        -9.738981612080384
      ],
      [
        "text",
        -9.739970623958952
      ],
      [
        "equivalent",
        -9.740850140395588
      ],
      [
        "PIPKII",
        -9.74085032911983
      ],
      [
        "applied",
        -9.741184926787865
      ],
      [
        "hematopoietic",
        -9.74122927466064
      ],
      [
        "Keap1",
        -9.742525403760279
      ],
      [
        "causing",
        -9.742588298922046
      ],
      [
        "‐",
        -9.742860528053384
      ],
      [
        "appropriate",
        -9.743867239538357
      ],
      [
        "monoclonal",
        -9.743913949324583
      ],
      [
        "abrogate",
        -9.74465115538198
      ],
      [
        "3C",
        -9.744949425996598
      ],
      [
        "μm",
        -9.745281764280477
      ],
      [
        "Three",
        -9.745295731421622
      ],
      [
        "serve",
        -9.745384186785243
      ],
      [
        "PFS",
        -9.74632262112205
      ],
      [
        "instability",
        -9.74825846231296
      ],
      [
        "p85",
        -9.750154693815428
      ],
      [
        "EN",
        -9.751487981544862
      ],
      [
        "done",
        -9.752642380805316
      ],
      [
        "plasmids",
        -9.752694788133187
      ],
      [
        "ATG",
        -9.752744438663282
      ],
      [
        "comprehensive",
        -9.753072474748073
      ],
      [
        "homology",
        -9.753367754512002
      ],
      [
        "EZH2",
        -9.755687776021247
      ],
      [
        "Association",
        -9.75602749736888
      ],
      [
        "kDa",
        -9.757839917076355
      ],
      [
        "ASD",
        -9.758832282011511
      ],
      [
        "localized",
        -9.759026575214616
      ],
      [
        "PMS2",
        -9.7593960068875
      ],
      [
        "RB",
        -9.760513073685233
      ],
      [
        "cation",
        -9.762105892539138
      ],
      [
        "reduce",
        -9.762169499436691
      ],
      [
        "remove",
        -9.762566223905353
      ],
      [
        "ible",
        -9.76375104680275
      ],
      [
        "stress",
        -9.764221129666929
      ],
      [
        "markers",
        -9.76555322695626
      ],
      [
        "her",
        -9.767118021858618
      ],
      [
        "frequencies",
        -9.767649573027493
      ],
      [
        "170",
        -9.769817252920356
      ],
      [
        "difficult",
        -9.770748749720987
      ],
      [
        "intracellular",
        -9.772355181362835
      ],
      [
        "pair",
        -9.772699046965307
      ],
      [
        "regression",
        -9.77320743265674
      ],
      [
        "duplication",
        -9.773511664626731
      ],
      [
        "ure",
        -9.774530163258472
      ],
      [
        "rabbit",
        -9.77489599252565
      ],
      [
        "setting",
        -9.77595248542627
      ],
      [
        "Patient",
        -9.777075307252419
      ],
      [
        "EF",
        -9.779734363324199
      ],
      [
        "polymorphism",
        -9.780283558771059
      ],
      [
        "phosphopeptide",
        -9.780294086842762
      ],
      [
        "screened",
        -9.781687939140479
      ],
      [
        "DDR",
        -9.78178224905874
      ],
      [
        "BAP1",
        -9.783275997576606
      ],
      [
        "−/−",
        -9.783286991896972
      ],
      [
        "agar",
        -9.783634529649412
      ],
      [
        "responsive",
        -9.784591512651229
      ],
      [
        "dasatinib",
        -9.784644065552289
      ],
      [
        "gastric",
        -9.784990058908656
      ],
      [
        "tion",
        -9.785133152690886
      ],
      [
        "interest",
        -9.7852312689166
      ],
      [
        "consensus",
        -9.785339948439526
      ],
      [
        "abnormalities",
        -9.7854018365291
      ],
      [
        "iven",
        -9.78545816654879
      ],
      [
        "overexpressed",
        -9.7867218334225
      ],
      [
        "encoded",
        -9.788639575740879
      ],
      [
        "parallel",
        -9.788978337566839
      ],
      [
        "Res",
        -9.789304791575807
      ],
      [
        "beads",
        -9.789904985172548
      ],
      [
        "component",
        -9.791053958806764
      ],
      [
        "broad",
        -9.791257097440376
      ],
      [
        "produce",
        -9.79194305844377
      ],
      [
        "hydrolysis",
        -9.792045260826445
      ],
      [
        "qu",
        -9.79230353919297
      ],
      [
        "infected",
        -9.792372619576343
      ],
      [
        "characterization",
        -9.792628518918452
      ],
      [
        "onto",
        -9.792907542189289
      ],
      [
        "prognosis",
        -9.79306876972539
      ],
      [
        "density",
        -9.794127524667715
      ],
      [
        "isoform",
        -9.794693970095178
      ],
      [
        "ham",
        -9.795696158443423
      ],
      [
        "MCE",
        -9.795976319895306
      ],
      [
        "predictive",
        -9.79602056345044
      ],
      [
        "measure",
        -9.796026564111699
      ],
      [
        "roles",
        -9.79616119866926
      ],
      [
        "07",
        -9.796557491591283
      ],
      [
        "MO",
        -9.796683807474928
      ],
      [
        "Technologi",
        -9.79730980696863
      ],
      [
        "120",
        -9.798391563703092
      ],
      [
        "respond",
        -9.798844096145729
      ],
      [
        "thought",
        -9.799741983477848
      ],
      [
        "PIP3",
        -9.800222510637525
      ],
      [
        "ERG",
        -9.800276355616905
      ],
      [
        "SNP",
        -9.801612488711848
      ],
      [
        "relationship",
        -9.802280525753766
      ],
      [
        "JAK1",
        -9.804414841468851
      ],
      [
        "extracts",
        -9.804439441161568
      ],
      [
        "GDP",
        -9.80539320984278
      ],
      [
        "local",
        -9.80779251086124
      ],
      [
        "Cys",
        -9.80802490646229
      ],
      [
        "histochemistry",
        -9.808349808776562
      ],
      [
        "fibroblasts",
        -9.810202531606013
      ],
      [
        "Variants",
        -9.811548610310428
      ],
      [
        "subtypes",
        -9.812140883952553
      ],
      [
        "triplicate",
        -9.813735814388984
      ],
      [
        "instructions",
        -9.814456503257109
      ],
      [
        "jected",
        -9.815514339106647
      ],
      [
        "PP2A",
        -9.815916442710119
      ],
      [
        "aberrations",
        -9.816694986867263
      ],
      [
        "oncogenes",
        -9.816908574938493
      ],
      [
        "variable",
        -9.81781906371784
      ],
      [
        "Cul3",
        -9.818146682955593
      ],
      [
        "pan",
        -9.81881166446133
      ],
      [
        "classifi",
        -9.819629978590555
      ],
      [
        "IM",
        -9.819772737981111
      ],
      [
        "bearing",
        -9.819808959345826
      ],
      [
        "Flt3",
        -9.820245868077892
      ],
      [
        "dimer",
        -9.8206535440403
      ],
      [
        "research",
        -9.820879301081728
      ],
      [
        "immunoblotting",
        -9.82091896762393
      ],
      [
        "vectors",
        -9.821032246906174
      ],
      [
        "cer",
        -9.821441245754961
      ],
      [
        "thyroid",
        -9.821657586665363
      ],
      [
        "BTB",
        -9.822269794646175
      ],
      [
        "ETV6",
        -9.822414449024226
      ],
      [
        "initiation",
        -9.822939973586777
      ],
      [
        "retained",
        -9.822968275172968
      ],
      [
        "truncation",
        -9.823267701039285
      ],
      [
        "origin",
        -9.824126907107452
      ],
      [
        "focus",
        -9.824693649438629
      ],
      [
        "Center",
        -9.826002057170555
      ],
      [
        "ice",
        -9.8260304558167
      ],
      [
        "M1775",
        -9.826060488201183
      ],
      [
        "profile",
        -9.82630882306428
      ],
      [
        "NT",
        -9.826990733862042
      ],
      [
        "reads",
        -9.827125815241402
      ],
      [
        "p85α",
        -9.82752406616778
      ],
      [
        "caspase",
        -9.830070116660178
      ],
      [
        "GBM",
        -9.83049490236299
      ],
      [
        "marker",
        -9.830495140082167
      ],
      [
        "pathogenesis",
        -9.831168954503351
      ],
      [
        "μl",
        -9.833146214298317
      ],
      [
        "SK",
        -9.833616702399297
      ],
      [
        "Jun",
        -9.834184516912147
      ],
      [
        "harveste",
        -9.835340092919704
      ],
      [
        "Based",
        -9.83631445812491
      ],
      [
        "suppress",
        -9.836431643311146
      ],
      [
        "methyl",
        -9.83654698842179
      ],
      [
        "NaCl",
        -9.836687940821179
      ],
      [
        "native",
        -9.836950045320684
      ],
      [
        "κB",
        -9.837195821363888
      ],
      [
        "disorders",
        -9.837712808088805
      ],
      [
        "Asn",
        -9.840136758188757
      ],
      [
        "PE",
        -9.840452565228496
      ],
      [
        "TSC",
        -9.840540622163545
      ],
      [
        "actin",
        -9.840874033301695
      ],
      [
        "enhance",
        -9.841402172320684
      ],
      [
        "validated",
        -9.84177861332038
      ],
      [
        "become",
        -9.842248719834277
      ],
      [
        "sunitinib",
        -9.843459179734005
      ],
      [
        "recruitment",
        -9.844624392679107
      ],
      [
        "CL",
        -9.844872135110794
      ],
      [
        "never",
        -9.845539611304158
      ],
      [
        "modified",
        -9.845569054500386
      ],
      [
        "T790M",
        -9.846675754708867
      ],
      [
        "infection",
        -9.847053614311083
      ],
      [
        "occurr",
        -9.84780008639311
      ],
      [
        "article",
        -9.848538411486448
      ],
      [
        "PDGFR",
        -9.849343543091827
      ],
      [
        "enriche",
        -9.850033747220609
      ],
      [
        "ium",
        -9.850242231296285
      ],
      [
        "invasion",
        -9.851329208330426
      ],
      [
        "documented",
        -9.851926625003827
      ],
      [
        "PS",
        -9.85252030874409
      ],
      [
        "PTP",
        -9.853758139414886
      ],
      [
        "tract",
        -9.855478723933263
      ],
      [
        "fragments",
        -9.855976640777785
      ],
      [
        "CS",
        -9.856551277795234
      ],
      [
        "action",
        -9.858199799545485
      ],
      [
        "Cre",
        -9.858362111580998
      ],
      [
        "processes",
        -9.85854361069493
      ],
      [
        "tag",
        -9.858813935034984
      ],
      [
        "matched",
        -9.858885357461038
      ],
      [
        "frameshift",
        -9.860349488171757
      ],
      [
        "MCF10A",
        -9.860542763718957
      ],
      [
        "bladder",
        -9.860935124857193
      ],
      [
        "prognostic",
        -9.862049044059784
      ],
      [
        "tail",
        -9.863901024184123
      ],
      [
        "almost",
        -9.864557945247178
      ],
      [
        "deleted",
        -9.865076741805767
      ],
      [
        "ver",
        -9.865869681704122
      ],
      [
        "start",
        -9.865921803671117
      ],
      [
        "evaluation",
        -9.866302528439451
      ],
      [
        "AC",
        -9.867924164524108
      ],
      [
        "view",
        -9.868067608647078
      ],
      [
        "Genomic",
        -9.869254426574006
      ],
      [
        "relevan",
        -9.869355130581534
      ],
      [
        "threonine",
        -9.87077801467603
      ],
      [
        "motifs",
        -9.872920989469943
      ],
      [
        "exception",
        -9.87339367217705
      ],
      [
        "represented",
        -9.873434343546908
      ],
      [
        "Abl",
        -9.87362032986466
      ],
      [
        "subtype",
        -9.873791460495998
      ],
      [
        "supported",
        -9.873946843221624
      ],
      [
        "cytic",
        -9.875243640103102
      ],
      [
        "suppresse",
        -9.875576939851019
      ],
      [
        "CDK6",
        -9.876243187614051
      ],
      [
        "plus",
        -9.878436165058815
      ],
      [
        "yield",
        -9.878814719848162
      ],
      [
        "flow",
        -9.879053416524401
      ],
      [
        "unclear",
        -9.879253677351944
      ],
      [
        "lineage",
        -9.880154089082847
      ],
      [
        "Rad",
        -9.881760520756966
      ],
      [
        "glioblastoma",
        -9.883436191994186
      ],
      [
        "epiderm",
        -9.883453979769264
      ],
      [
        "Mutant",
        -9.8848322130162
      ],
      [
        "NRF",
        -9.885235628191257
      ],
      [
        "investigation",
        -9.885893758238147
      ],
      [
        "mediate",
        -9.886992481631502
      ],
      [
        "encodes",
        -9.88751297186785
      ],
      [
        "Genetic",
        -9.88839819797632
      ],
      [
        "CTD",
        -9.888473619159345
      ],
      [
        "migration",
        -9.88901084698345
      ],
      [
        "weight",
        -9.889211673666455
      ],
      [
        "improve",
        -9.890041489622337
      ],
      [
        "RAC1",
        -9.890088184766233
      ],
      [
        "exact",
        -9.890371076233755
      ],
      [
        "lobe",
        -9.89046343264961
      ],
      [
        "CO",
        -9.890516517916407
      ],
      [
        "activates",
        -9.89174259085584
      ],
      [
        "rank",
        -9.891904168753115
      ],
      [
        "polymorphisms",
        -9.894493076372848
      ],
      [
        "regard",
        -9.895117160905682
      ],
      [
        "designe",
        -9.89556463540756
      ],
      [
        "benign",
        -9.896512741201068
      ],
      [
        "prevalence",
        -9.897039157384185
      ],
      [
        "question",
        -9.897431629484782
      ],
      [
        "extent",
        -9.897473138778736
      ],
      [
        "male",
        -9.897557256200617
      ],
      [
        "Hospital",
        -9.89821378490547
      ],
      [
        "failure",
        -9.898250804197918
      ],
      [
        "arise",
        -9.899918602830594
      ],
      [
        "head",
        -9.900021042825713
      ],
      [
        "antigen",
        -9.90100843352397
      ],
      [
        "scale",
        -9.901127293459563
      ],
      [
        "invasive",
        -9.901745992492408
      ],
      [
        "CFC",
        -9.901802700071862
      ],
      [
        "exchange",
        -9.902754019469864
      ],
      [
        "promot",
        -9.902987042063181
      ],
      [
        "1993",
        -9.90381316459343
      ],
      [
        "canonical",
        -9.904108846615932
      ],
      [
        "EGFP",
        -9.905007404150325
      ],
      [
        "array",
        -9.905214668208616
      ],
      [
        "purchased",
        -9.905685309901372
      ],
      [
        "primari",
        -9.90568596360681
      ],
      [
        "differ",
        -9.905859012066138
      ],
      [
        "mmol",
        -9.906938982846146
      ],
      [
        "2014",
        -9.906976530337822
      ],
      [
        "turn",
        -9.907569942642724
      ],
      [
        "highest",
        -9.907783210858103
      ],
      [
        "mismatch",
        -9.907788375854942
      ],
      [
        "SRC",
        -9.90814331730671
      ],
      [
        "TERT",
        -9.908908934631665
      ],
      [
        "cysteine",
        -9.910038066111284
      ],
      [
        "MM",
        -9.910233641467414
      ],
      [
        "program",
        -9.910722228348263
      ],
      [
        "LKB1",
        -9.911645339455875
      ],
      [
        "production",
        -9.911855162424981
      ],
      [
        "NR",
        -9.911923379734244
      ],
      [
        "stimulate",
        -9.912266546442034
      ],
      [
        "especially",
        -9.912432379950598
      ],
      [
        "Biotechnolog",
        -9.912811938102568
      ],
      [
        "Applied",
        -9.913213079104636
      ],
      [
        "compounds",
        -9.913655114021008
      ],
      [
        "precipitated",
        -9.914470224536657
      ],
      [
        "nfortunate",
        -9.91480511922042
      ],
      [
        "loops",
        -9.915342949274534
      ],
      [
        "NIH3T",
        -9.915861808572014
      ],
      [
        "regulat",
        -9.916283980270322
      ],
      [
        "mode",
        -9.916786045078009
      ],
      [
        "carry",
        -9.918274616014976
      ],
      [
        "M2",
        -9.919061158022561
      ],
      [
        "water",
        -9.920946851981242
      ],
      [
        "BP",
        -9.921327084948388
      ],
      [
        "Taken",
        -9.921599840507056
      ],
      [
        "paraffin",
        -9.924337418765631
      ],
      [
        "comprise",
        -9.924433047792531
      ],
      [
        "internal",
        -9.925211012900988
      ],
      [
        "mainly",
        -9.925601104478819
      ],
      [
        "animals",
        -9.926355388671265
      ],
      [
        "ster",
        -9.926406664030258
      ],
      [
        "twice",
        -9.927287600567036
      ],
      [
        "sets",
        -9.927373897309991
      ],
      [
        "germ",
        -9.927408082101257
      ],
      [
        "representation",
        -9.92787155706697
      ],
      [
        "EML",
        -9.928219763289349
      ],
      [
        "03",
        -9.92845801994342
      ],
      [
        "ness",
        -9.92910264953738
      ],
      [
        "capacity",
        -9.9292487356896
      ],
      [
        "Total",
        -9.929355114058943
      ],
      [
        "/+",
        -9.929554858051489
      ],
      [
        "BCC",
        -9.93068431010326
      ],
      [
        "immunoblot",
        -9.9317748323217
      ],
      [
        "IR",
        -9.932133208223746
      ],
      [
        "HeLa",
        -9.932512904628313
      ],
      [
        "strategy",
        -9.93289243897404
      ],
      [
        "Qiagen",
        -9.933704568325858
      ],
      [
        "contribution",
        -9.93440536847882
      ],
      [
        "subunits",
        -9.934702546590014
      ],
      [
        "liste",
        -9.935328789281881
      ],
      [
        "aggressive",
        -9.935735647579872
      ],
      [
        "tinib",
        -9.935806724591849
      ],
      [
        "conjugate",
        -9.935887137455506
      ],
      [
        "peripheral",
        -9.937363980932435
      ],
      [
        "translation",
        -9.93794828774839
      ],
      [
        "network",
        -9.938186883510323
      ],
      [
        "media",
        -9.938633179927855
      ],
      [
        "kind",
        -9.938822828826861
      ],
      [
        "0001",
        -9.939095409514204
      ],
      [
        "rapamycin",
        -9.939403149252492
      ],
      [
        "nonymous",
        -9.939591543933222
      ],
      [
        "CML",
        -9.94059619917936
      ],
      [
        "resolution",
        -9.9406553765267
      ],
      [
        "NP",
        -9.941149028177124
      ],
      [
        "latter",
        -9.942603736308218
      ],
      [
        "others",
        -9.944387379321416
      ],
      [
        "HRAS",
        -9.944692410741315
      ],
      [
        "linker",
        -9.94483733680379
      ],
      [
        "assayed",
        -9.945618797757598
      ],
      [
        "hybridization",
        -9.946423214837282
      ],
      [
        "disruption",
        -9.947802039446422
      ],
      [
        "\"",
        -9.949661737670063
      ],
      [
        "efficiency",
        -9.949685817970476
      ],
      [
        "silico",
        -9.95131717935022
      ],
      [
        "Cbl",
        -9.951377230685406
      ],
      [
        "®",
        -9.951726147952769
      ],
      [
        "romega",
        -9.954179015562119
      ],
      [
        "Structural",
        -9.95420907905016
      ],
      [
        "adenocarcinomas",
        -9.954456949662568
      ],
      [
        "hav",
        -9.954890329229851
      ],
      [
        "rearrangement",
        -9.956103642385239
      ],
      [
        "metastases",
        -9.956698190485227
      ],
      [
        "elements",
        -9.956761815779991
      ],
      [
        "cre",
        -9.95733216036777
      ],
      [
        "ide",
        -9.95749536709394
      ],
      [
        "obtain",
        -9.957818334984616
      ],
      [
        "already",
        -9.95795123466912
      ],
      [
        "susceptibility",
        -9.958777193240609
      ],
      [
        "Genome",
        -9.958791795854609
      ],
      [
        "knowledge",
        -9.959624026764278
      ],
      [
        "outside",
        -9.959682853442015
      ],
      [
        "uncertain",
        -9.96004899985478
      ],
      [
        "correct",
        -9.960326752341947
      ],
      [
        "allowed",
        -9.960843895712191
      ],
      [
        "CRAF",
        -9.96118800874363
      ],
      [
        "p300",
        -9.964419229939097
      ],
      [
        "sections",
        -9.964977975900009
      ],
      [
        "taken",
        -9.965751398441729
      ],
      [
        "ker",
        -9.966128506600723
      ],
      [
        "enzymatic",
        -9.966297596237402
      ],
      [
        "portion",
        -9.968274645691547
      ],
      [
        "fetal",
        -9.968868087318981
      ],
      [
        "ERα",
        -9.96971631606296
      ],
      [
        "KEAP1",
        -9.970079182872915
      ],
      [
        "Trans",
        -9.97010759256208
      ],
      [
        "synthesis",
        -9.971764412879448
      ],
      [
        "aggregation",
        -9.97198363419443
      ],
      [
        "deviation",
        -9.97218618853465
      ],
      [
        "analysed",
        -9.972463631231637
      ],
      [
        "developmental",
        -9.972655976480926
      ],
      [
        "DMEM",
        -9.973488487098315
      ],
      [
        "possibl",
        -9.9742653313852
      ],
      [
        "EV",
        -9.974286585898097
      ],
      [
        "respect",
        -9.975830435789682
      ],
      [
        "MEFs",
        -9.976428842087
      ],
      [
        "peptides",
        -9.977072427304357
      ],
      [
        "transmembrane",
        -9.977206350041183
      ],
      [
        "run",
        -9.977436935396502
      ],
      [
        "CDKN2A",
        -9.97767304393475
      ],
      [
        "amounts",
        -9.977899343176974
      ],
      [
        "NM",
        -9.978378488191169
      ],
      [
        "focal",
        -9.981002576168532
      ],
      [
        "elical",
        -9.981727203889948
      ],
      [
        "western",
        -9.983641922956203
      ],
      [
        "mono",
        -9.98447102589438
      ],
      [
        "Roche",
        -9.984496618806926
      ],
      [
        "depletion",
        -9.98466756246125
      ],
      [
        "IDH2",
        -9.98510983388361
      ],
      [
        "lost",
        -9.985147839205975
      ],
      [
        "center",
        -9.985577803267855
      ],
      [
        "subsequently",
        -9.985590045243658
      ],
      [
        "visualize",
        -9.987348722355136
      ],
      [
        "intact",
        -9.987563808504424
      ],
      [
        "interacting",
        -9.988131109906625
      ],
      [
        "Biosystems",
        -9.988854547508241
      ],
      [
        "intra",
        -9.990047628987956
      ],
      [
        "proto",
        -9.990162266076695
      ],
      [
        "stabilize",
        -9.991726344349386
      ],
      [
        "profiles",
        -9.991900998333794
      ],
      [
        "disorder",
        -9.992748330008485
      ],
      [
        "mixe",
        -9.993804248672879
      ],
      [
        "FBS",
        -9.996356890075742
      ],
      [
        "lympho",
        -9.99689808866389
      ],
      [
        "populations",
        -9.99780868520724
      ],
      [
        "contacts",
        -9.998364993749515
      ],
      [
        "embedded",
        -9.998658415520715
      ],
      [
        "scores",
        -9.998682625486499
      ],
      [
        "123",
        -9.998727726272142
      ],
      [
        "dilution",
        -9.999122367672893
      ],
      [
        "BCL",
        -9.999501416343172
      ],
      [
        "DFG",
        -9.999633142570037
      ],
      [
        "2HG",
        -10.00143403331662
      ],
      [
        "intensity",
        -10.002160573677914
      ],
      [
        "G12",
        -10.002554729888999
      ],
      [
        "140",
        -10.002607949257225
      ],
      [
        "MB",
        -10.002634171810662
      ],
      [
        "counted",
        -10.002657491283657
      ],
      [
        "effectors",
        -10.00271939161576
      ],
      [
        "fig",
        -10.003450731556775
      ],
      [
        "Sequencing",
        -10.003904209000407
      ],
      [
        "agarose",
        -10.003921450542355
      ],
      [
        "incubation",
        -10.004772102564843
      ],
      [
        "classical",
        -10.005450400557674
      ],
      [
        "once",
        -10.005574283677554
      ],
      [
        "transgenic",
        -10.005716937098413
      ],
      [
        "AML1",
        -10.005818996435774
      ],
      [
        "terms",
        -10.00619974410099
      ],
      [
        "mmary",
        -10.006210793711091
      ],
      [
        "GR",
        -10.007237401061042
      ],
      [
        "analyze",
        -10.00755503740039
      ],
      [
        "Wild",
        -10.00870538138922
      ],
      [
        "TT",
        -10.009395409500009
      ],
      [
        "renal",
        -10.009395866187369
      ],
      [
        "every",
        -10.010115018759656
      ],
      [
        "Up",
        -10.010565082943838
      ],
      [
        "p110",
        -10.010579922775822
      ],
      [
        "weak",
        -10.010663222481876
      ],
      [
        "plated",
        -10.01101716974119
      ],
      [
        "main",
        -10.011807014316558
      ],
      [
        "address",
        -10.013230962993628
      ],
      [
        "measurement",
        -10.014112814222473
      ],
      [
        "CAT",
        -10.014513812897537
      ],
      [
        "smokers",
        -10.014913233258767
      ],
      [
        "UC",
        -10.01509352966058
      ],
      [
        "160",
        -10.015363961389987
      ],
      [
        "Where",
        -10.016385544306114
      ],
      [
        "Sanger",
        -10.016642825382682
      ],
      [
        "Q61",
        -10.016740420588667
      ],
      [
        "Never",
        -10.016995227580134
      ],
      [
        "MH2",
        -10.017122598787779
      ],
      [
        "literature",
        -10.017491571273558
      ],
      [
        "future",
        -10.017930426145986
      ],
      [
        "robust",
        -10.017933074460625
      ],
      [
        "ome",
        -10.018024458327869
      ],
      [
        "estrogen",
        -10.018374870908437
      ],
      [
        "Online",
        -10.018475413960115
      ],
      [
        "Somatic",
        -10.01881666867487
      ],
      [
        "phosphatidyl",
        -10.019258744238948
      ],
      [
        "back",
        -10.019301785863417
      ],
      [
        "SMAD4",
        -10.019724674244692
      ],
      [
        "establish",
        -10.020445931943886
      ],
      [
        "differentiated",
        -10.021485923866578
      ],
      [
        "source",
        -10.02456011961653
      ],
      [
        "PDB",
        -10.024592444400938
      ],
      [
        "AG",
        -10.024788186645438
      ],
      [
        "Life",
        -10.025034402999646
      ],
      [
        "G12V",
        -10.025055022999812
      ],
      [
        "homo",
        -10.025193028625178
      ],
      [
        "cleavage",
        -10.026358840524697
      ],
      [
        "conservation",
        -10.026804285389122
      ],
      [
        "V5",
        -10.028251551048681
      ],
      [
        "cul",
        -10.028472689099413
      ],
      [
        "GS",
        -10.028530110170276
      ],
      [
        "onset",
        -10.0295189830618
      ],
      [
        "PIK3R1",
        -10.029663461686962
      ],
      [
        "code",
        -10.029820731127952
      ],
      [
        "virus",
        -10.030422790671537
      ],
      [
        "coli",
        -10.030472771937735
      ],
      [
        "FIG",
        -10.031448544054438
      ],
      [
        "ATM",
        -10.031456930926156
      ],
      [
        "108",
        -10.031725229911824
      ],
      [
        "phenotypic",
        -10.032171643742934
      ],
      [
        "untreated",
        -10.032727920508174
      ],
      [
        "forward",
        -10.033345677946617
      ],
      [
        "proteo",
        -10.03353046913304
      ],
      [
        "physiological",
        -10.0355080914034
      ],
      [
        "ponatinib",
        -10.036443155250367
      ],
      [
        "page",
        -10.036813983106995
      ],
      [
        "overnight",
        -10.037107657908695
      ],
      [
        "R26",
        -10.037397638415992
      ],
      [
        "adhesion",
        -10.038005115660518
      ],
      [
        "minor",
        -10.038223771491799
      ],
      [
        "Assay",
        -10.038355376406512
      ],
      [
        "lip",
        -10.039133017459335
      ],
      [
        "separated",
        -10.03915602571778
      ],
      [
        "conclusion",
        -10.03973717130457
      ],
      [
        "life",
        -10.039832153790723
      ],
      [
        "bands",
        -10.041345654549332
      ],
      [
        "GE",
        -10.042989621090728
      ],
      [
        "alpha",
        -10.04390227724664
      ],
      [
        "par",
        -10.044229906076874
      ],
      [
        "BAC",
        -10.045186634409188
      ],
      [
        "none",
        -10.04547382748594
      ],
      [
        "retain",
        -10.045690318923533
      ],
      [
        "daily",
        -10.045866064595913
      ],
      [
        "juxtamembran",
        -10.046602447191281
      ],
      [
        "epitope",
        -10.046602464232606
      ],
      [
        "ric",
        -10.04665992872224
      ],
      [
        "minimal",
        -10.04705833828509
      ],
      [
        "ND",
        -10.049602530382508
      ],
      [
        "bottom",
        -10.049788740235376
      ],
      [
        "Some",
        -10.051598652242886
      ],
      [
        "rat",
        -10.051758801205745
      ],
      [
        "G12D",
        -10.051767580860847
      ],
      [
        "GM",
        -10.051880977981124
      ],
      [
        "search",
        -10.052139461822692
      ],
      [
        "HEK293",
        -10.052652350281564
      ],
      [
        "ducible",
        -10.052737854424368
      ],
      [
        "SI",
        -10.05274190796798
      ],
      [
        "spot",
        -10.052987133460686
      ],
      [
        "restore",
        -10.053446371753068
      ],
      [
        "kg",
        -10.055241408071103
      ],
      [
        "GHT",
        -10.056022238556592
      ],
      [
        "assembly",
        -10.056418216039365
      ],
      [
        "mark",
        -10.056463034819611
      ],
      [
        "potency",
        -10.058947744360719
      ],
      [
        "Type",
        -10.059005009636646
      ],
      [
        "causes",
        -10.060658356088808
      ],
      [
        "System",
        -10.060812395167732
      ],
      [
        "EA",
        -10.061437602040261
      ],
      [
        "293",
        -10.06151858841349
      ],
      [
        "find",
        -10.061820770877164
      ],
      [
        "hormone",
        -10.062174352637566
      ],
      [
        "R1699",
        -10.062178448397258
      ],
      [
        "means",
        -10.062649526000019
      ],
      [
        "Department",
        -10.06309768424978
      ],
      [
        "exogenous",
        -10.064022102402525
      ],
      [
        "feature",
        -10.064595517798132
      ],
      [
        "cent",
        -10.064800738227543
      ],
      [
        "release",
        -10.06587352294967
      ],
      [
        "Not",
        -10.066116531700406
      ],
      [
        "Del",
        -10.067365248609
      ],
      [
        "EL",
        -10.067799465048395
      ],
      [
        "Supp",
        -10.069082571582447
      ],
      [
        "107",
        -10.069234397837278
      ],
      [
        "van",
        -10.070781604780947
      ],
      [
        "predictions",
        -10.071047325842994
      ],
      [
        "progressive",
        -10.071216539608109
      ],
      [
        "online",
        -10.071802044546239
      ],
      [
        "threshold",
        -10.071914521077051
      ],
      [
        "partner",
        -10.072206348768624
      ],
      [
        "kb",
        -10.072830062376852
      ],
      [
        "points",
        -10.0728579204861
      ],
      [
        "froze",
        -10.073313693008638
      ],
      [
        "arginine",
        -10.073313695263437
      ],
      [
        "atinib",
        -10.07462722615249
      ],
      [
        "RTK",
        -10.075686283191278
      ],
      [
        "understand",
        -10.075798649634892
      ],
      [
        "mixture",
        -10.076118641515086
      ],
      [
        "excluded",
        -10.076434938949864
      ],
      [
        "BM",
        -10.076522231623205
      ],
      [
        "polyclonal",
        -10.076676869831598
      ],
      [
        "nother",
        -10.078137449363847
      ],
      [
        "paired",
        -10.078188492470208
      ],
      [
        "template",
        -10.07894113287097
      ],
      [
        "personal",
        -10.07928037388221
      ],
      [
        "window",
        -10.08175102252763
      ],
      [
        "novo",
        -10.083217845209571
      ],
      [
        "digestion",
        -10.08371586898636
      ],
      [
        "compare",
        -10.084196475676322
      ],
      [
        "bonds",
        -10.084288082525175
      ],
      [
        "female",
        -10.084735415655185
      ],
      [
        "fused",
        -10.085736387621441
      ],
      [
        "BD",
        -10.085925050605226
      ],
      [
        "Such",
        -10.085930970521314
      ],
      [
        "mut",
        -10.087107641641502
      ],
      [
        "women",
        -10.087481270713585
      ],
      [
        "summarize",
        -10.087889209751431
      ],
      [
        "Sch",
        -10.087962430847718
      ],
      [
        "Group",
        -10.088836843421063
      ],
      [
        "PTPR",
        -10.089048231277204
      ],
      [
        "heterogeneity",
        -10.0907343869598
      ],
      [
        "∗",
        -10.092159940030935
      ],
      [
        "material",
        -10.092159945933581
      ],
      [
        "inflammat",
        -10.09321848486903
      ],
      [
        "549",
        -10.093924458809763
      ],
      [
        "insulin",
        -10.09454450925466
      ],
      [
        "discovered",
        -10.095532852558412
      ],
      [
        "FANC",
        -10.096014805860838
      ],
      [
        "Mlh1",
        -10.096451282273968
      ],
      [
        "haps",
        -10.096986616283615
      ],
      [
        "CDK12",
        -10.097826575736452
      ],
      [
        "ACT",
        -10.098060039335715
      ],
      [
        "moderate",
        -10.098623489733516
      ],
      [
        "High",
        -10.099861519643706
      ],
      [
        "interesting",
        -10.101102334617776
      ],
      [
        "cascade",
        -10.101237881481904
      ],
      [
        "abnormal",
        -10.101894420939832
      ],
      [
        "cytoplasm",
        -10.1026837895726
      ],
      [
        "pcDNA3",
        -10.103235715384757
      ],
      [
        "arm",
        -10.104990930161781
      ],
      [
        "RCC",
        -10.104992094648622
      ],
      [
        "explanation",
        -10.105084982907234
      ],
      [
        "μ",
        -10.10508669294926
      ],
      [
        "Imatinib",
        -10.105089833040118
      ],
      [
        "children",
        -10.106050376331197
      ],
      [
        "Gln",
        -10.106279744459318
      ],
      [
        "mappe",
        -10.106922459826219
      ],
      [
        "replace",
        -10.109188426388018
      ],
      [
        "D842V",
        -10.10943504737422
      ],
      [
        "S7",
        -10.111088421290527
      ],
      [
        "stromal",
        -10.112077891073543
      ],
      [
        "med",
        -10.11231330041247
      ],
      [
        "hamarti",
        -10.112342217582995
      ],
      [
        "versely",
        -10.112821118560376
      ],
      [
        "enzymes",
        -10.114059762329305
      ],
      [
        "CAA",
        -10.11414617354993
      ],
      [
        "design",
        -10.114652466830206
      ],
      [
        "According",
        -10.114767925592318
      ],
      [
        "­",
        -10.116228490086627
      ],
      [
        "Four",
        -10.1166919249276
      ],
      [
        "what",
        -10.116759463918777
      ],
      [
        "From",
        -10.116843614790424
      ],
      [
        "illustrate",
        -10.117214283573462
      ],
      [
        "diagnostic",
        -10.118179234387677
      ],
      [
        "chemical",
        -10.118579577005328
      ],
      [
        "RESULTS",
        -10.118667515640343
      ],
      [
        "implications",
        -10.118694285028454
      ],
      [
        "probes",
        -10.119491198645296
      ],
      [
        "SH",
        -10.119557645923528
      ],
      [
        "unpublished",
        -10.11968241775973
      ],
      [
        "vari",
        -10.119812241503162
      ],
      [
        "term",
        -10.120605074037298
      ],
      [
        "substantial",
        -10.121181997762132
      ],
      [
        "ETS",
        -10.121522567060051
      ],
      [
        "membranes",
        -10.122012205784575
      ],
      [
        "great",
        -10.123891836903073
      ],
      [
        "extensive",
        -10.12413444106618
      ],
      [
        "appeared",
        -10.12434696897085
      ],
      [
        "regulator",
        -10.124767403214117
      ],
      [
        "trigger",
        -10.125036964879836
      ],
      [
        "retroviral",
        -10.125528606602728
      ],
      [
        "unclassified",
        -10.12558813606638
      ],
      [
        "Mar",
        -10.125708302211091
      ],
      [
        "assume",
        -10.126027296200771
      ],
      [
        "original",
        -10.126333550579812
      ],
      [
        "ligands",
        -10.12643823990884
      ],
      [
        "4D",
        -10.126439876689135
      ],
      [
        "LR",
        -10.127767150102262
      ],
      [
        "plate",
        -10.128210930583114
      ],
      [
        "assigned",
        -10.12852675943193
      ],
      [
        "translocations",
        -10.128542983392139
      ],
      [
        "mid",
        -10.128840657116744
      ],
      [
        "Statistical",
        -10.128976885165276
      ],
      [
        "constructed",
        -10.129796386243665
      ],
      [
        "EDTA",
        -10.129965945187294
      ],
      [
        "xenograft",
        -10.131284531342834
      ],
      [
        "predominantly",
        -10.131572799953325
      ],
      [
        "Activation",
        -10.131942046598532
      ],
      [
        "IHC",
        -10.132611920914371
      ],
      [
        "pairs",
        -10.132682324477916
      ],
      [
        "called",
        -10.133486305571534
      ],
      [
        "galactos",
        -10.134916041146228
      ],
      [
        "Japan",
        -10.134920211206785
      ],
      [
        "effectively",
        -10.135013164963388
      ],
      [
        "biopsy",
        -10.135412554164747
      ],
      [
        "ogether",
        -10.13606509742679
      ],
      [
        "pool",
        -10.137215354361292
      ],
      [
        "Germany",
        -10.13747964144436
      ],
      [
        "DSB",
        -10.138537822503125
      ],
      [
        "resolve",
        -10.139568290856442
      ],
      [
        "dimensional",
        -10.140396449743971
      ],
      [
        "Despite",
        -10.141975893871031
      ],
      [
        "sorafenib",
        -10.142352594424496
      ],
      [
        "reactions",
        -10.142398947911227
      ],
      [
        "AAA",
        -10.142855120172852
      ],
      [
        "cytokine",
        -10.143147703514824
      ],
      [
        "allosteric",
        -10.143404168959957
      ],
      [
        "Als",
        -10.143939104793551
      ],
      [
        "ERCC2",
        -10.144403693547812
      ],
      [
        "until",
        -10.145395373923424
      ],
      [
        "consequence",
        -10.145877241143685
      ],
      [
        "MAP",
        -10.14600285012179
      ],
      [
        "node",
        -10.146514697630405
      ],
      [
        "app",
        -10.146517219989766
      ],
      [
        "Non",
        -10.147527121549771
      ],
      [
        "soft",
        -10.1484370629028
      ],
      [
        "profiling",
        -10.148652026991593
      ],
      [
        "Bcl",
        -10.149030648568374
      ],
      [
        "DISCUSSION",
        -10.150928377193445
      ],
      [
        "slide",
        -10.151342419428609
      ],
      [
        "dual",
        -10.152231101280673
      ],
      [
        "nuclei",
        -10.1522405576936
      ],
      [
        "unlikely",
        -10.152256438181551
      ],
      [
        "179",
        -10.152628796547566
      ],
      [
        "XL",
        -10.15398508050092
      ],
      [
        "strain",
        -10.154698472922234
      ],
      [
        "uk",
        -10.155021265749024
      ],
      [
        "doses",
        -10.155147927044286
      ],
      [
        "ight",
        -10.155343660225622
      ],
      [
        "+/",
        -10.156037313145776
      ],
      [
        "32D",
        -10.156501905503823
      ],
      [
        "SU",
        -10.156523472614861
      ],
      [
        "NK",
        -10.15687900870983
      ],
      [
        "PARP",
        -10.157138419575372
      ],
      [
        "subclone",
        -10.15823918687992
      ],
      [
        "109",
        -10.159530221642983
      ],
      [
        "Breast",
        -10.159540883004308
      ],
      [
        "TCT",
        -10.159684372508995
      ],
      [
        "San",
        -10.159844140524742
      ],
      [
        "TCF",
        -10.160086742295405
      ],
      [
        "immune",
        -10.16018286967363
      ],
      [
        "T389",
        -10.16063300836614
      ],
      [
        "ummary",
        -10.160731279691987
      ],
      [
        "ger",
        -10.161066103464675
      ],
      [
        "separate",
        -10.161525224423318
      ],
      [
        "HCl",
        -10.161602600594232
      ],
      [
        "though",
        -10.161984530075685
      ],
      [
        "note",
        -10.162073220948807
      ],
      [
        "chose",
        -10.162512312440644
      ],
      [
        "consent",
        -10.164130091286776
      ],
      [
        "agent",
        -10.164213908032318
      ],
      [
        "DR",
        -10.16472316167837
      ],
      [
        "member",
        -10.164808706349334
      ],
      [
        "manuscript",
        -10.165625951822413
      ],
      [
        "experience",
        -10.166176449918932
      ],
      [
        "p27",
        -10.16672203462544
      ],
      [
        "characteristic",
        -10.166912094907133
      ],
      [
        "MYCN",
        -10.167007944397845
      ],
      [
        "bovi",
        -10.167522462132439
      ],
      [
        "epigenetic",
        -10.168300841653679
      ],
      [
        "neoplasms",
        -10.168506484963256
      ],
      [
        "raise",
        -10.168517033125653
      ],
      [
        "BACH1",
        -10.168757431224643
      ],
      [
        "recognized",
        -10.168795813714027
      ],
      [
        "Treatment",
        -10.170282180189169
      ],
      [
        "ectopic",
        -10.170282183573352
      ],
      [
        "Medical",
        -10.170282298174612
      ],
      [
        "radiation",
        -10.170409439658764
      ],
      [
        "stop",
        -10.171064099783155
      ],
      [
        "knock",
        -10.17112926356364
      ],
      [
        "lic",
        -10.171669877001474
      ],
      [
        "Science",
        -10.172341619678061
      ],
      [
        "Wnt",
        -10.17283509640346
      ],
      [
        "≥",
        -10.173888568976755
      ],
      [
        "best",
        -10.174738863929905
      ],
      [
        "ubiquitylation",
        -10.174921360163605
      ],
      [
        "mutual",
        -10.17605203182958
      ],
      [
        "penetrance",
        -10.177508186487188
      ],
      [
        "content",
        -10.179780142793813
      ],
      [
        "slightly",
        -10.180296640841306
      ],
      [
        "quantified",
        -10.180630967782896
      ],
      [
        "SE",
        -10.180923627641167
      ],
      [
        "RPMI",
        -10.181665284448437
      ],
      [
        "preclinical",
        -10.182103652657288
      ],
      [
        "conclude",
        -10.182180920619313
      ],
      [
        "FBXW7",
        -10.18270148227636
      ],
      [
        "situ",
        -10.183166861088765
      ],
      [
        "SCF",
        -10.183242969008726
      ],
      [
        "SCC",
        -10.183318833865481
      ],
      [
        "toxicity",
        -10.18353080125322
      ],
      [
        "Samples",
        -10.18371646058832
      ],
      [
        "error",
        -10.183758386721745
      ],
      [
        "starved",
        -10.183800200462326
      ],
      [
        "Fisher",
        -10.18426541841915
      ],
      [
        "homolog",
        -10.185110865062168
      ],
      [
        "involvement",
        -10.185517784162935
      ],
      [
        "Note",
        -10.185536055855401
      ],
      [
        "H1047R",
        -10.18590075714403
      ],
      [
        "strategies",
        -10.187398778311167
      ],
      [
        "preferential",
        -10.187922063073596
      ],
      [
        "L861",
        -10.187976661480047
      ],
      [
        "loading",
        -10.188097469166827
      ],
      [
        "modulate",
        -10.188445624725695
      ],
      [
        "MEK2",
        -10.189142635204465
      ],
      [
        "plastic",
        -10.189285041170551
      ],
      [
        "upper",
        -10.190091345550329
      ],
      [
        "focuse",
        -10.190872250368965
      ],
      [
        "legend",
        -10.191068732938366
      ],
      [
        "Bind",
        -10.191073877566144
      ],
      [
        "week",
        -10.192474606008549
      ],
      [
        "predisposition",
        -10.19264400636219
      ],
      [
        "monomer",
        -10.19269054478734
      ],
      [
        "face",
        -10.194195454681577
      ],
      [
        "modeling",
        -10.194464984549343
      ],
      [
        "allelic",
        -10.19469450593575
      ],
      [
        "V617F",
        -10.194749889581754
      ],
      [
        "went",
        -10.194944139990536
      ],
      [
        "Only",
        -10.19559804250715
      ],
      [
        "µ",
        -10.196043748579621
      ],
      [
        "tandem",
        -10.196196896293298
      ],
      [
        "Kinase",
        -10.196567005253282
      ],
      [
        "IDH",
        -10.1966107273688
      ],
      [
        "DN",
        -10.197230700280171
      ],
      [
        "fluorescent",
        -10.197613872707816
      ],
      [
        "yellow",
        -10.197926701193815
      ],
      [
        "earlier",
        -10.19818924455923
      ],
      [
        "Section",
        -10.19844600805525
      ],
      [
        "insert",
        -10.198973458531222
      ],
      [
        "EWS",
        -10.199566756860275
      ],
      [
        "histochemical",
        -10.200033862409914
      ],
      [
        "tumorigenic",
        -10.20233326512307
      ],
      [
        "refractor",
        -10.202686396199137
      ],
      [
        "InS",
        -10.202994780056123
      ],
      [
        "FIGURE",
        -10.203217773394922
      ],
      [
        "characterize",
        -10.204385647968753
      ],
      [
        "HSC",
        -10.204610978848342
      ],
      [
        "kidney",
        -10.204813472296767
      ],
      [
        "MAP2K1",
        -10.205132900156473
      ],
      [
        "row",
        -10.205505775467504
      ],
      [
        "hereditary",
        -10.205990584025763
      ],
      [
        "pathogenicit",
        -10.206223312451133
      ],
      [
        "GA",
        -10.206416628468714
      ],
      [
        "inde",
        -10.206564751423155
      ],
      [
        "DS",
        -10.206612304877462
      ],
      [
        "MTOR",
        -10.20739065966413
      ],
      [
        "numer",
        -10.208225691979337
      ],
      [
        "CreERT2",
        -10.208546809845101
      ],
      [
        "enrichment",
        -10.208546840841285
      ],
      [
        "IARC",
        -10.208621178929697
      ],
      [
        "coupled",
        -10.209356502849147
      ],
      [
        "myelo",
        -10.209635845158225
      ],
      [
        "lysine",
        -10.209838611545877
      ],
      [
        "SIFT",
        -10.210158972935847
      ],
      [
        "systems",
        -10.212021468006954
      ],
      [
        "seq",
        -10.212325654055146
      ],
      [
        "Cdk1",
        -10.212645083621892
      ],
      [
        "verified",
        -10.212830873740884
      ],
      [
        "ber",
        -10.213049549919607
      ],
      [
        "helices",
        -10.213367454214064
      ],
      [
        "genesis",
        -10.213827840578556
      ],
      [
        "burie",
        -10.214265255149787
      ],
      [
        "men",
        -10.214308482862801
      ],
      [
        "CAG",
        -10.2145450428626
      ],
      [
        "classify",
        -10.214979632357917
      ],
      [
        "AAC",
        -10.215341852249011
      ],
      [
        "absent",
        -10.215517519197853
      ],
      [
        "phosphoinositide",
        -10.216055552636123
      ],
      [
        "KrasG12D",
        -10.216632104440958
      ],
      [
        "proline",
        -10.216857242126672
      ],
      [
        "extreme",
        -10.217671934584544
      ],
      [
        "p16INK4",
        -10.218184225599352
      ],
      [
        "dataset",
        -10.218287644629338
      ],
      [
        "demonstrating",
        -10.219831177309839
      ],
      [
        "hybrid",
        -10.219847293342184
      ],
      [
        "P3",
        -10.220474894171673
      ],
      [
        "transient",
        -10.220852366953416
      ],
      [
        "protease",
        -10.220912561201594
      ],
      [
        "microarray",
        -10.221846248258458
      ],
      [
        "HGF",
        -10.221946520401326
      ],
      [
        "Notch1",
        -10.22196778161722
      ],
      [
        "course",
        -10.222820017815277
      ],
      [
        "good",
        -10.223715280312858
      ],
      [
        "crucial",
        -10.224163717557133
      ],
      [
        "spread",
        -10.22560969985637
      ],
      [
        "JAK",
        -10.225628196817485
      ],
      [
        "period",
        -10.226364230981927
      ],
      [
        "Mutants",
        -10.22654982501247
      ],
      [
        "HCT116",
        -10.226881133006252
      ],
      [
        "capture",
        -10.226883880763019
      ],
      [
        "phosphotyrosine",
        -10.227296174023605
      ],
      [
        "list",
        -10.227388495819888
      ],
      [
        "130",
        -10.227628174713537
      ],
      [
        "Align",
        -10.228397421209738
      ],
      [
        "HLA",
        -10.228655043002139
      ],
      [
        "mic",
        -10.229132444576392
      ],
      [
        "GD",
        -10.22920248077337
      ],
      [
        "uncommon",
        -10.229209151233658
      ],
      [
        "DBD",
        -10.231321191378889
      ],
      [
        "neurofibromin",
        -10.231791095088155
      ],
      [
        "notion",
        -10.23194701955153
      ],
      [
        "ntroduction",
        -10.232002948659916
      ],
      [
        "5B",
        -10.232145667302845
      ],
      [
        "itself",
        -10.232513501306897
      ],
      [
        "outcomes",
        -10.23262856702394
      ],
      [
        "throughout",
        -10.233729047728378
      ],
      [
        "SC",
        -10.2339204905586
      ],
      [
        "pedigree",
        -10.234308488063448
      ],
      [
        "provid",
        -10.234760331962569
      ],
      [
        "HDR",
        -10.235863230497696
      ],
      [
        "quality",
        -10.236665645962404
      ],
      [
        "AGG",
        -10.236757168815394
      ],
      [
        "ions",
        -10.23730926036739
      ],
      [
        "record",
        -10.238378076920569
      ],
      [
        "gatekeeper",
        -10.239477101995583
      ],
      [
        "rine",
        -10.23984819724837
      ],
      [
        "NOTCH",
        -10.240373164285698
      ],
      [
        "308",
        -10.240431952775927
      ],
      [
        "electrophoresis",
        -10.240579941891667
      ],
      [
        "must",
        -10.240640372360062
      ],
      [
        "ratios",
        -10.240775945641035
      ],
      [
        "cadherin",
        -10.242236508851732
      ],
      [
        "issue",
        -10.242329587045848
      ],
      [
        "interpretation",
        -10.24233518880865
      ],
      [
        "EP",
        -10.242829669790503
      ],
      [
        "modest",
        -10.242961233773496
      ],
      [
        "holoenzyme",
        -10.243895789801314
      ],
      [
        "partners",
        -10.244112291320691
      ],
      [
        "global",
        -10.244449545289982
      ],
      [
        "sodium",
        -10.24611895812829
      ],
      [
        "supplement",
        -10.247506389496913
      ],
      [
        "replication",
        -10.248340391716885
      ],
      [
        "clustering",
        -10.248621610494359
      ],
      [
        "Publishe",
        -10.248792182879365
      ],
      [
        "gastrointestinal",
        -10.249098018928303
      ],
      [
        "backbone",
        -10.251797514284856
      ],
      [
        "referred",
        -10.253291462977195
      ],
      [
        "1000",
        -10.254138690397461
      ],
      [
        "OF",
        -10.25421628820082
      ],
      [
        "Elf3",
        -10.254913272952322
      ],
      [
        "3β",
        -10.256408122985782
      ],
      [
        "examination",
        -10.256827663380268
      ],
      [
        "tetramer",
        -10.256949924258151
      ],
      [
        "filter",
        -10.257606149261496
      ],
      [
        "restriction",
        -10.257831523568257
      ],
      [
        "Par",
        -10.258511904253213
      ],
      [
        "MDM2",
        -10.259086804450522
      ],
      [
        "induc",
        -10.26103231327047
      ],
      [
        "usual",
        -10.263554618923497
      ],
      [
        "suppressive",
        -10.263671737432404
      ],
      [
        "please",
        -10.264025084984201
      ],
      [
        "enable",
        -10.264133680660628
      ],
      [
        "Image",
        -10.264307739409421
      ],
      [
        "121",
        -10.265987355853287
      ],
      [
        "Fbw7",
        -10.267420460241857
      ],
      [
        "6B",
        -10.2675570880962
      ],
      [
        "injection",
        -10.26855379353752
      ],
      [
        "true",
        -10.26916871488679
      ],
      [
        "OC",
        -10.269408391499548
      ],
      [
        "blocked",
        -10.272304445315564
      ],
      [
        "basic",
        -10.273105442155888
      ],
      [
        "accord",
        -10.273412449076188
      ],
      [
        "mild",
        -10.276025189840922
      ],
      [
        "Structure",
        -10.277673263396933
      ],
      [
        "Loss",
        -10.278362394093822
      ],
      [
        "TKD",
        -10.278673414992028
      ],
      [
        "probabilit",
        -10.278997165547345
      ],
      [
        "ember",
        -10.279270811908862
      ],
      [
        "supernatant",
        -10.279392461498517
      ],
      [
        "pack",
        -10.281380671792114
      ],
      [
        "algorithm",
        -10.281508561049401
      ],
      [
        "monitored",
        -10.282879843907875
      ],
      [
        "efitinib",
        -10.283784522452883
      ],
      [
        "dissociation",
        -10.283968196755685
      ],
      [
        "surgical",
        -10.28514466167689
      ],
      [
        "lysate",
        -10.285706241650061
      ],
      [
        "cytometry",
        -10.285721596367527
      ],
      [
        "encompass",
        -10.28572160669162
      ],
      [
        "Class",
        -10.287182870492755
      ],
      [
        "subjects",
        -10.287222134606727
      ],
      [
        "NCI",
        -10.287436164628971
      ],
      [
        "syndromes",
        -10.288110936765921
      ],
      [
        "101",
        -10.289676377499035
      ],
      [
        "anchorage",
        -10.289829486507237
      ],
      [
        "genic",
        -10.290779046408757
      ],
      [
        "þ",
        -10.291510324372656
      ],
      [
        "Identification",
        -10.292091044465822
      ],
      [
        "sis",
        -10.292891595151357
      ],
      [
        "deficiency",
        -10.29343393363539
      ],
      [
        "smaller",
        -10.29373552664124
      ],
      [
        "requirement",
        -10.293761619957094
      ],
      [
        "viral",
        -10.29383811734472
      ],
      [
        "integrity",
        -10.294999714502715
      ],
      [
        "destabilize",
        -10.295416808816057
      ],
      [
        "FH",
        -10.295532968259973
      ],
      [
        "dynamic",
        -10.295758114792747
      ],
      [
        "stabilization",
        -10.297192439952653
      ],
      [
        "Yes",
        -10.297253512500845
      ],
      [
        "glycine",
        -10.297917051376142
      ],
      [
        "Erk",
        -10.29800217388494
      ],
      [
        "competitive",
        -10.299671258067757
      ],
      [
        "4E",
        -10.301792530234428
      ],
      [
        "comp",
        -10.30205317433972
      ],
      [
        "blocks",
        -10.302963868564643
      ],
      [
        "rest",
        -10.303009828817835
      ],
      [
        "biopsies",
        -10.303174345384054
      ],
      [
        "Information",
        -10.30385879244865
      ],
      [
        "inherited",
        -10.304364723376345
      ],
      [
        "WM2",
        -10.304428694024356
      ],
      [
        "you",
        -10.304542874179614
      ],
      [
        "CCND1",
        -10.305299573898537
      ],
      [
        "signature",
        -10.305394151604094
      ],
      [
        "render",
        -10.306936892872345
      ],
      [
        "cient",
        -10.307245724611729
      ],
      [
        "oint",
        -10.307292693088701
      ],
      [
        "Briefl",
        -10.307899410573043
      ],
      [
        "pedigrees",
        -10.308137032265645
      ],
      [
        "Bar",
        -10.309877729690008
      ],
      [
        "ERK2",
        -10.30998019413093
      ],
      [
        "lymph",
        -10.310786475490465
      ],
      [
        "Car",
        -10.31163263636163
      ],
      [
        "flanking",
        -10.311888561016389
      ],
      [
        "nucleotides",
        -10.31228577863875
      ],
      [
        "Cα",
        -10.312327512584929
      ],
      [
        "finger",
        -10.312674227804129
      ],
      [
        "AAG",
        -10.313170535512263
      ],
      [
        "R132",
        -10.313242133951256
      ],
      [
        "Comparison",
        -10.313818263774646
      ],
      [
        "depict",
        -10.313818280285448
      ],
      [
        "natural",
        -10.313819040231412
      ],
      [
        "180",
        -10.31425986306738
      ],
      [
        "Lee",
        -10.314479983874005
      ],
      [
        "count",
        -10.314596580219163
      ],
      [
        "Second",
        -10.314654350888937
      ],
      [
        "1992",
        -10.314874442631044
      ],
      [
        "reagent",
        -10.315865088422402
      ],
      [
        "Appendix",
        -10.316790917480787
      ],
      [
        "histology",
        -10.31679132919973
      ],
      [
        "SNPs",
        -10.316884205639337
      ],
      [
        "zinc",
        -10.317379533843926
      ],
      [
        "ATCC",
        -10.318096077786333
      ],
      [
        "interfere",
        -10.318478633030157
      ],
      [
        "glucose",
        -10.318578767609825
      ],
      [
        "real",
        -10.319040254460004
      ],
      [
        "chains",
        -10.319284448576033
      ],
      [
        "parameters",
        -10.319807971504687
      ],
      [
        "PLC",
        -10.320475513043524
      ],
      [
        "condition",
        -10.320828677096873
      ],
      [
        "Like",
        -10.321570666055269
      ],
      [
        "Schematic",
        -10.322164067775336
      ],
      [
        "comparing",
        -10.322167103752923
      ],
      [
        "consider",
        -10.322276592587858
      ],
      [
        "gliomas",
        -10.32343597412719
      ],
      [
        "morphology",
        -10.323961601673716
      ],
      [
        "dead",
        -10.324209847289046
      ],
      [
        "vary",
        -10.32540110809801
      ],
      [
        "KI",
        -10.325952777172883
      ],
      [
        "abolishe",
        -10.326127608907694
      ],
      [
        "128",
        -10.326418861507928
      ],
      [
        "xenografts",
        -10.326560994248144
      ],
      [
        "column",
        -10.326965605447697
      ],
      [
        "crenolanib",
        -10.326970449986
      ],
      [
        "axis",
        -10.327628801843137
      ],
      [
        "Med",
        -10.327932516808072
      ],
      [
        "treat",
        -10.32848077611153
      ],
      [
        "hetero",
        -10.328937635836832
      ],
      [
        "DOI",
        -10.329182985549455
      ],
      [
        "color",
        -10.329789009656878
      ],
      [
        "physical",
        -10.32997661361063
      ],
      [
        "biology",
        -10.330603342509379
      ],
      [
        "complementation",
        -10.331507517334153
      ],
      [
        "section",
        -10.331537162189942
      ],
      [
        "Biosciences",
        -10.332256490082987
      ],
      [
        "categor",
        -10.33235573737305
      ],
      [
        "National",
        -10.333057690131824
      ],
      [
        "tronic",
        -10.334738688255179
      ],
      [
        "%).",
        -10.335691286516923
      ],
      [
        "remov",
        -10.336136526593995
      ],
      [
        "Top",
        -10.336141153388317
      ],
      [
        "MEF2B",
        -10.33668887863243
      ],
      [
        "arrow",
        -10.337174131850652
      ],
      [
        "PDGFRB",
        -10.337717702546293
      ],
      [
        "activator",
        -10.337837961137977
      ],
      [
        "poorly",
        -10.337955913325938
      ],
      [
        "GVGD",
        -10.3384936379407
      ],
      [
        "centrosome",
        -10.339067603799833
      ],
      [
        "cycles",
        -10.339773099628736
      ],
      [
        "vismodegib",
        -10.340374559271066
      ],
      [
        "presumably",
        -10.341505857685226
      ],
      [
        "CSF",
        -10.342055067608142
      ],
      [
        "overcome",
        -10.342750981906583
      ],
      [
        "break",
        -10.343750279274076
      ],
      [
        "PM",
        -10.344147536731025
      ],
      [
        "donor",
        -10.34414972689975
      ],
      [
        "loaded",
        -10.344423837511076
      ],
      [
        "Kras",
        -10.344601291766155
      ],
      [
        "133",
        -10.34470575169464
      ],
      [
        "problem",
        -10.345170767068897
      ],
      [
        "und",
        -10.345378130487195
      ],
      [
        "file",
        -10.345677805447703
      ],
      [
        "GEF",
        -10.346310625716615
      ],
      [
        "exclude",
        -10.346419268038993
      ],
      [
        "loci",
        -10.347056953904268
      ],
      [
        "MATH",
        -10.347442947668181
      ],
      [
        "normally",
        -10.347548515001769
      ],
      [
        "engineer",
        -10.347628607487685
      ],
      [
        "tolerated",
        -10.34813850863307
      ],
      [
        "Site",
        -10.349135823239568
      ],
      [
        "room",
        -10.349554542780881
      ],
      [
        "han",
        -10.349609379832362
      ],
      [
        "considerabl",
        -10.350138209192666
      ],
      [
        "overexpressing",
        -10.350937893119383
      ],
      [
        "reason",
        -10.351036747949644
      ],
      [
        "cDNAs",
        -10.351261472324804
      ],
      [
        "conservative",
        -10.3513188782736
      ],
      [
        "probed",
        -10.35285166432515
      ],
      [
        "G719",
        -10.35296816149281
      ],
      [
        "carcinogenesis",
        -10.353169837852658
      ],
      [
        "enhancer",
        -10.353299805756102
      ],
      [
        "negatively",
        -10.353538521106374
      ],
      [
        "pull",
        -10.35424315027812
      ],
      [
        "interval",
        -10.354410818510573
      ],
      [
        "immediate",
        -10.35506038340132
      ],
      [
        "KO",
        -10.356140723642632
      ],
      [
        "unaffected",
        -10.356346911731631
      ],
      [
        "ERBB4",
        -10.356481819989064
      ],
      [
        "substantially",
        -10.356793354550287
      ],
      [
        "Illumina",
        -10.357501332331552
      ],
      [
        "cutaneous",
        -10.359237114957882
      ],
      [
        "explained",
        -10.360290674428157
      ],
      [
        "AND",
        -10.360329602573863
      ],
      [
        "RR",
        -10.361090518331418
      ],
      [
        "μL",
        -10.361384591802533
      ],
      [
        "ML",
        -10.362085726325493
      ],
      [
        "vehicle",
        -10.363722136293323
      ],
      [
        "complement",
        -10.364535542460056
      ],
      [
        "D816V",
        -10.364997280300113
      ],
      [
        "HEK",
        -10.365617755276904
      ],
      [
        "constitute",
        -10.367142768188373
      ],
      [
        "Tables",
        -10.367255302987978
      ],
      [
        "286",
        -10.36753836826405
      ],
      [
        "obvious",
        -10.368099882240351
      ],
      [
        "PowerP",
        -10.368099932786173
      ],
      [
        "recurrence",
        -10.369382565519082
      ],
      [
        "osis",
        -10.369597343295165
      ],
      [
        "New",
        -10.369720802986365
      ],
      [
        "repeated",
        -10.370346259653727
      ],
      [
        "CTC",
        -10.370543619765943
      ],
      [
        "challenge",
        -10.370610078143429
      ],
      [
        "Pre",
        -10.371024888757148
      ],
      [
        "HEK293T",
        -10.371179553400843
      ],
      [
        "Technology",
        -10.371238613645643
      ],
      [
        "regulators",
        -10.371806716054444
      ],
      [
        "769",
        -10.371944104517993
      ],
      [
        "aggregate",
        -10.37215291890843
      ],
      [
        "read",
        -10.37227286991849
      ],
      [
        "ought",
        -10.37228515591385
      ],
      [
        "198",
        -10.372625201957003
      ],
      [
        "SSA",
        -10.372639649271298
      ],
      [
        "forming",
        -10.372777645205517
      ],
      [
        "overlapp",
        -10.37338031624721
      ],
      [
        "onan",
        -10.373683220154362
      ],
      [
        "LNCaP",
        -10.373756837421611
      ],
      [
        "ChIP",
        -10.37378223088102
      ],
      [
        "Over",
        -10.374362175364759
      ],
      [
        "599",
        -10.37490754516056
      ],
      [
        "wildtype",
        -10.37570823664327
      ],
      [
        "cohorts",
        -10.376254862353381
      ],
      [
        "PALB2",
        -10.37691351310666
      ],
      [
        "Anti",
        -10.37692381809832
      ],
      [
        "papillar",
        -10.377545819120154
      ],
      [
        "adopt",
        -10.377639556115067
      ],
      [
        "responsiveness",
        -10.378266985049684
      ],
      [
        "COOH",
        -10.378814818401924
      ],
      [
        "efforts",
        -10.379479514411193
      ],
      [
        "p38",
        -10.379757209916
      ],
      [
        "defi",
        -10.379931489899885
      ],
      [
        "respective",
        -10.380257582974043
      ],
      [
        "propose",
        -10.380726826343787
      ],
      [
        "AMP",
        -10.380764797780326
      ],
      [
        "prolong",
        -10.381730062103514
      ],
      [
        "arc",
        -10.381734853823932
      ],
      [
        "restricted",
        -10.38198467919037
      ],
      [
        "1863",
        -10.382196317320378
      ],
      [
        "matrix",
        -10.382620336283692
      ],
      [
        "Har",
        -10.383918612039432
      ],
      [
        "bar",
        -10.383934768997111
      ],
      [
        "his",
        -10.383966801399453
      ],
      [
        "CGH",
        -10.385757477544647
      ],
      [
        "platelet",
        -10.386444329278156
      ],
      [
        "translated",
        -10.386446270207973
      ],
      [
        "neoplastic",
        -10.38644670462445
      ],
      [
        "blastic",
        -10.388241031397762
      ],
      [
        "sources",
        -10.388356618982602
      ],
      [
        "progenitor",
        -10.38841060101846
      ],
      [
        "integrated",
        -10.38884850583176
      ],
      [
        "iddle",
        -10.389816960900497
      ],
      [
        "precise",
        -10.39092187250166
      ],
      [
        "Health",
        -10.390922307152993
      ],
      [
        "1158",
        -10.391321696306697
      ],
      [
        "hypo",
        -10.391501419698113
      ],
      [
        "Pdx",
        -10.391834101737256
      ],
      [
        "fail",
        -10.39203255636883
      ],
      [
        "Akt1",
        -10.392063786029443
      ],
      [
        "Mel",
        -10.394546356336127
      ],
      [
        "coordinate",
        -10.394665311582157
      ],
      [
        "tests",
        -10.39553645363928
      ],
      [
        "transform",
        -10.39567812899989
      ],
      [
        "neck",
        -10.395702798386935
      ],
      [
        "extend",
        -10.395973445670876
      ],
      [
        "inactivating",
        -10.396280888248258
      ],
      [
        "library",
        -10.396285255042496
      ],
      [
        "alanine",
        -10.396849153920364
      ],
      [
        "describe",
        -10.396859118947088
      ],
      [
        "clon",
        -10.397669742877927
      ],
      [
        "cerevisi",
        -10.398000330086731
      ],
      [
        "heterogeneous",
        -10.398000602985103
      ],
      [
        "extended",
        -10.398581570441536
      ],
      [
        "CpG",
        -10.39872570565975
      ],
      [
        "DH",
        -10.398834129763937
      ],
      [
        "overlap",
        -10.399035672775417
      ],
      [
        "description",
        -10.39929340684602
      ],
      [
        "neuro",
        -10.400207580378051
      ],
      [
        "surprising",
        -10.400586823074892
      ],
      [
        "Amino",
        -10.400785823523773
      ],
      [
        "graph",
        -10.401407531629005
      ],
      [
        "super",
        -10.402204419337206
      ],
      [
        "closely",
        -10.402560324184627
      ],
      [
        "recruit",
        -10.40361815764539
      ],
      [
        "DMS",
        -10.403654523006452
      ],
      [
        "2α",
        -10.404475334746845
      ],
      [
        "TGFβ",
        -10.405079635154138
      ],
      [
        "pediatric",
        -10.405129323999574
      ],
      [
        "self",
        -10.406445092618108
      ],
      [
        "histological",
        -10.406726267371106
      ],
      [
        "vemurafenib",
        -10.407082449548836
      ],
      [
        "composed",
        -10.40708309185307
      ],
      [
        "PTC",
        -10.408882034224611
      ],
      [
        "GGT",
        -10.409049549633114
      ],
      [
        "XP",
        -10.410186391630516
      ],
      [
        "103",
        -10.410309006744669
      ],
      [
        "eyword",
        -10.410348696781156
      ],
      [
        "trypsin",
        -10.411251506348044
      ],
      [
        "PKC",
        -10.411557850452189
      ],
      [
        "glioma",
        -10.412184422529279
      ],
      [
        "V560",
        -10.412226183303158
      ],
      [
        "32P",
        -10.413543323633082
      ],
      [
        "Activity",
        -10.41362055697373
      ],
      [
        "HNSCC",
        -10.413624963711932
      ],
      [
        "accumulate",
        -10.413953425707776
      ],
      [
        "mapping",
        -10.41431330457118
      ],
      [
        "oligomerization",
        -10.416301621269895
      ],
      [
        "GI",
        -10.416929920404009
      ],
      [
        "checkpoint",
        -10.417028957221406
      ],
      [
        "q22",
        -10.41812892185763
      ],
      [
        "amplifications",
        -10.418537200303433
      ],
      [
        "orientation",
        -10.418960288546007
      ],
      [
        "PB",
        -10.41927546128725
      ],
      [
        "car",
        -10.419969577196719
      ],
      [
        "COSMIC",
        -10.42020172772648
      ],
      [
        "oxygen",
        -10.420201748489994
      ],
      [
        "TGG",
        -10.420204303240414
      ],
      [
        "CCT",
        -10.420542008322684
      ],
      [
        "guidelines",
        -10.420689487525706
      ],
      [
        "preparation",
        -10.420862285258593
      ],
      [
        "exert",
        -10.42086790587203
      ],
      [
        "diseases",
        -10.421230445395512
      ],
      [
        "drich",
        -10.421313651092301
      ],
      [
        "GTT",
        -10.421846601804614
      ],
      [
        "cultures",
        -10.423436424021586
      ],
      [
        "V7",
        -10.424682376753912
      ],
      [
        "liquid",
        -10.424834398530287
      ],
      [
        "POLE",
        -10.424834653257918
      ],
      [
        "IgG",
        -10.425131536182754
      ],
      [
        "scaffold",
        -10.425498016176373
      ],
      [
        "cytogenetic",
        -10.425684174811158
      ],
      [
        "initiated",
        -10.426639856227414
      ],
      [
        "compromise",
        -10.426867565132994
      ],
      [
        "vascular",
        -10.427100248380313
      ],
      [
        "feed",
        -10.427476929720605
      ],
      [
        "heterozygosity",
        -10.42816860765613
      ],
      [
        "subgroup",
        -10.42978650340268
      ],
      [
        "thi",
        -10.429936505723521
      ],
      [
        "para",
        -10.430075135636791
      ],
      [
        "bridge",
        -10.43008891357432
      ],
      [
        "U2AF1",
        -10.431280725020144
      ],
      [
        "Kaplan",
        -10.43150873931296
      ],
      [
        "hypothesized",
        -10.432102412223127
      ],
      [
        "inclusion",
        -10.434164685139542
      ],
      [
        "GGG",
        -10.434353113149136
      ],
      [
        "SHP2",
        -10.434730840641777
      ],
      [
        "precipitation",
        -10.434954632107722
      ],
      [
        "endotheli",
        -10.435505211567314
      ],
      [
        "flex",
        -10.436594867347909
      ],
      [
        "regimens",
        -10.436712262452648
      ],
      [
        "Primer",
        -10.436846755597804
      ],
      [
        "malignancy",
        -10.437521432174242
      ],
      [
        "Rho",
        -10.438095278489161
      ],
      [
        "give",
        -10.438598705453561
      ],
      [
        "disrupted",
        -10.43875895943205
      ],
      [
        "Drosophila",
        -10.438862680011287
      ],
      [
        "NB",
        -10.439208205345313
      ],
      [
        "evident",
        -10.440209132308645
      ],
      [
        "Five",
        -10.440926769259786
      ],
      [
        "ich",
        -10.441299798649482
      ],
      [
        "modifications",
        -10.441354519472291
      ],
      [
        "methionine",
        -10.441557191778537
      ],
      [
        "mitogen",
        -10.441895004363902
      ],
      [
        "GTG",
        -10.441968059495139
      ],
      [
        "Experimental",
        -10.442421338473064
      ],
      [
        "que",
        -10.442520868300866
      ],
      [
        "spleen",
        -10.442907189294989
      ],
      [
        "filtration",
        -10.443149344620888
      ],
      [
        "ABI",
        -10.444585331012616
      ],
      [
        "TTG",
        -10.445918014306512
      ],
      [
        "rising",
        -10.447039535608027
      ],
      [
        "modification",
        -10.447178834174398
      ],
      [
        "ature",
        -10.447305174622034
      ],
      [
        "lotinib",
        -10.447680662083686
      ],
      [
        "sistance",
        -10.44768459597978
      ],
      [
        "rearranged",
        -10.447776283565139
      ],
      [
        "adaptor",
        -10.448325442586793
      ],
      [
        "procedures",
        -10.450940754821522
      ],
      [
        "duration",
        -10.451062390142512
      ],
      [
        "spontaneous",
        -10.45172677025372
      ],
      [
        "computational",
        -10.451877796405148
      ],
      [
        "Box",
        -10.45243193627093
      ],
      [
        "LSL",
        -10.452793581393976
      ],
      [
        "pathological",
        -10.452813232076547
      ],
      [
        "JNK",
        -10.452893156631285
      ],
      [
        "Slide",
        -10.453102444896167
      ],
      [
        "GGC",
        -10.453529067969562
      ],
      [
        "Inter",
        -10.453888763909216
      ],
      [
        "6C",
        -10.454100802246426
      ],
      [
        "simultaneous",
        -10.454456215718118
      ],
      [
        "surgery",
        -10.454968382413101
      ],
      [
        "select",
        -10.455109139299356
      ],
      [
        "Meier",
        -10.455140250160728
      ],
      [
        "MutS",
        -10.45560633657757
      ],
      [
        "CCC",
        -10.455649993296282
      ],
      [
        "created",
        -10.456020407064717
      ],
      [
        "extraction",
        -10.456126750666222
      ],
      [
        "conventional",
        -10.457193131450303
      ],
      [
        "proteasome",
        -10.45787854546631
      ],
      [
        "amplicon",
        -10.457912926488536
      ],
      [
        "GCC",
        -10.458169723799468
      ],
      [
        "hinge",
        -10.459346310981989
      ],
      [
        "Lung",
        -10.459429710238835
      ],
      [
        "conditional",
        -10.460349382086786
      ],
      [
        "processed",
        -10.460359077717083
      ],
      [
        "diminishe",
        -10.46081606265139
      ],
      [
        "145",
        -10.461852906086087
      ],
      [
        "R273",
        -10.462270025081173
      ],
      [
        "ARAF",
        -10.463227447680854
      ],
      [
        "HEA",
        -10.463382352726036
      ],
      [
        "replicate",
        -10.464109325964962
      ],
      [
        "processing",
        -10.464784778142509
      ],
      [
        "author",
        -10.465425003046853
      ],
      [
        "ErbB4",
        -10.465485185452692
      ],
      [
        "nude",
        -10.465510325934254
      ],
      [
        "Per",
        -10.465950574508398
      ],
      [
        "translational",
        -10.466089986790461
      ],
      [
        "colleagues",
        -10.46614019697438
      ],
      [
        "repression",
        -10.466450534756046
      ],
      [
        "striking",
        -10.466831761521403
      ],
      [
        "sheet",
        -10.466875237563041
      ],
      [
        "OD",
        -10.467052969526442
      ],
      [
        "ATC",
        -10.467590890443
      ],
      [
        "maintenance",
        -10.468216323149255
      ],
      [
        "platform",
        -10.468216452406873
      ],
      [
        "GAC",
        -10.46849561734036
      ],
      [
        "Stratagen",
        -10.468917977395204
      ],
      [
        "dimers",
        -10.469087407879599
      ],
      [
        "create",
        -10.469141126604192
      ],
      [
        "abolish",
        -10.469181115666945
      ],
      [
        "gels",
        -10.469792445840927
      ],
      [
        "curve",
        -10.469809212008554
      ],
      [
        "Amersham",
        -10.47029678673799
      ],
      [
        "ative",
        -10.4709148445297
      ],
      [
        "Case",
        -10.47093252444353
      ],
      [
        "pSer",
        -10.471009456079122
      ],
      [
        "lesion",
        -10.472550653567678
      ],
      [
        "sign",
        -10.473147710879699
      ],
      [
        "35S",
        -10.473345117892622
      ],
      [
        "phenyl",
        -10.473748422202249
      ],
      [
        "Merlin",
        -10.473773983006865
      ],
      [
        "CARD11",
        -10.473774097745142
      ],
      [
        "authors",
        -10.473798940520776
      ],
      [
        "Tumors",
        -10.474015327424457
      ],
      [
        "maging",
        -10.474040455488115
      ],
      [
        "RAF1",
        -10.474341932118538
      ],
      [
        "Deletion",
        -10.47447233185904
      ],
      [
        "FANCA",
        -10.474693418582302
      ],
      [
        "D92",
        -10.474931759823304
      ],
      [
        "mak",
        -10.475095848091655
      ],
      [
        "ME",
        -10.475466608602959
      ],
      [
        "235",
        -10.47548541381704
      ],
      [
        "ular",
        -10.47554550342902
      ],
      [
        "​",
        -10.475865872410075
      ],
      [
        "cut",
        -10.476486217353685
      ],
      [
        "165",
        -10.476907165933632
      ],
      [
        "E545",
        -10.477357202278757
      ],
      [
        "rise",
        -10.47780285503394
      ],
      [
        "duct",
        -10.478269413161826
      ],
      [
        "copies",
        -10.478657760781239
      ],
      [
        "reg",
        -10.478958402657163
      ],
      [
        "extra",
        -10.479255084210148
      ],
      [
        "H1299",
        -10.479383919798785
      ],
      [
        "ethanol",
        -10.47938496060094
      ],
      [
        "simple",
        -10.480090711727769
      ],
      [
        "GAL4",
        -10.480793319463174
      ],
      [
        "Growth",
        -10.481466651618026
      ],
      [
        "stages",
        -10.481770280450277
      ],
      [
        "GAG",
        -10.482269175834556
      ],
      [
        "UTR",
        -10.48302637499571
      ],
      [
        "organ",
        -10.483133293377108
      ],
      [
        "nucleo",
        -10.483205811836322
      ],
      [
        "+/+",
        -10.483397986940982
      ],
      [
        "participate",
        -10.484278119378754
      ],
      [
        "acts",
        -10.484603714291215
      ],
      [
        "leukaemia",
        -10.484681898468887
      ],
      [
        "microsatellite",
        -10.48498234471234
      ],
      [
        "METHODS",
        -10.485687067583111
      ],
      [
        "Representative",
        -10.485687078350498
      ],
      [
        "Ile",
        -10.486292934663012
      ],
      [
        "clinic",
        -10.486823504694609
      ],
      [
        "S8",
        -10.486918523915634
      ],
      [
        "157",
        -10.487784995049498
      ],
      [
        "employed",
        -10.487851642292398
      ],
      [
        "CTNNB",
        -10.488511153950448
      ],
      [
        "Oncology",
        -10.488745262714652
      ],
      [
        "spectra",
        -10.489227478424253
      ],
      [
        "TTT",
        -10.489969954274933
      ],
      [
        "silencing",
        -10.49134278997246
      ],
      [
        "CBP",
        -10.491830092987158
      ],
      [
        "centrifugation",
        -10.492052009776735
      ],
      [
        "readi",
        -10.492414250159786
      ],
      [
        "phosphorylate",
        -10.492418573600332
      ],
      [
        "zol",
        -10.492473512447837
      ],
      [
        "iSH2",
        -10.492643744183132
      ],
      [
        "mediates",
        -10.492749137304433
      ],
      [
        "lethal",
        -10.493878982884212
      ],
      [
        "solvent",
        -10.494595788841512
      ],
      [
        "senescence",
        -10.49489392988254
      ],
      [
        "KMT2",
        -10.495593674444201
      ],
      [
        "Response",
        -10.495605674054758
      ],
      [
        "TAG",
        -10.496077528930963
      ],
      [
        "bacterial",
        -10.496637063625734
      ],
      [
        "upregulate",
        -10.497350049257278
      ],
      [
        "curves",
        -10.497660517606395
      ],
      [
        "Pms1",
        -10.499213152563796
      ],
      [
        "solub",
        -10.499223503532015
      ],
      [
        "unrelated",
        -10.500021793388264
      ],
      [
        "Line",
        -10.500149231859453
      ],
      [
        "laboratory",
        -10.50059293304859
      ],
      [
        "instance",
        -10.500668506918977
      ],
      [
        "CHEK2",
        -10.50134792196518
      ],
      [
        "identity",
        -10.502061413249816
      ],
      [
        "V173",
        -10.5032530183291
      ],
      [
        "800",
        -10.50368360075576
      ],
      [
        "embryos",
        -10.50426925331475
      ],
      [
        "blasts",
        -10.504278991474362
      ],
      [
        "extension",
        -10.50490473902768
      ],
      [
        "E17K",
        -10.504971587540242
      ],
      [
        "confiden",
        -10.505242781499138
      ],
      [
        "PDGFRα",
        -10.505606260866088
      ],
      [
        "perform",
        -10.505751471586338
      ],
      [
        "acetylation",
        -10.505849331046687
      ],
      [
        "healthy",
        -10.506099862491972
      ],
      [
        "E2F",
        -10.506485881966928
      ],
      [
        "black",
        -10.50649513631257
      ],
      [
        "lotted",
        -10.506877784535046
      ],
      [
        "methylate",
        -10.506886418516409
      ],
      [
        "encode",
        -10.508051358016967
      ],
      [
        "PMC",
        -10.50822296958021
      ],
      [
        "performance",
        -10.508691948126472
      ],
      [
        "BIC",
        -10.509327575018315
      ],
      [
        "tool",
        -10.50960879820454
      ],
      [
        "probands",
        -10.509633450568783
      ],
      [
        "114",
        -10.51084703388106
      ],
      [
        "former",
        -10.511194500213303
      ],
      [
        "Twenty",
        -10.51140674594695
      ],
      [
        "NTRK1",
        -10.511744647870271
      ],
      [
        "areas",
        -10.511892803497137
      ],
      [
        "Normal",
        -10.51212053577849
      ],
      [
        "6D",
        -10.512339650915271
      ],
      [
        "formalin",
        -10.512764118187267
      ],
      [
        "LL",
        -10.512876993543497
      ],
      [
        "white",
[...]
