{
  "version": "1.0",
  "truncation": null,
  "padding": null,
  "added_tokens": [
    {
      "id": 0,
      "content": "<UNK>",
      "single_word": false,
      "lstrip": false,
      "rstrip": false,
      "normalized": false,
      "special": true
    },
    {
      "id": 1,
      "content": "<SEP>",
      "single_word": false,
      "lstrip": false,
      "rstrip": false,
      "normalized": false,
      "special": true
    },
    {
      "id": 2,
      "content": "<MASK>",
      "single_word": false,
      "lstrip": false,
      "rstrip": false,
      "normalized": false,
      "special": true
    },
    {
      "id": 3,
      "content": "<CLS>",
      "single_word": false,
      "lstrip": false,
      "rstrip": false,
      "normalized": false,
      "special": true
    }
  ],
  "normalizer": null,
  "pre_tokenizer": {
    "type": "Whitespace"
  },
  "post_processor": null,
  "decoder": null,
  "model": {
    "type": "WordPiece",
    "unk_token": "<UNK>",
    "continuing_subword_prefix": "##",
    "max_input_chars_per_word": 100,
    "vocab": {
      "<UNK>": 0,
      "<SEP>": 1,
      "<MASK>": 2,
      "<CLS>": 3,
      "\u0001": 4,
      "\u0004": 5,
      "\u0005": 6,
      "\u0006": 7,
      "\u0007": 8,
      "!": 9,
      "\"": 10,
      "#": 11,
      "$": 12,
      "%": 13,
      "&": 14,
      "'": 15,
      "(": 16,
      ")": 17,
      "*": 18,
      "+": 19,
      ",": 20,
      "-": 21,
      ".": 22,
      "/": 23,
      "0": 24,
      "1": 25,
      "2": 26,
      "3": 27,
      "4": 28,
      "5": 29,
      "6": 30,
      "7": 31,
      "8": 32,
      "9": 33,
      ":": 34,
      ";": 35,
      "<": 36,
      "=": 37,
      ">": 38,
      "?": 39,
      "@": 40,
      "A": 41,
      "B": 42,
      "C": 43,
      "D": 44,
      "E": 45,
      "F": 46,
      "G": 47,
      "H": 48,
      "I": 49,
      "J": 50,
      "K": 51,
      "L": 52,
      "M": 53,
      "N": 54,
      "O": 55,
      "P": 56,
      "Q": 57,
      "R": 58,
      "S": 59,
      "T": 60,
      "U": 61,
      "V": 62,
      "W": 63,
      "X": 64,
      "Y": 65,
      "Z": 66,
      "[": 67,
      "\\": 68,
      "]": 69,
      "^": 70,
      "_": 71,
      "`": 72,
      "a": 73,
      "b": 74,
      "c": 75,
      "d": 76,
      "e": 77,
      "f": 78,
      "g": 79,
      "h": 80,
      "i": 81,
      "j": 82,
      "k": 83,
      "l": 84,
      "m": 85,
      "n": 86,
      "o": 87,
      "p": 88,
      "q": 89,
      "r": 90,
      "s": 91,
      "t": 92,
      "u": 93,
      "v": 94,
      "w": 95,
      "x": 96,
      "y": 97,
      "z": 98,
      "{": 99,
      "|": 100,
      "}": 101,
      "~": 102,
      "": 103,
      "": 104,
      "": 105,
      "¡": 106,
      "¢": 107,
      "£": 108,
      "¤": 109,
      "¥": 110,
      "§": 111,
      "¨": 112,
      "©": 113,
      "ª": 114,
      "«": 115,
      "¬": 116,
      "­": 117,
      "®": 118,
      "¯": 119,
      "°": 120,
      "±": 121,
      "²": 122,
      "³": 123,
      "´": 124,
      "µ": 125,
      "¶": 126,
      "·": 127,
      "¸": 128,
      "º": 129,
      "»": 130,
      "¼": 131,
      "½": 132,
      "¿": 133,
      "Á": 134,
      "Â": 135,
      "Ã": 136,
      "Ä": 137,
      "Å": 138,
      "Æ": 139,
      "É": 140,
      "Ê": 141,
      "Ì": 142,
      "Í": 143,
      "Ï": 144,
      "Ð": 145,
      "Ò": 146,
      "Ó": 147,
      "Ô": 148,
      "×": 149,
      "Ø": 150,
      "Ú": 151,
      "Þ": 152,
      "ß": 153,
      "à": 154,
      "á": 155,
      "â": 156,
      "ã": 157,
      "ä": 158,
      "å": 159,
      "æ": 160,
      "ç": 161,
      "è": 162,
      "é": 163,
      "ê": 164,
      "ë": 165,
      "í": 166,
      "ï": 167,
      "ð": 168,
      "ñ": 169,
      "ò": 170,
      "ó": 171,
      "ô": 172,
      "õ": 173,
      "ö": 174,
      "÷": 175,
      "ø": 176,
      "ù": 177,
      "ú": 178,
      "ü": 179,
      "þ": 180,
      "ÿ": 181,
      "ě": 182,
      "ı": 183,
      "Ł": 184,
      "ł": 185,
      "Œ": 186,
      "œ": 187,
      "ś": 188,
      "Š": 189,
      "š": 190,
      "ů": 191,
      "Ÿ": 192,
      "Ž": 193,
      "ƒ": 194,
      "ɛ": 195,
      "ˆ": 196,
      "˘": 197,
      "˙": 198,
      "˚": 199,
      "˛": 200,
      "˜": 201,
      "́": 202,
      "̂": 203,
      "̈": 204,
      "̊": 205,
      "̣": 206,
      "͘": 207,
      "ʹ": 208,
      "Α": 209,
      "Β": 210,
      "Δ": 211,
      "Θ": 212,
      "Ι": 213,
      "Κ": 214,
      "Λ": 215,
      "Μ": 216,
      "Π": 217,
      "Σ": 218,
      "Τ": 219,
      "Φ": 220,
      "Ψ": 221,
      "Ω": 222,
      "ΰ": 223,
      "α": 224,
      "β": 225,
      "γ": 226,
      "δ": 227,
      "ε": 228,
      "ζ": 229,
      "η": 230,
      "θ": 231,
      "ι": 232,
      "κ": 233,
      "λ": 234,
      "μ": 235,
      "ν": 236,
      "ξ": 237,
      "ο": 238,
      "π": 239,
      "ρ": 240,
      "σ": 241,
      "τ": 242,
      "φ": 243,
      "χ": 244,
      "ψ": 245,
      "ω": 246,
      "ϕ": 247,
      "Ϭ": 248,
      "Ϯ": 249,
      "ϵ": 250,
      "с": 251,
      "є": 252,
      "׳": 253,
      "߰": 254,
      "​": 255,
      "‐": 256,
      "‑": 257,
      "‒": 258,
      "–": 259,
      "—": 260,
      "―": 261,
      "‖": 262,
      "‘": 263,
      "’": 264,
      "‚": 265,
      "“": 266,
      "”": 267,
      "„": 268,
      "†": 269,
      "‡": 270,
      "•": 271,
      "‥": 272,
      "…": 273,
      "‰": 274,
      "′": 275,
      "″": 276,
      "‴": 277,
      "‹": 278,
      "⁁": 279,
      "⁄": 280,
      "⁎": 281,
      "€": 282,
      "℃": 283,
      "™": 284,
      "Å": 285,
      "ℳ": 286,
      "⅓": 287,
      "Ⅱ": 288,
      "←": 289,
      "↑": 290,
      "→": 291,
      "↓": 292,
      "↔": 293,
      "⇑": 294,
      "⇓": 295,
      "∂": 296,
      "∆": 297,
      "∈": 298,
      "∉": 299,
      "∊": 300,
      "∑": 301,
      "−": 302,
      "∕": 303,
      "∗": 304,
      "√": 305,
      "∝": 306,
      "∞": 307,
      "∣": 308,
      "∥": 309,
      "∧": 310,
      "∶": 311,
      "∷": 312,
      "∼": 313,
      "≅": 314,
      "≈": 315,
      "≠": 316,
      "≤": 317,
      "≥": 318,
      "≦": 319,
      "≪": 320,
      "≫": 321,
      "⊘": 322,
      "⊙": 323,
      "⊚": 324,
      "⋅": 325,
      "⋯": 326,
      "⌂": 327,
      "〈": 328,
      "〉": 329,
      "⎧": 330,
      "⎨": 331,
      "⎩": 332,
      "⎫": 333,
      "⎬": 334,
      "⎭": 335,
      "①": 336,
      "②": 337,
      "③": 338,
      "④": 339,
      "■": 340,
      "□": 341,
      "▨": 342,
      "▪": 343,
      "▲": 344,
      "▴": 345,
      "▵": 346,
      "▶": 347,
      "►": 348,
      "▼": 349,
      "▾": 350,
      "▿": 351,
      "◆": 352,
      "◇": 353,
      "◊": 354,
      "○": 355,
      "●": 356,
      "◦": 357,
      "☆": 358,
      "♢": 359,
      "♦": 360,
      "♯": 361,
      "✉": 362,
      "❚": 363,
      "➝": 364,
      "⟨": 365,
      "⟩": 366,
      "⧫": 367,
      "⩽": 368,
      "⩾": 369,
      "、": 370,
      "〈": 371,
      "〉": 372,
      "ꞌ": 373,
      "": 374,
      "": 375,
      "": 376,
      "": 377,
      "": 378,
      "": 379,
      "": 380,
      "": 381,
      "": 382,
      "": 383,
      "": 384,
      "": 385,
      "": 386,
      "": 387,
      "ﬁ": 388,
      "ﬂ": 389,
      "�": 390,
      "􀁂": 391,
      "􀁇": 392,
      "􀁋": 393,
      "##s": 394,
      "##2": 395,
      "##4": 396,
      "##0": 397,
      "##9": 398,
      "##6": 399,
      "##T": 400,
      "##B": 401,
      "##F": 402,
      "##1": 403,
      "##t": 404,
      "##r": 405,
      "##o": 406,
      "##d": 407,
      "##u": 408,
      "##c": 409,
      "##i": 410,
      "##n": 411,
      "##e": 412,
      "##h": 413,
      "##l": 414,
      "##g": 415,
      "##y": 416,
      "##f": 417,
      "##A": 418,
      "##D": 419,
      "##H": 420,
      "##q": 421,
      "##3": 422,
      "##C": 423,
      "##p": 424,
      "##a": 425,
      "##7": 426,
      "##8": 427,
      "##5": 428,
      "##S": 429,
      "##O": 430,
      "##P": 431,
      "##k": 432,
      "##v": 433,
      "##L": 434,
      "##z": 435,
      "##m": 436,
      "##M": 437,
      "##_": 438,
      "##G": 439,
      "##R": 440,
      "##K": 441,
      "##I": 442,
      "##x": 443,
      "##w": 444,
      "##U": 445,
      "##b": 446,
      "##N": 447,
      "##E": 448,
      "##Å": 449,
      "##W": 450,
      "##J": 451,
      "##V": 452,
      "##δ": 453,
      "##X": 454,
      "##(": 455,
      "##Q": 456,
      "##,": 457,
      "##Y": 458,
      "##—": 459,
      "##α": 460,
      "##þ": 461,
      "##|": 462,
      "##/": 463,
      "##[": 464,
      "##⇓": 465,
      "##-": 466,
      "##]": 467,
      "##)": 468,
      "##j": 469,
      "##Δ": 470,
      "##ä": 471,
      "##*": 472,
      "##:": 473,
      "##β": 474,
      "##=": 475,
      "##é": 476,
      "##+": 477,
      "##Â": 478,
      "##â": 479,
      "##?": 480,
      "##Æ": 481,
      "##Ã": 482,
      "##Ÿ": 483,
      "##γ": 484,
      "##∗": 485,
      "##Z": 486,
      "##.": 487,
      "##“": 488,
      "##;": 489,
      "##Ø": 490,
      "##κ": 491,
      "##−": 492,
      "##λ": 493,
      "##ó": 494,
      "##σ": 495,
      "##ï": 496,
      "##‡": 497,
      "##μ": 498,
      "##ś": 499,
      "##ê": 500,
      "##'": 501,
      "##ϵ": 502,
      "##<": 503,
      "##ø": 504,
      "##§": 505,
      "##ü": 506,
      "##Ž": 507,
      "##µ": 508,
      "##ɛ": 509,
      "##\\": 510,
      "##ô": 511,
      "##̊": 512,
      "##”": 513,
      "##@": 514,
      "##ö": 515,
      "##′": 516,
      "##⇑": 517,
      "##‖": 518,
      "##Κ": 519,
      "##®": 520,
      "##▴": 521,
      "##˜": 522,
      "##〉": 523,
      "##∼": 524,
      "##●": 525,
      "##>": 526,
      "##×": 527,
      "##θ": 528,
      "##!": 529,
      "##á": 530,
      "##–": 531,
      "##•": 532,
      "##‘": 533,
      "##™": 534,
      "##í": 535,
      "##Ä": 536,
      "##ꞌ": 537,
      "##’": 538,
      "##~": 539,
      "##·": 540,
      "##%": 541,
      "##∆": 542,
      "##\"": 543,
      "##∑": 544,
      "##ß": 545,
      "###": 546,
      "##$": 547,
      "##º": 548,
      "##^": 549,
      "##‑": 550,
      "##Ω": 551,
      "##": 552,
      "##φ": 553,
      "##ψ": 554,
      "##ﬁ": 555,
      "##ζ": 556,
      "##〈": 557,
      "##□": 558,
      "##▵": 559,
      "##¢": 560,
      "##←": 561,
      "##ñ": 562,
      "##ð": 563,
      "##ˆ": 564,
      "##°": 565,
      "##≤": 566,
      "##&": 567,
      "##▲": 568,
      "##˚": 569,
      "##▿": 570,
      "##Í": 571,
      "##†": 572,
      "##{": 573,
      "##è": 574,
      "##̈": 575,
      "##Φ": 576,
      "##Ι": 577,
      "##­": 578,
      "##Α": 579,
      "##▪": 580,
      "##η": 581,
      "##}": 582,
      "##±": 583,
      "##ú": 584,
      "##ε": 585,
      "##∧": 586,
      "##○": 587,
      "##♦": 588,
      "##​": 589,
      "##ℳ": 590,
      "##■": 591,
      "##": 592,
      "##⎩": 593,
      "##⎨": 594,
      "##τ": 595,
      "##☆": 596,
      "##Ê": 597,
      "##ÿ": 598,
      "##→": 599,
      "##ã": 600,
      "##Á": 601,
      "##ë": 602,
      "##Œ": 603,
      "##Ó": 604,
      "##ů": 605,
      "##Ò": 606,
      "##⩽": 607,
      "##̣": 608,
      "##ξ": 609,
      "##✉": 610,
      "##…": 611,
      "##π": 612,
      "##↔": 613,
      "##≈": 614,
      "##": 615,
      "##‐": 616,
      "##↑": 617,
      "##½": 618,
      "##∣": 619,
      "##\u0001": 620,
      "##æ": 621,
      "##å": 622,
      "##ρ": 623,
      "##ç": 624,
      "##à": 625,
      "##◆": 626,
      "##◊": 627,
      "##£": 628,
      "##⁎": 629,
      "##¿": 630,
      "##`": 631,
      "##Ł": 632,
      "##ΰ": 633,
      "##ʹ": 634,
      "##׳": 635,
      "##ı": 636,
      "##Β": 637,
      "##‚": 638,
      "##©": 639,
      "##Ψ": 640,
      "##≠": 641,
      "##􀁋": 642,
      "##∞": 643,
      "##Σ": 644,
      "##↓": 645,
      "##∕": 646,
      "##ł": 647,
      "##̂": 648,
      "##ò": 649,
      "##«": 650,
      "##‥": 651,
      "##√": 652,
      "##Ô": 653,
      "##€": 654,
      "##œ": 655,
      "##◇": 656,
      "##⅓": 657,
      "##♢": 658,
      "##¶": 659,
      "##⎫": 660,
      "##⎭": 661,
      "##⎬": 662,
      "##÷": 663,
      "##⩾": 664,
      "##ι": 665,
      "##Ϭ": 666,
      "##͘": 667,
      "##Ϯ": 668,
      "##≥": 669,
      "##߰": 670,
      "##⁁": 671,
      "##Ï": 672,
      "##∉": 673,
      "##▾": 674,
      "##́": 675,
      "##õ": 676,
      "##▼": 677,
      "##¥": 678,
      "##»": 679,
      "##ϕ": 680,
      "##": 681,
      "##ﬂ": 682,
      "##ě": 683,
      "##š": 684,
      "##≅": 685,
      "##ti": 686,
      "##on": 687,
      "##he": 688,
      "##re": 689,
      "##in": 690,
      "##te": 691,
      "##en": 692,
      "the": 693,
      "in": 694,
      "##tion": 695,
      "##an": 696,
      "of": 697,
      "an": 698,
      "##es": 699,
      "##or": 700,
      "##al": 701,
      "##er": 702,
      "##ed": 703,
      "##as": 704,
      "##ro": 705,
      "and": 706,
      "##it": 707,
      "##ation": 708,
      "##el": 709,
      "##ar": 710,
      "##is": 711,
      "##ic": 712,
      "##ut": 713,
      "##at": 714,
      "##ing": 715,
      "##ate": 716,
      "##ec": 717,
      "to": 718,
      "##om": 719,
      "##ig": 720,
      "##ent": 721,
      "th": 722,
      "mut": 723,
      "##le": 724,
      "##ly": 725,
      "##ith": 726,
      "##ss": 727,
      "##tiv": 728,
      "with": 729,
      "##ere": 730,
      "##ul": 731,
      "##ell": 732,
      "##ts": 733,
      "##os": 734,
      "##ac": 735,
      "##us": 736,
      "pro": 737,
      "mutation": 738,
      ").": 739,
      "re": 740,
      "al": 741,
      "ex": 742,
      "##ri": 743,
      "##ated": 744,
      "##ol": 745,
      "##um": 746,
      "cell": 747,
      "con": 748,
      "for": 749,
      "##id": 750,
      "ac": 751,
      "##tin": 752,
      "##ow": 753,
      "that": 754,
      "##ur": 755,
      "##il": 756,
      "##un": 757,
      "##ot": 758,
      "##ted": 759,
      "##uc": 760,
      "##ter": 761,
      "##if": 762,
      "were": 763,
      "res": 764,
      "st": 765,
      "##ain": 766,
      "##ib": 767,
      "##et": 768,
      "is": 769,
      "##se": 770,
      "##ab": 771,
      "mutations": 772,
      "##am": 773,
      "##ure": 774,
      "##ant": 775,
      "##ity": 776,
      "The": 777,
      "##ce": 778,
      "##ion": 779,
      "was": 780,
      "##pre": 781,
      "on": 782,
      "by": 783,
      "de": 784,
      "Fig": 785,
      "##ay": 786,
      "##oc": 787,
      "##ran": 788,
      "##ase": 789,
      "or": 790,
      "activ": 791,
      "be": 792,
      "as": 793,
      "su": 794,
      "##qu": 795,
      "##ad": 796,
      "##her": 797,
      "##tic": 798,
      "##rom": 799,
      "##ment": 800,
      "cells": 801,
      "##od": 802,
      "##og": 803,
      "##pl": 804,
      "##press": 805,
      "##st": 806,
      "##ve": 807,
      "gen": 808,
      "##ph": 809,
      "##rans": 810,
      "##ver": 811,
      "com": 812,
      "##ting": 813,
      "##anc": 814,
      "##00": 815,
      "pre": 816,
      "are": 817,
      "##ine": 818,
      "##yp": 819,
      "trans": 820,
      "##tive": 821,
      "tum": 822,
      "##ding": 823,
      "##ge": 824,
      "ass": 825,
      "##fec": 826,
      "In": 827,
      "##ous": 828,
      "##im": 829,
      "##ari": 830,
      "##op": 831,
      "##ati": 832,
      "##ign": 833,
      "##ys": 834,
      "##GF": 835,
      "),": 836,
      "se": 837,
      "ind": 838,
      "prote": 839,
      "##ore": 840,
      "##ple": 841,
      "from": 842,
      "at": 843,
      "sh": 844,
      "##orm": 845,
      "tumor": 846,
      "##ancer": 847,
      "##ants": 848,
      "express": 849,
      "protein": 850,
      "##CA": 851,
      "BR": 852,
      "##ir": 853,
      "##ific": 854,
      "##NA": 855,
      "##able": 856,
      "##atient": 857,
      "cl": 858,
      "wh": 859,
      "##own": 860,
      "im": 861,
      "et": 862,
      "vari": 863,
      "cancer": 864,
      "##ud": 865,
      "cont": 866,
      "we": 867,
      "inc": 868,
      "##ther": 869,
      "not": 870,
      "us": 871,
      "patient": 872,
      "##por": 873,
      "##pec": 874,
      "##ence": 875,
      "##tor": 876,
      "##GFR": 877,
      "Figure": 878,
      "##th": 879,
      "le": 880,
      "##ies": 881,
      "dis": 882,
      "##nt": 883,
      "##iv": 884,
      "##ap": 885,
      "##ast": 886,
      "##unc": 887,
      "ch": 888,
      "##ition": 889,
      "sign": 890,
      "this": 891,
      "##hib": 892,
      "##ical": 893,
      "ph": 894,
      "rec": 895,
      "##bs": 896,
      "##ype": 897,
      "##yl": 898,
      "##ary": 899,
      "un": 900,
      "##vel": 901,
      "##igh": 902,
      "##ich": 903,
      "##osph": 904,
      "dom": 905,
      "##form": 906,
      "ha": 907,
      "anal": 908,
      "##unction": 909,
      "##ied": 910,
      "po": 911,
      "##red": 912,
      "##ep": 913,
      "en": 914,
      "ad": 915,
      "these": 916,
      "##iz": 917,
      "domain": 918,
      "##em": 919,
      "##cri": 920,
      "ne": 921,
      "##ffec": 922,
      "##oun": 923,
      "##ug": 924,
      "inhib": 925,
      "all": 926,
      "patients": 927,
      "##up": 928,
      "##ag": 929,
      "have": 930,
      "##min": 931,
      "##ations": 932,
      "reg": 933,
      "##ist": 934,
      ".,": 935,
      "function": 936,
      "which": 937,
      "##enc": 938,
      "##tinib": 939,
      "10": 940,
      "##inding": 941,
      "gene": 942,
      "##ath": 943,
      "kin": 944,
      "##ely": 945,
      "phosph": 946,
      "##ved": 947,
      "##pon": 948,
      "activity": 949,
      "##tif": 950,
      "##ess": 951,
      "20": 952,
      "BRCA": 953,
      "##ally": 954,
      "##oma": 955,
      "##fere": 956,
      "##ogen": 957,
      "stud": 958,
      "expression": 959,
      "inter": 960,
      "mutant": 961,
      "##ele": 962,
      "type": 963,
      "##ruc": 964,
      "##so": 965,
      "##53": 966,
      "##ers": 967,
      "wil": 968,
      "resul": 969,
      "dif": 970,
      "analys": 971,
      "gro": 972,
      "##ance": 973,
      "##idu": 974,
      "##den": 975,
      "##ative": 976,
      "also": 977,
      "co": 978,
      "200": 979,
      "dat": 980,
      "kinase": 981,
      "been": 982,
      "comp": 983,
      "variants": 984,
      "##oci": 985,
      "##12": 986,
      "cons": 987,
      "19": 988,
      "sub": 989,
      "##tions": 990,
      "sequ": 991,
      "##ges": 992,
      "binding": 993,
      "##end": 994,
      "Th": 995,
      "path": 996,
      "##vi": 997,
      "ab": 998,
      "##ch": 999,
      "whe": 1000,
      "spec": 1001,
      "using": 1002,
      "##reas": 1003,
      "##ular": 1004,
      "##ates": 1005,
      "##tr": 1006,
      "##11": 1007,
      "##ound": 1008,
      "differe": 1009,
      "iden": 1010,
      "ap": 1011,
      "##olog": 1012,
      "##AF": 1013,
      "##ass": 1014,
      "##ens": 1015,
      "DNA": 1016,
      "BRCA1": 1017,
      "per": 1018,
      "assay": 1019,
      "##ugh": 1020,
      "##and": 1021,
      "##all": 1022,
      "##ite": 1023,
      "wild": 1024,
      "##ture": 1025,
      "EGFR": 1026,
      "##our": 1027,
      "##tit": 1028,
      "##mon": 1029,
      "data": 1030,
      "##ome": 1031,
      "##lu": 1032,
      "inhibit": 1033,
      "other": 1034,
      "anti": 1035,
      "##ating": 1036,
      "identif": 1037,
      "effec": 1038,
      "show": 1039,
      "##wo": 1040,
      "analysis": 1041,
      "We": 1042,
      "##ility": 1043,
      "tumors": 1044,
      "##oryl": 1045,
      "##ases": 1046,
      "##crip": 1047,
      "mutants": 1048,
      "associ": 1049,
      "##ree": 1050,
      "##cl": 1051,
      "sam": 1052,
      "lo": 1053,
      "##ct": 1054,
      "##age": 1055,
      "##ff": 1056,
      "##iss": 1057,
      "##to": 1058,
      "exon": 1059,
      "Table": 1060,
      "no": 1061,
      "tre": 1062,
      "##per": 1063,
      "ev": 1064,
      "bet": 1065,
      "##edi": 1066,
      "level": 1067,
      "activation": 1068,
      "##ost": 1069,
      "##ten": 1070,
      "repor": 1071,
      "##AS": 1072,
      "mod": 1073,
      "Al": 1074,
      "two": 1075,
      "##rol": 1076,
      "##bl": 1077,
      "signal": 1078,
      "##dition": 1079,
      "has": 1080,
      "des": 1081,
      "##titu": 1082,
      "but": 1083,
      "may": 1084,
      "p53": 1085,
      "##erved": 1086,
      "li": 1087,
      "pres": 1088,
      "##CT": 1089,
      "##ach": 1090,
      "cy": 1091,
      "##duc": 1092,
      "pl": 1093,
      "##SC": 1094,
      "inhibitor": 1095,
      "obs": 1096,
      "##ose": 1097,
      "residu": 1098,
      "##oth": 1099,
      "di": 1100,
      "respon": 1101,
      "lin": 1102,
      "##aus": 1103,
      "##we": 1104,
      "shown": 1105,
      "PT": 1106,
      "11": 1107,
      "resist": 1108,
      "##way": 1109,
      "struc": 1110,
      "##ween": 1111,
      "##teri": 1112,
      "grow": 1113,
      "phosphoryl": 1114,
      "par": 1115,
      "sug": 1116,
      "indic": 1117,
      "sugges": 1118,
      "comple": 1119,
      "between": 1120,
      "12": 1121,
      "##der": 1122,
      "##uld": 1123,
      "##vious": 1124,
      "interac": 1125,
      "##inical": 1126,
      "form": 1127,
      "signific": 1128,
      "inv": 1129,
      "##ue": 1130,
      "met": 1131,
      "car": 1132,
      "##ber": 1133,
      "##arge": 1134,
      "sup": 1135,
      "high": 1136,
      "##plic": 1137,
      "##qui": 1138,
      "ER": 1139,
      "##ym": 1140,
      "transcrip": 1141,
      "than": 1142,
      "genes": 1143,
      "##uman": 1144,
      "associated": 1145,
      "dele": 1146,
      "##endent": 1147,
      "##one": 1148,
      "proteins": 1149,
      "##17": 1150,
      "ag": 1151,
      "rel": 1152,
      "##ever": 1153,
      "pathway": 1154,
      "##10": 1155,
      "##ide": 1156,
      "##ucle": 1157,
      "##ry": 1158,
      "##ight": 1159,
      "induc": 1160,
      "site": 1161,
      "##lo": 1162,
      "##ip": 1163,
      "AL": 1164,
      "found": 1165,
      "used": 1166,
      "fac": 1167,
      "##16": 1168,
      "##tively": 1169,
      "##rim": 1170,
      "fol": 1171,
      "both": 1172,
      "##mo": 1173,
      "PI": 1174,
      "identified": 1175,
      "class": 1176,
      "##ism": 1177,
      "app": 1178,
      "Sup": 1179,
      "specific": 1180,
      "can": 1181,
      "##EN": 1182,
      "control": 1183,
      "results": 1184,
      "##AT": 1185,
      "pos": 1186,
      "15": 1187,
      "human": 1188,
      "growth": 1189,
      "study": 1190,
      "##tain": 1191,
      "col": 1192,
      "##str": 1193,
      "previous": 1194,
      "medi": 1195,
      "##tial": 1196,
      "##de": 1197,
      "sur": 1198,
      "##plement": 1199,
      "##mun": 1200,
      "##ive": 1201,
      "ME": 1202,
      "it": 1203,
      "##res": 1204,
      "sequenc": 1205,
      "bas": 1206,
      "clinical": 1207,
      "##ogenic": 1208,
      "had": 1209,
      "mic": 1210,
      "acc": 1211,
      "##IT": 1212,
      "sc": 1213,
      "This": 1214,
      "##ail": 1215,
      "##ros": 1216,
      "more": 1217,
      "##ulation": 1218,
      "##fter": 1219,
      "our": 1220,
      "##ared": 1221,
      "pred": 1222,
      "significant": 1223,
      "##uch": 1224,
      "##cin": 1225,
      "##ia": 1226,
      "am": 1227,
      "tes": 1228,
      "199": 1229,
      "##bed": 1230,
      "##CC": 1231,
      "num": 1232,
      "levels": 1233,
      "##atinib": 1234,
      "].": 1235,
      "##ech": 1236,
      "one": 1237,
      "##hed": 1238,
      "##ak": 1239,
      "##aining": 1240,
      "##ond": 1241,
      "lines": 1242,
      "14": 1243,
      "##gen": 1244,
      "##ments": 1245,
      "##13": 1246,
      "region": 1247,
      "##ough": 1248,
      "##eptor": 1249,
      "ter": 1250,
      "observed": 1251,
      "##usion": 1252,
      "##CR": 1253,
      "its": 1254,
      "13": 1255,
      "Supplement": 1256,
      "conf": 1257,
      "##hen": 1258,
      "##AP": 1259,
      "addition": 1260,
      "PTEN": 1261,
      "only": 1262,
      "lik": 1263,
      "##formation": 1264,
      "cor": 1265,
      "transcription": 1266,
      "To": 1267,
      "receptor": 1268,
      "fam": 1269,
      "acid": 1270,
      "##owever": 1271,
      "##itive": 1272,
      "##als": 1273,
      "non": 1274,
      "##port": 1275,
      "loc": 1276,
      "prim": 1277,
      "##atment": 1278,
      "signaling": 1279,
      "PD": 1280,
      "##iti": 1281,
      "18": 1282,
      "##formed": 1283,
      "##ifer": 1284,
      "##ong": 1285,
      "##olec": 1286,
      "##gre": 1287,
      "##ear": 1288,
      "##imil": 1289,
      "##are": 1290,
      "##ense": 1291,
      "studies": 1292,
      "Sm": 1293,
      "KIT": 1294,
      "transfec": 1295,
      "kn": 1296,
      "##ormal": 1297,
      "different": 1298,
      "##tern": 1299,
      "##reased": 1300,
      "##velop": 1301,
      "##ole": 1302,
      "These": 1303,
      "dete": 1304,
      "##imilar": 1305,
      "%)": 1306,
      "each": 1307,
      "well": 1308,
      "ALK": 1309,
      "CD": 1310,
      "functional": 1311,
      "structure": 1312,
      "##ix": 1313,
      "##ator": 1314,
      "three": 1315,
      "##ER": 1316,
      "subs": 1317,
      "##ub": 1318,
      "##zed": 1319,
      "descri": 1320,
      "##ently": 1321,
      "develop": 1322,
      "dep": 1323,
      "##ples": 1324,
      "##ized": 1325,
      "nucle": 1326,
      "residues": 1327,
      "##urther": 1328,
      "16": 1329,
      "phosphorylation": 1330,
      "reported": 1331,
      "##cc": 1332,
      "##mino": 1333,
      "their": 1334,
      "cases": 1335,
      "##requ": 1336,
      "Supplementary": 1337,
      "treatment": 1338,
      "most": 1339,
      "model": 1340,
      "red": 1341,
      "##tem": 1342,
      "##low": 1343,
      "into": 1344,
      "##tent": 1345,
      "Smad": 1346,
      "there": 1347,
      "under": 1348,
      "##tim": 1349,
      "resistance": 1350,
      "As": 1351,
      "17": 1352,
      "##ef": 1353,
      "dise": 1354,
      "previously": 1355,
      "##itro": 1356,
      "##ature": 1357,
      "he": 1358,
      "number": 1359,
      "differen": 1360,
      "such": 1361,
      "onc": 1362,
      "WT": 1363,
      "described": 1364,
      "##50": 1365,
      "##ification": 1366,
      "##AG": 1367,
      "sens": 1368,
      "##ew": 1369,
      "##rap": 1370,
      "##ined": 1371,
      "complex": 1372,
      "##hem": 1373,
      "me": 1374,
      "amino": 1375,
      "##ock": 1376,
      "##ily": 1377,
      "##arg": 1378,
      "##ause": 1379,
      "immun": 1380,
      "showed": 1381,
      "termin": 1382,
      "predic": 1383,
      "man": 1384,
      "sec": 1385,
      "Mut": 1386,
      "over": 1387,
      "##ard": 1388,
      "##peri": 1389,
      "ar": 1390,
      "factor": 1391,
      "##li": 1392,
      "ins": 1393,
      "##ization": 1394,
      "line": 1395,
      "deter": 1396,
      "frequ": 1397,
      "##ack": 1398,
      "##af": 1399,
      "bre": 1400,
      "##bod": 1401,
      "tr": 1402,
      "do": 1403,
      "Ras": 1404,
      "bl": 1405,
      "response": 1406,
      "molec": 1407,
      "val": 1408,
      "low": 1409,
      "after": 1410,
      "##osis": 1411,
      "disease": 1412,
      "##emb": 1413,
      "chan": 1414,
      "assays": 1415,
      "##luding": 1416,
      "exam": 1417,
      "##cent": 1418,
      "compared": 1419,
      "##ability": 1420,
      "therap": 1421,
      "gener": 1422,
      "FGFR": 1423,
      "##T3": 1424,
      "regul": 1425,
      "##echan": 1426,
      "samples": 1427,
      "sequence": 1428,
      "affec": 1429,
      "antibod": 1430,
      "##TP": 1431,
      "##cted": 1432,
      "##ified": 1433,
      "##ici": 1434,
      "including": 1435,
      "prol": 1436,
      "##though": 1437,
      "##14": 1438,
      "##asm": 1439,
      "##issense": 1440,
      "BRAF": 1441,
      "##ST": 1442,
      "expressing": 1443,
      "##act": 1444,
      "##elan": 1445,
      "promo": 1446,
      "performed": 1447,
      "50": 1448,
      "end": 1449,
      "##fore": 1450,
      "24": 1451,
      "However": 1452,
      "mechan": 1453,
      "ampl": 1454,
      "bi": 1455,
      "##out": 1456,
      "similar": 1457,
      "fusion": 1458,
      "##RAS": 1459,
      "mon": 1460,
      "fr": 1461,
      "##ues": 1462,
      "##ox": 1463,
      "##ible": 1464,
      "ser": 1465,
      "##yn": 1466,
      "meth": 1467,
      "substitu": 1468,
      "normal": 1469,
      "30": 1470,
      "##omas": 1471,
      "##rough": 1472,
      "occ": 1473,
      "##tide": 1474,
      "str": 1475,
      "experi": 1476,
      "loss": 1477,
      "missense": 1478,
      "##ival": 1479,
      "prov": 1480,
      "rep": 1481,
      "##yros": 1482,
      "##atic": 1483,
      "mice": 1484,
      "alter": 1485,
      "##ung": 1486,
      "PCR": 1487,
      "melan": 1488,
      "##elec": 1489,
      "##tro": 1490,
      "variant": 1491,
      "mechanism": 1492,
      "##hes": 1493,
      "FL": 1494,
      "##rib": 1495,
      "targe": 1496,
      "Cell": 1497,
      "##arac": 1498,
      "appro": 1499,
      "##yrosine": 1500,
      "##K2": 1501,
      "##ither": 1502,
      "def": 1503,
      "##RNA": 1504,
      "increased": 1505,
      "##tes": 1506,
      "##erm": 1507,
      "reduc": 1508,
      "##ited": 1509,
      "##int": 1510,
      "##ull": 1511,
      "RAF": 1512,
      "##itinib": 1513,
      "An": 1514,
      "em": 1515,
      "through": 1516,
      "effect": 1517,
      "suppress": 1518,
      "25": 1519,
      "##esis": 1520,
      "##activ": 1521,
      "within": 1522,
      "##urre": 1523,
      "For": 1524,
      "invol": 1525,
      "indep": 1526,
      "21": 1527,
      "##ind": 1528,
      "##K1": 1529,
      "ov": 1530,
      "##tained": 1531,
      "##ribu": 1532,
      "based": 1533,
      "cri": 1534,
      "requi": 1535,
      "inhibitors": 1536,
      "##ology": 1537,
      "follow": 1538,
      "could": 1539,
      "##gr": 1540,
      "cancers": 1541,
      "out": 1542,
      "100": 1543,
      "##ents": 1544,
      "mul": 1545,
      "prolifer": 1546,
      "##xpress": 1547,
      "##ssion": 1548,
      "##pres": 1549,
      "dire": 1550,
      "##ons": 1551,
      "imp": 1552,
      "analy": 1553,
      "##H2": 1554,
      "independent": 1555,
      "breast": 1556,
      "##ML": 1557,
      "##tal": 1558,
      "##irst": 1559,
      "##tero": 1560,
      "min": 1561,
      "vitro": 1562,
      "group": 1563,
      "##ould": 1564,
      "role": 1565,
      "On": 1566,
      "##ark": 1567,
      "##ency": 1568,
      "##59": 1569,
      "import": 1570,
      "second": 1571,
      "sequencing": 1572,
      "cod": 1573,
      "##US": 1574,
      "known": 1575,
      "ob": 1576,
      "either": 1577,
      "hy": 1578,
      "respec": 1579,
      "lung": 1580,
      "poss": 1581,
      "##fac": 1582,
      "##ral": 1583,
      "family": 1584,
      "##ecause": 1585,
      "##AR": 1586,
      "TSC": 1587,
      "St": 1588,
      "presence": 1589,
      "poly": 1590,
      "charac": 1591,
      "prob": 1592,
      "tyrosine": 1593,
      "selec": 1594,
      "loop": 1595,
      "##ots": 1596,
      "##xt": 1597,
      "##struc": 1598,
      "assess": 1599,
      "lig": 1600,
      "Res": 1601,
      "interaction": 1602,
      "##H1": 1603,
      "##ypes": 1604,
      "dr": 1605,
      "genetic": 1606,
      "immuno": 1607,
      "expressed": 1608,
      "domains": 1609,
      "##II": 1610,
      "##vival": 1611,
      "##tivity": 1612,
      "29": 1613,
      "sm": 1614,
      "##18": 1615,
      "incl": 1616,
      "##ividu": 1617,
      "phen": 1618,
      "##ystem": 1619,
      "##bin": 1620,
      "induced": 1621,
      "demon": 1622,
      "demonstr": 1623,
      "mutated": 1624,
      "22": 1625,
      "AR": 1626,
      "chrom": 1627,
      "transfected": 1628,
      "small": 1629,
      "repres": 1630,
      "poten": 1631,
      "Met": 1632,
      "hyp": 1633,
      "PDGFR": 1634,
      "##pos": 1635,
      "hetero": 1636,
      "##tur": 1637,
      "##lec": 1638,
      "##ered": 1639,
      "##tical": 1640,
      "##ins": 1641,
      "terminal": 1642,
      "produc": 1643,
      "down": 1644,
      "##AC": 1645,
      "containing": 1646,
      "##OR": 1647,
      "##uk": 1648,
      "##irm": 1649,
      "inhibition": 1650,
      "likely": 1651,
      "##LC": 1652,
      "##ven": 1653,
      "##trac": 1654,
      "dependent": 1655,
      "##27": 1656,
      "occur": 1657,
      "those": 1658,
      "rem": 1659,
      "survival": 1660,
      "##ile": 1661,
      "effects": 1662,
      "##ished": 1663,
      "##34": 1664,
      "hom": 1665,
      "individu": 1666,
      "RAS": 1667,
      "##idence": 1668,
      "hel": 1669,
      "##ities": 1670,
      "Not": 1671,
      "did": 1672,
      "##erv": 1673,
      "##air": 1674,
      "detected": 1675,
      "##atal": 1676,
      "##ulated": 1677,
      "indicated": 1678,
      "##hor": 1679,
      "proliferation": 1680,
      "har": 1681,
      "includ": 1682,
      "confirm": 1683,
      "corre": 1684,
      "multi": 1685,
      "##vers": 1686,
      "common": 1687,
      "further": 1688,
      "##ector": 1689,
      "tiss": 1690,
      "whereas": 1691,
      "some": 1692,
      "##line": 1693,
      "##K3": 1694,
      "##ably": 1695,
      "##ived": 1696,
      "##85": 1697,
      "##GG": 1698,
      "analyzed": 1699,
      "##terious": 1700,
      "Gen": 1701,
      "primary": 1702,
      "##istent": 1703,
      "##bi": 1704,
      "##15": 1705,
      "tim": 1706,
      "memb": 1707,
      "##eu": 1708,
      "mo": 1709,
      "##omatic": 1710,
      "##reen": 1711,
      "tumour": 1712,
      "##20": 1713,
      "same": 1714,
      "neg": 1715,
      "splic": 1716,
      "##omic": 1717,
      "progre": 1718,
      "lead": 1719,
      "VUS": 1720,
      "dec": 1721,
      "reve": 1722,
      "my": 1723,
      "pu": 1724,
      "##other": 1725,
      "positive": 1726,
      "sever": 1727,
      "imatinib": 1728,
      "first": 1729,
      "##19": 1730,
      "##ded": 1731,
      "carcin": 1732,
      "##ytic": 1733,
      "##ains": 1734,
      "##dro": 1735,
      "##ological": 1736,
      "##urrent": 1737,
      "##itivity": 1738,
      "##arget": 1739,
      "##KT": 1740,
      "23": 1741,
      "lys": 1742,
      "TK": 1743,
      "when": 1744,
      "position": 1745,
      "enc": 1746,
      "cycl": 1747,
      "whether": 1748,
      "development": 1749,
      "oncogenic": 1750,
      "present": 1751,
      "significantly": 1752,
      "determin": 1753,
      "target": 1754,
      "respectively": 1755,
      "ma": 1756,
      "important": 1757,
      "vector": 1758,
      "av": 1759,
      "##ingle": 1760,
      "catal": 1761,
      "der": 1762,
      "##ize": 1763,
      "##jec": 1764,
      "All": 1765,
      "##ays": 1766,
      "ref": 1767,
      "##24": 1768,
      "several": 1769,
      "treated": 1770,
      "##DNA": 1771,
      "##26": 1772,
      "CDK": 1773,
      "##imer": 1774,
      "##ET": 1775,
      "deletion": 1776,
      "##rease": 1777,
      "contr": 1778,
      "active": 1779,
      "caus": 1780,
      "hig": 1781,
      "molecular": 1782,
      "40": 1783,
      "drug": 1784,
      "##sequ": 1785,
      "again": 1786,
      "phenot": 1787,
      "##ll": 1788,
      "melanoma": 1789,
      "reveal": 1790,
      "##efitinib": 1791,
      "RNA": 1792,
      "ability": 1793,
      "Im": 1794,
      "qu": 1795,
      "single": 1796,
      "32": 1797,
      "construc": 1798,
      "Although": 1799,
      "##isk": 1800,
      "##ented": 1801,
      "26": 1802,
      "##abl": 1803,
      "resistant": 1804,
      "##3K": 1805,
      "Cancer": 1806,
      "##co": 1807,
      "Pro": 1808,
      "direct": 1809,
      "aut": 1810,
      "AKT": 1811,
      "##TC": 1812,
      "##cess": 1813,
      "transcriptional": 1814,
      "BRCT": 1815,
      "syn": 1816,
      "##agn": 1817,
      "negative": 1818,
      "total": 1819,
      "##oid": 1820,
      "##centr": 1821,
      "large": 1822,
      "00": 1823,
      "##IN": 1824,
      "hydro": 1825,
      "then": 1826,
      "##cle": 1827,
      "##ores": 1828,
      "alterations": 1829,
      "avail": 1830,
      "eff": 1831,
      "activated": 1832,
      "KRAS": 1833,
      "system": 1834,
      "##load": 1835,
      "##ream": 1836,
      "##ods": 1837,
      "four": 1838,
      "abs": 1839,
      "##ie": 1840,
      "##ang": 1841,
      "##ymph": 1842,
      "concentr": 1843,
      "up": 1844,
      "28": 1845,
      "##ately": 1846,
      "##OP": 1847,
      "37": 1848,
      "##xpression": 1849,
      "##ces": 1850,
      "leuk": 1851,
      "##AD": 1852,
      "activating": 1853,
      "##TOR": 1854,
      "tested": 1855,
      "##stream": 1856,
      "contrast": 1857,
      "antibody": 1858,
      "residue": 1859,
      "changes": 1860,
      "##av": 1861,
      "##agen": 1862,
      "Bi": 1863,
      "##CL": 1864,
      "harb": 1865,
      "##OS": 1866,
      "sensitivity": 1867,
      "##ds": 1868,
      "obtained": 1869,
      "finding": 1870,
      "##mong": 1871,
      "correl": 1872,
      "PIK3": 1873,
      "##ra": 1874,
      "stim": 1875,
      "against": 1876,
      "new": 1877,
      "##abil": 1878,
      "meas": 1879,
      "suggest": 1880,
      "mediated": 1881,
      "FLT3": 1882,
      "ep": 1883,
      "##tural": 1884,
      "somatic": 1885,
      "##ownload": 1886,
      "##ouse": 1887,
      "##HL": 1888,
      "because": 1889,
      "##respon": 1890,
      "tri": 1891,
      "SP": 1892,
      "No": 1893,
      "constitu": 1894,
      "##54": 1895,
      "##ivo": 1896,
      "result": 1897,
      "plasm": 1898,
      "multiple": 1899,
      "##22": 1900,
      "compar": 1901,
      "ST": 1902,
      "mM": 1903,
      "dri": 1904,
      "##cip": 1905,
      "ubi": 1906,
      "available": 1907,
      "sites": 1908,
      "gefitinib": 1909,
      "##par": 1910,
      "respons": 1911,
      "##B2": 1912,
      "##xim": 1913,
      "lymph": 1914,
      "they": 1915,
      "##ial": 1916,
      "##amm": 1917,
      "27": 1918,
      "GI": 1919,
      "mal": 1920,
      "encod": 1921,
      "SM": 1922,
      "additional": 1923,
      "risk": 1924,
      "It": 1925,
      "##ulture": 1926,
      "amplification": 1927,
      "apop": 1928,
      "##jor": 1929,
      "##rane": 1930,
      "##74": 1931,
      "HER": 1932,
      "MS": 1933,
      "##yg": 1934,
      "Un": 1935,
      "experiments": 1936,
      "##tig": 1937,
      "##utral": 1938,
      "NI": 1939,
      "vivo": 1940,
      "##eng": 1941,
      "set": 1942,
      "major": 1943,
      "strong": 1944,
      "cle": 1945,
      "inser": 1946,
      "##icient": 1947,
      "MAP": 1948,
      "##alu": 1949,
      "clon": 1950,
      "NF": 1951,
      "defec": 1952,
      "##35": 1953,
      "higher": 1954,
      "pathways": 1955,
      "##cipit": 1956,
      "##tially": 1957,
      "test": 1958,
      "characteri": 1959,
      "extrac": 1960,
      "##face": 1961,
      "pathogenic": 1962,
      "##ho": 1963,
      "determined": 1964,
      "Our": 1965,
      "substr": 1966,
      "##BL": 1967,
      "JA": 1968,
      "##cep": 1969,
      "mark": 1970,
      "##tosis": 1971,
      "Ex": 1972,
      "##ill": 1973,
      "000": 1974,
      "chromos": 1975,
      "formation": 1976,
      "##atory": 1977,
      "catalytic": 1978,
      "derived": 1979,
      "Cl": 1980,
      "##ained": 1981,
      "reduced": 1982,
      "progression": 1983,
      "##rc": 1984,
      "##ric": 1985,
      "NSC": 1986,
      "intr": 1987,
      "potential": 1988,
      "##ocy": 1989,
      "##ade": 1990,
      "might": 1991,
      "##estig": 1992,
      "##64": 1993,
      "evidence": 1994,
      "NSCLC": 1995,
      "suggesting": 1996,
      "##zym": 1997,
      "measure": 1998,
      "would": 1999,
      "##ears": 2000,
      "##ording": 2001,
      "##38": 2002,
      "##quitin": 2003,
      "35": 2004,
      "PI3K": 2005,
      "allele": 2006,
      "investig": 2007,
      "##30": 2008,
      "mouse": 2009,
      "correspon": 2010,
      "##onic": 2011,
      "op": 2012,
      "fold": 2013,
      "BRCA2": 2014,
      "ligand": 2015,
      "Notch": 2016,
      "##arly": 2017,
      "##ft": 2018,
      "##ater": 2019,
      "deleterious": 2020,
      "##action": 2021,
      "genomic": 2022,
      "transl": 2023,
      "required": 2024,
      "Ch": 2025,
      "CR": 2026,
      "Ne": 2027,
      "PDGFRA": 2028,
      "ver": 2029,
      "allel": 2030,
      "revealed": 2031,
      "use": 2032,
      "##DS": 2033,
      "mTOR": 2034,
      "##orph": 2035,
      "##zyg": 2036,
      "bu": 2037,
      "Ba": 2038,
      "GIST": 2039,
      "##21": 2040,
      "##opy": 2041,
      "related": 2042,
      "cDNA": 2043,
      "therapy": 2044,
      "##ey": 2045,
      "There": 2046,
      "conformation": 2047,
      "##TT": 2048,
      "promoter": 2049,
      "##blast": 2050,
      "##po": 2051,
      "##ame": 2052,
      "cyclin": 2053,
      "less": 2054,
      "aden": 2055,
      "##FP": 2056,
      "overe": 2057,
      "Thus": 2058,
      "##activation": 2059,
      "bind": 2060,
      "local": 2061,
      "ERK": 2062,
      "GTP": 2063,
      "evalu": 2064,
      "##otide": 2065,
      "inte": 2066,
      "without": 2067,
      "##kt": 2068,
      "culture": 2069,
      "##ange": 2070,
      "TKI": 2071,
      "cellular": 2072,
      "famil": 2073,
      "##ian": 2074,
      "pan": 2075,
      "##ogenous": 2076,
      "##ise": 2077,
      "##rome": 2078,
      "##75": 2079,
      "colon": 2080,
      "contribu": 2081,
      "leukem": 2082,
      "will": 2083,
      "frequency": 2084,
      "Re": 2085,
      "metast": 2086,
      "sp": 2087,
      "consistent": 2088,
      "##atin": 2089,
      "##ane": 2090,
      "##ochem": 2091,
      "##ord": 2092,
      "ID": 2093,
      "structural": 2094,
      "represent": 2095,
      "##fer": 2096,
      "highly": 2097,
      "partic": 2098,
      "##ged": 2099,
      "##uro": 2100,
      "S2": 2101,
      "HER2": 2102,
      "increase": 2103,
      "##igen": 2104,
      "##uring": 2105,
      "tissue": 2106,
      "any": 2107,
      "cal": 2108,
      "case": 2109,
      "##ution": 2110,
      "types": 2111,
      "##atus": 2112,
      "time": 2113,
      "enh": 2114,
      "Se": 2115,
      "Further": 2116,
      "due": 2117,
      "point": 2118,
      "germ": 2119,
      "SPOP": 2120,
      "##B1": 2121,
      "Akt": 2122,
      "fe": 2123,
      "main": 2124,
      "##ellular": 2125,
      "##ored": 2126,
      "33": 2127,
      "##eptide": 2128,
      "##iven": 2129,
      "II": 2130,
      "so": 2131,
      "provid": 2132,
      "substitution": 2133,
      "lack": 2134,
      "diagn": 2135,
      "pop": 2136,
      "##rif": 2137,
      "##und": 2138,
      "absence": 2139,
      "##76": 2140,
      "NIH": 2141,
      "##ication": 2142,
      "##110": 2143,
      "part": 2144,
      "involved": 2145,
      "Er": 2146,
      "examined": 2147,
      "##rup": 2148,
      "##row": 2149,
      "interactions": 2150,
      "34": 2151,
      "##IF": 2152,
      "month": 2153,
      "##70": 2154,
      "carri": 2155,
      "phosphorylated": 2156,
      "exons": 2157,
      "consid": 2158,
      "##90": 2159,
      "##estern": 2160,
      "predicted": 2161,
      "sensitive": 2162,
      "AML": 2163,
      "mechanisms": 2164,
      "ubiquitin": 2165,
      "least": 2166,
      "conserved": 2167,
      "nuclear": 2168,
      "blot": 2169,
      "],": 2170,
      "displ": 2171,
      "S1": 2172,
      "##anced": 2173,
      "his": 2174,
      "##93": 2175,
      "motif": 2176,
      "##otsp": 2177,
      "sol": 2178,
      "##ving": 2179,
      "##mer": 2180,
      "CA": 2181,
      "60": 2182,
      "cate": 2183,
      "##istic": 2184,
      "many": 2185,
      "synd": 2186,
      "##61": 2187,
      "##precipit": 2188,
      "incub": 2189,
      "screen": 2190,
      "myel": 2191,
      "##phosph": 2192,
      "es": 2193,
      "repe": 2194,
      "confirmed": 2195,
      "##60": 2196,
      "TSC2": 2197,
      "hotsp": 2198,
      "hist": 2199,
      "downstream": 2200,
      "##84": 2201,
      "##tered": 2202,
      "demonstrated": 2203,
      "##ru": 2204,
      "##D1": 2205,
      "##ish": 2206,
      "status": 2207,
      "acids": 2208,
      "##ational": 2209,
      "observ": 2210,
      "expl": 2211,
      "D1": 2212,
      "##GA": 2213,
      "substitutions": 2214,
      "ERB": 2215,
      "fig": 2216,
      "##eutic": 2217,
      "link": 2218,
      "##bination": 2219,
      "##ai": 2220,
      "following": 2221,
      "antibodies": 2222,
      "##onal": 2223,
      "alleles": 2224,
      "ATP": 2225,
      "p16": 2226,
      "ol": 2227,
      "panel": 2228,
      "according": 2229,
      "provide": 2230,
      "affect": 2231,
      "suppressor": 2232,
      "factors": 2233,
      "##tory": 2234,
      "##MS": 2235,
      "##ether": 2236,
      "Go": 2237,
      "mean": 2238,
      "IC": 2239,
      "##ross": 2240,
      "##troduc": 2241,
      "kinases": 2242,
      "##feren": 2243,
      "48": 2244,
      "malign": 2245,
      "##ylation": 2246,
      "##25": 2247,
      "harbor": 2248,
      "##omet": 2249,
      "analyses": 2250,
      "recom": 2251,
      "MEK": 2252,
      "vers": 2253,
      "Con": 2254,
      "Raf": 2255,
      "apoptosis": 2256,
      "among": 2257,
      "phenotype": 2258,
      "regions": 2259,
      "##2A": 2260,
      "distin": 2261,
      "PIK3CA": 2262,
      "condition": 2263,
      "##ex": 2264,
      "est": 2265,
      "phosphat": 2266,
      "##pected": 2267,
      "##ogene": 2268,
      "##atively": 2269,
      "##ris": 2270,
      "therefore": 2271,
      "##otinib": 2272,
      "##..": 2273,
      "complete": 2274,
      "like": 2275,
      "mRNA": 2276,
      "enzym": 2277,
      "lower": 2278,
      "##ves": 2279,
      "rele": 2280,
      "disrup": 2281,
      "##mine": 2282,
      "exhib": 2283,
      "Mutations": 2284,
      "p110": 2285,
      "31": 2286,
      "ele": 2287,
      "##ffin": 2288,
      "##resting": 2289,
      "determine": 2290,
      "##imens": 2291,
      "inf": 2292,
      "identify": 2293,
      "org": 2294,
      "bound": 2295,
      "Download": 2296,
      "##ob": 2297,
      "who": 2298,
      "months": 2299,
      "located": 2300,
      "relative": 2301,
      "##its": 2302,
      "findings": 2303,
      "cycle": 2304,
      "process": 2305,
      "values": 2306,
      "rate": 2307,
      "##80": 2308,
      "models": 2309,
      "##arian": 2310,
      "indicate": 2311,
      "STAT": 2312,
      "##arcin": 2313,
      "##vant": 2314,
      "##ength": 2315,
      "##greg": 2316,
      "plasmid": 2317,
      "TP": 2318,
      "change": 2319,
      "39": 2320,
      "36": 2321,
      "regulation": 2322,
      "TGF": 2323,
      "My": 2324,
      "coun": 2325,
      "##CF": 2326,
      "GFP": 2327,
      "##ocarcin": 2328,
      "ML": 2329,
      "sequences": 2330,
      "novel": 2331,
      "HE": 2332,
      "information": 2333,
      "full": 2334,
      "secondary": 2335,
      "individuals": 2336,
      "##99": 2337,
      "MET": 2338,
      "##ci": 2339,
      "F3": 2340,
      "cyto": 2341,
      "RT": 2342,
      "##TD": 2343,
      "although": 2344,
      "S6": 2345,
      "##verse": 2346,
      "display": 2347,
      "chem": 2348,
      "er": 2349,
      "where": 2350,
      "##ffer": 2351,
      "phospho": 2352,
      "ml": 2353,
      "stability": 2354,
      "IL": 2355,
      "pat": 2356,
      "included": 2357,
      "possible": 2358,
      "distinct": 2359,
      "##TR": 2360,
      "##ove": 2361,
      "##raph": 2362,
      "Com": 2363,
      "##47": 2364,
      "##atis": 2365,
      "##iew": 2366,
      "##ogn": 2367,
      "##ork": 2368,
      "classification": 2369,
      "##east": 2370,
      "Cells": 2371,
      "controls": 2372,
      "##TG": 2373,
      "neuro": 2374,
      "Ph": 2375,
      "##posed": 2376,
      "PA": 2377,
      "##heli": 2378,
      "##adi": 2379,
      "length": 2380,
      "##ryst": 2381,
      "##IP": 2382,
      "cyt": 2383,
      "deletions": 2384,
      "lim": 2385,
      "##zygous": 2386,
      "feature": 2387,
      "##K4": 2388,
      "V6": 2389,
      "##over": 2390,
      "therapeutic": 2391,
      "trunc": 2392,
      "substrate": 2393,
      "repair": 2394,
      "Ar": 2395,
      "cent": 2396,
      "##plasm": 2397,
      "carcinoma": 2398,
      "Smad4": 2399,
      "germline": 2400,
      "allow": 2401,
      "equ": 2402,
      "##ogenesis": 2403,
      "affected": 2404,
      "phosphatase": 2405,
      "transfection": 2406,
      "##33": 2407,
      "while": 2408,
      "##NP": 2409,
      "##val": 2410,
      "gre": 2411,
      "splicing": 2412,
      "see": 2413,
      "generated": 2414,
      "FGFR2": 2415,
      "##est": 2416,
      "##R1": 2417,
      "Ser": 2418,
      "##TS": 2419,
      "##err": 2420,
      "##ner": 2421,
      "##63": 2422,
      "##cu": 2423,
      "overall": 2424,
      "repeat": 2425,
      "##omal": 2426,
      "subun": 2427,
      "rare": 2428,
      "##tribu": 2429,
      "##blished": 2430,
      "##ort": 2431,
      "el": 2432,
      "rati": 2433,
      "yeast": 2434,
      "##arran": 2435,
      "serum": 2436,
      "##28": 2437,
      "families": 2438,
      "Meth": 2439,
      "membrane": 2440,
      "...": 2441,
      "prof": 2442,
      "ovarian": 2443,
      "Inte": 2444,
      "particular": 2445,
      "sample": 2446,
      "Western": 2447,
      "leukemia": 2448,
      "syndrome": 2449,
      "differences": 2450,
      "##zotinib": 2451,
      "##ren": 2452,
      "##rid": 2453,
      "##tens": 2454,
      "differenti": 2455,
      "mg": 2456,
      "##ual": 2457,
      "possib": 2458,
      "##40": 2459,
      "##ild": 2460,
      "##ions": 2461,
      "##tid": 2462,
      "##F3": 2463,
      "##more": 2464,
      "PR": 2465,
      "suggests": 2466,
      "age": 2467,
      "##inant": 2468,
      "##23": 2469,
      "clus": 2470,
      "##BP": 2471,
      "codon": 2472,
      "2011": 2473,
      "buffer": 2474,
      "copy": 2475,
      "five": 2476,
      "##eth": 2477,
      "##bry": 2478,
      "##SA": 2479,
      "##ward": 2480,
      "##iqu": 2481,
      "##ule": 2482,
      "##mol": 2483,
      "##ines": 2484,
      "pattern": 2485,
      "resulting": 2486,
      "##ty": 2487,
      "##ms": 2488,
      "##ful": 2489,
      "##ysis": 2490,
      "##active": 2491,
      "helix": 2492,
      "during": 2493,
      "mamm": 2494,
      "nucleotide": 2495,
      "FA": 2496,
      "constructs": 2497,
      "individual": 2498,
      "adenocarcin": 2499,
      "##ction": 2500,
      "excl": 2501,
      "endogenous": 2502,
      "NO": 2503,
      "JAK2": 2504,
      "##blastoma": 2505,
      "##luores": 2506,
      "##view": 2507,
      "association": 2508,
      "##stan": 2509,
      "targeted": 2510,
      "figure": 2511,
      "Ac": 2512,
      "corresponding": 2513,
      "MAPK": 2514,
      "lab": 2515,
      "initi": 2516,
      "##cence": 2517,
      "##rca": 2518,
      "transduc": 2519,
      "FI": 2520,
      "Furthermore": 2521,
      "μg": 2522,
      "recogn": 2523,
      "More": 2524,
      "very": 2525,
      "##ower": 2526,
      "transformation": 2527,
      "transform": 2528,
      "embry": 2529,
      "Anal": 2530,
      "cryst": 2531,
      "tag": 2532,
      "various": 2533,
      "##ek": 2534,
      "##andard": 2535,
      "MY": 2536,
      "##cy": 2537,
      "calc": 2538,
      "block": 2539,
      "immunoprecipit": 2540,
      "hour": 2541,
      "38": 2542,
      "establ": 2543,
      "##ov": 2544,
      "##ules": 2545,
      "characterized": 2546,
      "##aired": 2547,
      "##echn": 2548,
      "##ically": 2549,
      "##restingly": 2550,
      "E2": 2551,
      "After": 2552,
      "##inal": 2553,
      "phase": 2554,
      "rearran": 2555,
      "G12": 2556,
      "medium": 2557,
      "##arent": 2558,
      "##rial": 2559,
      "thus": 2560,
      "Methods": 2561,
      "Ad": 2562,
      "epit": 2563,
      "neutral": 2564,
      "free": 2565,
      "cap": 2566,
      "recently": 2567,
      "gl": 2568,
      "dimer": 2569,
      "S3": 2570,
      "reporter": 2571,
      "95": 2572,
      "years": 2573,
      "##king": 2574,
      "##yr": 2575,
      "surface": 2576,
      "crizotinib": 2577,
      "##ors": 2578,
      "2006": 2579,
      "hem": 2580,
      ");": 2581,
      "quan": 2582,
      "MM": 2583,
      "Brca": 2584,
      "above": 2585,
      "##ults": 2586,
      "critical": 2587,
      "fail": 2588,
      "##earch": 2589,
      "IC50": 2590,
      "however": 2591,
      "aberr": 2592,
      "defined": 2593,
      "should": 2594,
      "valid": 2595,
      "##blot": 2596,
      "example": 2597,
      "##plas": 2598,
      "experiment": 2599,
      "tumorigen": 2600,
      "Patient": 2601,
      "days": 2602,
      "##app": 2603,
      "Interestingly": 2604,
      "Cons": 2605,
      "functions": 2606,
      "standard": 2607,
      "assessed": 2608,
      "incubated": 2609,
      "45": 2610,
      "##state": 2611,
      "expected": 2612,
      "Ass": 2613,
      "##ences": 2614,
      "directly": 2615,
      "Man": 2616,
      "does": 2617,
      "range": 2618,
      "concentrations": 2619,
      "here": 2620,
      "chromosome": 2621,
      "##arc": 2622,
      "if": 2623,
      "##kn": 2624,
      "Rec": 2625,
      "induce": 2626,
      "##nin": 2627,
      "##ison": 2628,
      "measured": 2629,
      "targeting": 2630,
      "Gene": 2631,
      "42": 2632,
      "Trans": 2633,
      "knock": 2634,
      "gr": 2635,
      "80": 2636,
      "##f2": 2637,
      "degr": 2638,
      "activate": 2639,
      "history": 2640,
      "tumours": 2641,
      "##58": 2642,
      "del": 2643,
      "micro": 2644,
      "indicating": 2645,
      "##ologic": 2646,
      "blo": 2647,
      "read": 2648,
      "##AA": 2649,
      "staining": 2650,
      "##point": 2651,
      "##hesis": 2652,
      "2013": 2653,
      "Aut": 2654,
      "altern": 2655,
      "##ES": 2656,
      "six": 2657,
      "##ands": 2658,
      "##otherap": 2659,
      "ben": 2660,
      "carry": 2661,
      "##phosphoryl": 2662,
      "state": 2663,
      "##ust": 2664,
      "##medi": 2665,
      "##46": 2666,
      "population": 2667,
      "subjec": 2668,
      "##BS": 2669,
      "Erb": 2670,
      "classified": 2671,
      "##art": 2672,
      "Ap": 2673,
      "peptide": 2674,
      "He": 2675,
      "Smad2": 2676,
      "gain": 2677,
      "′-": 2678,
      "##iRNA": 2679,
      "##ochemical": 2680,
      "selected": 2681,
      "##cript": 2682,
      "hypot": 2683,
      "cohor": 2684,
      "size": 2685,
      "##rest": 2686,
      "##ually": 2687,
      "GS": 2688,
      "##com": 2689,
      "activities": 2690,
      "##uble": 2691,
      "resulted": 2692,
      "##ties": 2693,
      "core": 2694,
      "KD": 2695,
      "##del": 2696,
      "##very": 2697,
      "Smad3": 2698,
      "TP53": 2699,
      "frag": 2700,
      "##helial": 2701,
      "##ult": 2702,
      "PTP": 2703,
      "increas": 2704,
      "##ulate": 2705,
      "hours": 2706,
      "##cer": 2707,
      "splice": 2708,
      "##ased": 2709,
      "##inally": 2710,
      "purif": 2711,
      "detect": 2712,
      "amplified": 2713,
      "even": 2714,
      "AP": 2715,
      "##Cl": 2716,
      "conditions": 2717,
      "catenin": 2718,
      "##ograph": 2719,
      "confer": 2720,
      "cluster": 2721,
      "NOTC": 2722,
      "orig": 2723,
      "##agenesis": 2724,
      "current": 2725,
      "##ift": 2726,
      "##orect": 2727,
      "##ince": 2728,
      "br": 2729,
      "Wh": 2730,
      "##tein": 2731,
      "##36": 2732,
      "significance": 2733,
      "Brca1": 2734,
      "##ata": 2735,
      "##ress": 2736,
      "##ssen": 2737,
      "character": 2738,
      "degrad": 2739,
      "features": 2740,
      "datab": 2741,
      "nec": 2742,
      "One": 2743,
      "Fl": 2744,
      "auto": 2745,
      "##29": 2746,
      "##ycin": 2747,
      "Ins": 2748,
      "PH": 2749,
      "consequ": 2750,
      "HIF": 2751,
      "transloc": 2752,
      "developed": 2753,
      "gel": 2754,
      "##MP": 2755,
      "proper": 2756,
      "targets": 2757,
      "overexpression": 2758,
      "frequently": 2759,
      "46": 2760,
      "2010": 2761,
      "##oform": 2762,
      "encoding": 2763,
      "before": 2764,
      "decreased": 2765,
      "seen": 2766,
      "tog": 2767,
      "rap": 2768,
      "PIP": 2769,
      "together": 2770,
      "Results": 2771,
      "##orectal": 2772,
      "##F2": 2773,
      "regulatory": 2774,
      "##lotinib": 2775,
      "receptors": 2776,
      "##tides": 2777,
      "##morph": 2778,
      "recurrent": 2779,
      "sus": 2780,
      "long": 2781,
      "inhibited": 2782,
      "tem": 2783,
      "Therefore": 2784,
      "value": 2785,
      "larg": 2786,
      "subt": 2787,
      "MYC": 2788,
      "##51": 2789,
      "Nr": 2790,
      "followed": 2791,
      "essen": 2792,
      "access": 2793,
      "inactive": 2794,
      "##til": 2795,
      "cause": 2796,
      "TSC1": 2797,
      "70": 2798,
      "dam": 2799,
      "PP": 2800,
      "estim": 2801,
      "majority": 2802,
      "mutational": 2803,
      "49": 2804,
      "implic": 2805,
      "foc": 2806,
      "##fficient": 2807,
      "impact": 2808,
      "##tional": 2809,
      "Tr": 2810,
      "##8R": 2811,
      "S4": 2812,
      "affin": 2813,
      "ratio": 2814,
      "Author": 2815,
      "considered": 2816,
      "##71": 2817,
      "chain": 2818,
      "Of": 2819,
      "##gregation": 2820,
      "lysates": 2821,
      "being": 2822,
      "##ximately": 2823,
      "basis": 2824,
      "FGFR3": 2825,
      "early": 2826,
      "forms": 2827,
      "##IC": 2828,
      "week": 2829,
      "Myc": 2830,
      "MEK1": 2831,
      "sl": 2832,
      "method": 2833,
      "integr": 2834,
      "RET": 2835,
      "prostate": 2836,
      "recent": 2837,
      "isoform": 2838,
      "combination": 2839,
      "##rog": 2840,
      "##ale": 2841,
      "ALL": 2842,
      "##otherapy": 2843,
      "harboring": 2844,
      "##oly": 2845,
      "suppor": 2846,
      "##osed": 2847,
      "suggested": 2848,
      "constitutive": 2849,
      "Nrf2": 2850,
      "side": 2851,
      "##gro": 2852,
      "rearrange": 2853,
      "41": 2854,
      "HR": 2855,
      "via": 2856,
      "EGF": 2857,
      "statis": 2858,
      "##56": 2859,
      "Analysis": 2860,
      "##tt": 2861,
      "##rior": 2862,
      "##omer": 2863,
      "groups": 2864,
      "90": 2865,
      "alone": 2866,
      "##ount": 2867,
      "##vir": 2868,
      "##kin": 2869,
      "VHL": 2870,
      "##AL": 2871,
      "##ages": 2872,
      "clones": 2873,
      "NF1": 2874,
      "##olution": 2875,
      "complexes": 2876,
      "##gor": 2877,
      "##INK4": 2878,
      "DD": 2879,
      "##00E": 2880,
      "showing": 2881,
      "44": 2882,
      "require": 2883,
      "fib": 2884,
      "need": 2885,
      "compon": 2886,
      "les": 2887,
      "isol": 2888,
      "##ality": 2889,
      "43": 2890,
      "##aken": 2891,
      "report": 2892,
      "##ucifer": 2893,
      "Immun": 2894,
      "2008": 2895,
      "p110α": 2896,
      "olig": 2897,
      "colorectal": 2898,
      "distribu": 2899,
      "HA": 2900,
      "review": 2901,
      "concentration": 2902,
      "##uciferase": 2903,
      "2005": 2904,
      "structures": 2905,
      "Dele": 2906,
      "##AP1": 2907,
      "H3": 2908,
      "Dis": 2909,
      "Similar": 2910,
      "stable": 2911,
      "##verage": 2912,
      "##etail": 2913,
      "##teria": 2914,
      "introduc": 2915,
      "IV": 2916,
      "SMAD": 2917,
      "##plied": 2918,
      "SD": 2919,
      "given": 2920,
      "##BR": 2921,
      "Moreover": 2922,
      "2012": 2923,
      "##known": 2924,
      "##led": 2925,
      "mat": 2926,
      "subsequ": 2927,
      "##ou": 2928,
      "stabil": 2929,
      "stem": 2930,
      "##uscript": 2931,
      "III": 2932,
      "PF": 2933,
      "Sequ": 2934,
      "erlotinib": 2935,
      "fl": 2936,
      "conte": 2937,
      "differentiation": 2938,
      "members": 2939,
      "HD": 2940,
      "nons": 2941,
      "##55": 2942,
      "localization": 2943,
      "##73": 2944,
      "##gn": 2945,
      "tissues": 2946,
      "gli": 2947,
      "primers": 2948,
      "##ans": 2949,
      "##OH": 2950,
      "subunit": 2951,
      "upon": 2952,
      "alternative": 2953,
      "##NC": 2954,
      "affinity": 2955,
      "regulated": 2956,
      "%,": 2957,
      "Because": 2958,
      "##ram": 2959,
      "polymorph": 2960,
      "tagged": 2961,
      "AS": 2962,
      "soft": 2963,
      "stran": 2964,
      "##48": 2965,
      "##old": 2966,
      "genome": 2967,
      "degradation": 2968,
      "characteristic": 2969,
      "ng": 2970,
      "##alian": 2971,
      "shows": 2972,
      "neo": 2973,
      "Tum": 2974,
      "##ude": 2975,
      "fusions": 2976,
      "Sign": 2977,
      "difference": 2978,
      "contains": 2979,
      "enhanced": 2980,
      "altered": 2981,
      "methods": 2982,
      "##sis": 2983,
      "TKIs": 2984,
      "signals": 2985,
      "about": 2986,
      "##ke": 2987,
      "coding": 2988,
      "##acy": 2989,
      "Figures": 2990,
      "homolog": 2991,
      "dose": 2992,
      "1997": 2993,
      "siRNA": 2994,
      "prior": 2995,
      "rat": 2996,
      "##till": 2997,
      "include": 2998,
      "sil": 2999,
      "events": 3000,
      "excep": 3001,
      "##ixed": 3002,
      "acqui": 3003,
      "##gene": 3004,
      "back": 3005,
      "##raf": 3006,
      "purified": 3007,
      "reaction": 3008,
      "GAP": 3009,
      "2004": 3010,
      "Bio": 3011,
      "2A": 3012,
      "series": 3013,
      "database": 3014,
      "##ON": 3015,
      "sim": 3016,
      "D8": 3017,
      "##ique": 3018,
      "At": 3019,
      "##aneous": 3020,
      "Arg": 3021,
      "caused": 3022,
      "subset": 3023,
      "bel": 3024,
      "##ables": 3025,
      "elec": 3026,
      "unknown": 3027,
      "##brid": 3028,
      "adenocarcinoma": 3029,
      "53": 3030,
      "leading": 3031,
      "established": 3032,
      "HCC": 3033,
      "percent": 3034,
      "##versity": 3035,
      "2007": 3036,
      "47": 3037,
      "##TA": 3038,
      "immunoblot": 3039,
      "approach": 3040,
      "##igned": 3041,
      "specificity": 3042,
      "##ax": 3043,
      "2000": 3044,
      "compound": 3045,
      "blood": 3046,
      "able": 3047,
      "Co": 3048,
      "calculated": 3049,
      "key": 3050,
      "##ify": 3051,
      "##MC": 3052,
      "clear": 3053,
      "72": 3054,
      "specimens": 3055,
      "##88": 3056,
      "L85": 3057,
      "disco": 3058,
      "Pre": 3059,
      "median": 3060,
      "##BC": 3061,
      "responses": 3062,
      "##96": 3063,
      "##hood": 3064,
      "##go": 3065,
      "marked": 3066,
      "carried": 3067,
      "##blas": 3068,
      "essential": 3069,
      "Asp": 3070,
      "##umm": 3071,
      "contribute": 3072,
      "##be": 3073,
      "prot": 3074,
      "1A": 3075,
      "##BD": 3076,
      "##ifi": 3077,
      "approximately": 3078,
      "p16INK4": 3079,
      "wt": 3080,
      "Expression": 3081,
      "hemat": 3082,
      "another": 3083,
      "image": 3084,
      "collec": 3085,
      "fact": 3086,
      "heterod": 3087,
      "ROS": 3088,
      "##erg": 3089,
      "ach": 3090,
      "terminus": 3091,
      "insertion": 3092,
      "separ": 3093,
      "##alling": 3094,
      "##ynt": 3095,
      "possibility": 3096,
      "effector": 3097,
      "Mate": 3098,
      "progn": 3099,
      "promote": 3100,
      "mL": 3101,
      "infec": 3102,
      "p85": 3103,
      "sequenced": 3104,
      "mutagenesis": 3105,
      "mit": 3106,
      "double": 3107,
      "ste": 3108,
      "evaluated": 3109,
      "hotspots": 3110,
      "##enib": 3111,
      "bp": 3112,
      "L858R": 3113,
      "Neutral": 3114,
      "cer": 3115,
      "rece": 3116,
      "cytoplasm": 3117,
      "##//": 3118,
      "##mediate": 3119,
      "provided": 3120,
      "##ety": 3121,
      "frame": 3122,
      "stage": 3123,
      "##luorescence": 3124,
      "##not": 3125,
      "##normal": 3126,
      "diagnosis": 3127,
      "##itrogen": 3128,
      "cohort": 3129,
      "2001": 3130,
      "stimulation": 3131,
      "54": 3132,
      "MD": 3133,
      "2009": 3134,
      "ERBB2": 3135,
      "SDS": 3136,
      "Two": 3137,
      "##anes": 3138,
      "dest": 3139,
      "##aps": 3140,
      "polymorphism": 3141,
      "metastatic": 3142,
      "pV": 3143,
      "p21": 3144,
      "post": 3145,
      "://": 3146,
      "##ced": 3147,
      "versus": 3148,
      "##ttp": 3149,
      "displayed": 3150,
      "transforming": 3151,
      "##bined": 3152,
      "Col": 3153,
      "##mit": 3154,
      "293": 3155,
      "achie": 3156,
      "accum": 3157,
      "support": 3158,
      "##ray": 3159,
      "ITD": 3160,
      "context": 3161,
      "remaining": 3162,
      "crystal": 3163,
      "pur": 3164,
      "05": 3165,
      "http": 3166,
      "mammalian": 3167,
      "observations": 3168,
      "##reg": 3169,
      "Data": 3170,
      "PK": 3171,
      "##pen": 3172,
      "56": 3173,
      "luciferase": 3174,
      "##pite": 3175,
      "diff": 3176,
      "embryonic": 3177,
      "SC": 3178,
      "GISTs": 3179,
      "##V6": 3180,
      "enzyme": 3181,
      "##UN": 3182,
      "2002": 3183,
      "##PM": 3184,
      "correlation": 3185,
      "hyper": 3186,
      "oncogene": 3187,
      "day": 3188,
      "##EM": 3189,
      "dominant": 3190,
      "acquired": 3191,
      "CBL": 3192,
      "detail": 3193,
      "induction": 3194,
      "greater": 3195,
      "indicates": 3196,
      "Inv": 3197,
      "ET": 3198,
      "##ute": 3199,
      "##ration": 3200,
      "##ank": 3201,
      "1998": 3202,
      "strongly": 3203,
      "concl": 3204,
      "##ostic": 3205,
      "remains": 3206,
      "molecule": 3207,
      "transcript": 3208,
      "59": 3209,
      "pVHL": 3210,
      "still": 3211,
      "spectr": 3212,
      "2003": 3213,
      "isolated": 3214,
      "myeloid": 3215,
      "TR": 3216,
      "Inc": 3217,
      "homo": 3218,
      "times": 3219,
      "Immuno": 3220,
      "potent": 3221,
      "##less": 3222,
      "relatively": 3223,
      "##F1": 3224,
      "##ww": 3225,
      "tumorigenesis": 3226,
      "defects": 3227,
      "products": 3228,
      "exhibited": 3229,
      "##down": 3230,
      "du": 3231,
      "genot": 3232,
      "them": 3233,
      "##ice": 3234,
      "De": 3235,
      "involving": 3236,
      "MCF": 3237,
      "propor": 3238,
      "studied": 3239,
      "abnormal": 3240,
      "kit": 3241,
      "##BM": 3242,
      "##ised": 3243,
      "elev": 3244,
      "##come": 3245,
      "www": 3246,
      "malignanc": 3247,
      "##ning": 3248,
      "comparison": 3249,
      "##obic": 3250,
      "recru": 3251,
      "##OX": 3252,
      "##iciency": 3253,
      "##mented": 3254,
      "PC": 3255,
      "NRAS": 3256,
      "##ters": 3257,
      "inactivation": 3258,
      "criteria": 3259,
      "##87": 3260,
      "pr": 3261,
      "adj": 3262,
      "GD": 3263,
      "Le": 3264,
      "seem": 3265,
      "pH": 3266,
      "adv": 3267,
      "##urren": 3268,
      "##66": 3269,
      "##tom": 3270,
      "75": 3271,
      "hydroph": 3272,
      "relevant": 3273,
      "leads": 3274,
      "3T3": 3275,
      "##opo": 3276,
      "gly": 3277,
      "##acr": 3278,
      "biological": 3279,
      "hotspot": 3280,
      "##ace": 3281,
      "vi": 3282,
      "nM": 3283,
      "transi": 3284,
      "SR": 3285,
      "carcinomas": 3286,
      "invas": 3287,
      "##omes": 3288,
      "##ocytes": 3289,
      "ful": 3290,
      "investigated": 3291,
      "chemotherapy": 3292,
      "effective": 3293,
      "AT": 3294,
      "melanomas": 3295,
      "Tyr": 3296,
      "##C1": 3297,
      "ABL": 3298,
      "Uni": 3299,
      "Mutation": 3300,
      "eight": 3301,
      "Sc": 3302,
      "##MT": 3303,
      "characteriz": 3304,
      "lesions": 3305,
      "##GC": 3306,
      "partial": 3307,
      "malignant": 3308,
      "pock": 3309,
      "damage": 3310,
      "##32": 3311,
      "break": 3312,
      "molecules": 3313,
      "ERBB": 3314,
      "##OL": 3315,
      "inactiv": 3316,
      "##rials": 3317,
      "##ma": 3318,
      "gast": 3319,
      "unique": 3320,
      "power": 3321,
      "Cd": 3322,
      "Finally": 3323,
      "published": 3324,
      "Vari": 3325,
      "Sec": 3326,
      "##170": 3327,
      "NR": 3328,
      "Research": 3329,
      "##ference": 3330,
      "##49": 3331,
      "overexpress": 3332,
      "Ab": 3333,
      "CC": 3334,
      "##adic": 3335,
      "properties": 3336,
      "selection": 3337,
      "##GH": 3338,
      "##rogen": 3339,
      "Here": 3340,
      "##lex": 3341,
      "##aling": 3342,
      "synt": 3343,
      "57": 3344,
      "extracellular": 3345,
      "cas": 3346,
      "fraction": 3347,
      "poor": 3348,
      "manu": 3349,
      "##pared": 3350,
      "observation": 3351,
      "death": 3352,
      "next": 3353,
      "##37": 3354,
      "interact": 3355,
      "Thr": 3356,
      "Patients": 3357,
      "reduction": 3358,
      "GST": 3359,
      "##57": 3360,
      "##facture": 3361,
      "##antly": 3362,
      "##olecular": 3363,
      "##).": 3364,
      "demonstrate": 3365,
      "assessment": 3366,
      "seven": 3367,
      "hydrophobic": 3368,
      "manufacture": 3369,
      "##man": 3370,
      "mak": 3371,
      "phys": 3372,
      "CT": 3373,
      "destabil": 3374,
      "##imin": 3375,
      "super": 3376,
      "##izing": 3377,
      "MMR": 3378,
      "pocket": 3379,
      "carrying": 3380,
      "locus": 3381,
      "SH": 3382,
      "cultured": 3383,
      "radi": 3384,
      "ligase": 3385,
      "led": 3386,
      "positions": 3387,
      "##ital": 3388,
      "2B": 3389,
      "null": 3390,
      "##cussion": 3391,
      "TET": 3392,
      "##eled": 3393,
      "combined": 3394,
      "Deleterious": 3395,
      "Cy": 3396,
      "##lin": 3397,
      "add": 3398,
      "##embrane": 3399,
      "##aging": 3400,
      "##afenib": 3401,
      "1B": 3402,
      "whole": 3403,
      "##ire": 3404,
      "SMO": 3405,
      "##roid": 3406,
      "##ifications": 3407,
      "intermediate": 3408,
      "Na": 3409,
      "repeats": 3410,
      "few": 3411,
      "limited": 3412,
      "across": 3413,
      "CI": 3414,
      "ErbB2": 3415,
      "##unctional": 3416,
      "hybrid": 3417,
      "though": 3418,
      "##plication": 3419,
      "En": 3420,
      "##itor": 3421,
      "##hist": 3422,
      "manufacturer": 3423,
      "trials": 3424,
      "##ulin": 3425,
      "weeks": 3426,
      "BCR": 3427,
      "frequent": 3428,
      "smo": 3429,
      "necess": 3430,
      "##lue": 3431,
      "profil": 3432,
      "##asis": 3433,
      "##rich": 3434,
      "bond": 3435,
      "##wit": 3436,
      "##EL": 3437,
      ")-": 3438,
      "bone": 3439,
      "##ators": 3440,
      "##ociation": 3441,
      "##ife": 3442,
      "##encing": 3443,
      "remo": 3444,
      "vol": 3445,
      "manner": 3446,
      "toward": 3447,
      "transformed": 3448,
      "##ION": 3449,
      "pair": 3450,
      "##meric": 3451,
      "DL": 3452,
      "Lys": 3453,
      "##83": 3454,
      "bar": 3455,
      "CDK4": 3456,
      "rates": 3457,
      "play": 3458,
      "heterozygous": 3459,
      "##ocol": 3460,
      "larger": 3461,
      "Americ": 3462,
      "##SH": 3463,
      "##52": 3464,
      "##ick": 3465,
      "52": 3466,
      "##onucle": 3467,
      "1999": 3468,
      "endomet": 3469,
      "##urrence": 3470,
      "average": 3471,
      "Consistent": 3472,
      "binds": 3473,
      "align": 3474,
      "STAT3": 3475,
      "squ": 3476,
      "CH": 3477,
      "interface": 3478,
      "##GT": 3479,
      "distribution": 3480,
      "fav": 3481,
      "star": 3482,
      "inst": 3483,
      "focus": 3484,
      "##ourn": 3485,
      "sufficient": 3486,
      "electro": 3487,
      "driven": 3488,
      "##92": 3489,
      "gu": 3490,
      "cre": 3491,
      "University": 3492,
      "reflec": 3493,
      "added": 3494,
      "fibro": 3495,
      "protocol": 3496,
      "methylation": 3497,
      "transactivation": 3498,
      "COS": 3499,
      "summ": 3500,
      "##dds": 3501,
      "Over": 3502,
      "##olar": 3503,
      "##ateg": 3504,
      "how": 3505,
      "##ERT": 3506,
      "TC": 3507,
      "##poradic": 3508,
      "##itial": 3509,
      "##tech": 3510,
      "##arm": 3511,
      "hypothesis": 3512,
      "##ras": 3513,
      "detection": 3514,
      "Val": 3515,
      "driver": 3516,
      "construct": 3517,
      "##45": 3518,
      "contact": 3519,
      "defective": 3520,
      "micros": 3521,
      "constitutively": 3522,
      "cis": 3523,
      "##ints": 3524,
      "directed": 3525,
      "##ists": 3526,
      "58": 3527,
      "##ik": 3528,
      "%),": 3529,
      "linked": 3530,
      "##ode": 3531,
      "##bers": 3532,
      "##tically": 3533,
      "IDH1": 3534,
      "El": 3535,
      "box": 3536,
      "Techn": 3537,
      "##me": 3538,
      "Invitrogen": 3539,
      "reports": 3540,
      "##amic": 3541,
      "suppression": 3542,
      "##platin": 3543,
      "NOTCH1": 3544,
      "##IM": 3545,
      "Bios": 3546,
      "##urn": 3547,
      "deficient": 3548,
      "01": 3549,
      "Sh": 3550,
      "primer": 3551,
      "##alf": 3552,
      "Kit": 3553,
      "testing": 3554,
      "ROS1": 3555,
      "3A": 3556,
      "strateg": 3557,
      "epithelial": 3558,
      "impaired": 3559,
      "##phosphorylation": 3560,
      "##iel": 3561,
      "pers": 3562,
      "##X1": 3563,
      "##ium": 3564,
      "Materials": 3565,
      "##icacy": 3566,
      "nature": 3567,
      "work": 3568,
      "green": 3569,
      "lymphoma": 3570,
      "basal": 3571,
      "##AGE": 3572,
      "##actions": 3573,
      "##G12": 3574,
      "##ops": 3575,
      "##69": 3576,
      "+/": 3577,
      "##ulations": 3578,
      "T7": 3579,
      "##arrow": 3580,
      "##ume": 3581,
      "##inos": 3582,
      "panc": 3583,
      "##300": 3584,
      "##arily": 3585,
      "extens": 3586,
      "appear": 3587,
      "carb": 3588,
      "dig": 3589,
      "##isted": 3590,
      "vir": 3591,
      "##by": 3592,
      "RUN": 3593,
      "##ware": 3594,
      "Protein": 3595,
      "Both": 3596,
      "consider": 3597,
      "elevated": 3598,
      "51": 3599,
      "##pid": 3600,
      "−.": 3601,
      "1996": 3602,
      "signalling": 3603,
      "Inde": 3604,
      "depend": 3605,
      "##itt": 3606,
      "insertions": 3607,
      "##F3B1": 3608,
      "ed": 3609,
      "yet": 3610,
      "##enter": 3611,
      "##rose": 3612,
      "##ides": 3613,
      "##lying": 3614,
      "##ier": 3615,
      "subjected": 3616,
      "Am": 3617,
      "reverse": 3618,
      "biochemical": 3619,
      "lane": 3620,
      "61": 3621,
      "neuroblastoma": 3622,
      "quantit": 3623,
      "general": 3624,
      "##ylated": 3625,
      "##ssive": 3626,
      "log": 3627,
      "Addition": 3628,
      "base": 3629,
      "##isting": 3630,
      "knockdown": 3631,
      "##omp": 3632,
      "##SS": 3633,
      "sporadic": 3634,
      "Manuscript": 3635,
      "rather": 3636,
      "##apatinib": 3637,
      "unable": 3638,
      "increasing": 3639,
      "left": 3640,
      "American": 3641,
      "##iting": 3642,
      "##ger": 3643,
      "benef": 3644,
      "##ring": 3645,
      "##totic": 3646,
      "##NF": 3647,
      "Indeed": 3648,
      "##ING": 3649,
      "##vere": 3650,
      "colony": 3651,
      "##allel": 3652,
      "vis": 3653,
      "##plastic": 3654,
      "Us": 3655,
      "inhibitory": 3656,
      "Rho": 3657,
      "presented": 3658,
      "FLAG": 3659,
      "event": 3660,
      "often": 3661,
      "500": 3662,
      "##EC": 3663,
      "##89": 3664,
      "SNP": 3665,
      "right": 3666,
      "FGF": 3667,
      "heterodimer": 3668,
      "Me": 3669,
      "clinically": 3670,
      "Institu": 3671,
      "##Download": 3672,
      "μM": 3673,
      "Struc": 3674,
      "characteristics": 3675,
      "##gram": 3676,
      "repress": 3677,
      "Discussion": 3678,
      "specifically": 3679,
      "BAC": 3680,
      "##standing": 3681,
      "washed": 3682,
      "correlated": 3683,
      "cross": 3684,
      "appears": 3685,
      "grade": 3686,
      "rearrangements": 3687,
      "screening": 3688,
      "proportion": 3689,
      "Ala": 3690,
      "cannot": 3691,
      "##abor": 3692,
      "##ograf": 3693,
      "Sig": 3694,
      "55": 3695,
      "help": 3696,
      "His": 3697,
      "##ads": 3698,
      "initial": 3699,
      "top": 3700,
      "##andom": 3701,
      "##98": 3702,
      "odds": 3703,
      "blue": 3704,
      "identification": 3705,
      "product": 3706,
      "##phil": 3707,
      "plasma": 3708,
      "dimerization": 3709,
      "made": 3710,
      "##istry": 3711,
      "decrease": 3712,
      "formed": 3713,
      "FISH": 3714,
      "score": 3715,
      "efficacy": 3716,
      "transduced": 3717,
      "far": 3718,
      "Sigma": 3719,
      "restr": 3720,
      "phosphate": 3721,
      "retro": 3722,
      "stimulated": 3723,
      "step": 3724,
      "##eli": 3725,
      "strand": 3726,
      "half": 3727,
      "##edig": 3728,
      "##ologies": 3729,
      "affecting": 3730,
      "SF3B1": 3731,
      "View": 3732,
      "consequences": 3733,
      "rapid": 3734,
      "BCL": 3735,
      "selective": 3736,
      "##vent": 3737,
      "put": 3738,
      "nucleus": 3739,
      "recognition": 3740,
      "##izes": 3741,
      "NM": 3742,
      "fragment": 3743,
      "##67": 3744,
      "E3": 3745,
      "compe": 3746,
      "While": 3747,
      "stained": 3748,
      "influ": 3749,
      "tet": 3750,
      "V600E": 3751,
      "Glu": 3752,
      "Among": 3753,
      "##opath": 3754,
      "Using": 3755,
      "##binant": 3756,
      "##uber": 3757,
      "occurs": 3758,
      "Gly": 3759,
      "##idate": 3760,
      "Pl": 3761,
      "##enograf": 3762,
      "substan": 3763,
      "diss": 3764,
      "therapies": 3765,
      "plates": 3766,
      "numbers": 3767,
      "Activ": 3768,
      "SU": 3769,
      "percentage": 3770,
      "##inc": 3771,
      "Tumor": 3772,
      "MLH1": 3773,
      "emp": 3774,
      "001": 3775,
      "3B": 3776,
      "substrates": 3777,
      "advanced": 3778,
      "##ok": 3779,
      "Supplemental": 3780,
      "BAR": 3781,
      "CS": 3782,
      "##icity": 3783,
      "aberrant": 3784,
      "fil": 3785,
      "repl": 3786,
      "JM": 3787,
      "##tre": 3788,
      "minim": 3789,
      "predict": 3790,
      "weak": 3791,
      "V5": 3792,
      "random": 3793,
      "##ope": 3794,
      "##pose": 3795,
      "FIG": 3796,
      "ir": 3797,
      "prepared": 3798,
      "Functional": 3799,
      "Cor": 3800,
      "CDKN": 3801,
      "necessary": 3802,
      "96": 3803,
      "vs": 3804,
      "index": 3805,
      "##troduction": 3806,
      "short": 3807,
      "transfer": 3808,
      "importance": 3809,
      "##testin": 3810,
      "stably": 3811,
      "options": 3812,
      "Sch": 3813,
      "probe": 3814,
      "hydrogen": 3815,
      "##anta": 3816,
      "G7": 3817,
      "If": 3818,
      "##everal": 3819,
      "act": 3820,
      "che": 3821,
      "injec": 3822,
      "normalized": 3823,
      "Several": 3824,
      "##plemented": 3825,
      "marrow": 3826,
      "##tics": 3827,
      "conj": 3828,
      "cur": 3829,
      "exposed": 3830,
      "arrest": 3831,
      "##ood": 3832,
      "dens": 3833,
      "##MA": 3834,
      "##WT": 3835,
      "tab": 3836,
      "4A": 3837,
      "bec": 3838,
      "proposed": 3839,
      "lanes": 3840,
      "##ched": 3841,
      "##oles": 3842,
      "##fib": 3843,
      "generation": 3844,
      "MA": 3845,
      "contained": 3846,
      "Germ": 3847,
      "##44": 3848,
      "p16INK4a": 3849,
      "Med": 3850,
      "bro": 3851,
      "version": 3852,
      "##120": 3853,
      "agree": 3854,
      "predis": 3855,
      "isoforms": 3856,
      "BARD1": 3857,
      "dys": 3858,
      "biops": 3859,
      "Br": 3860,
      "brain": 3861,
      "experimental": 3862,
      "U2": 3863,
      "##Fs": 3864,
      "shRNA": 3865,
      "preval": 3866,
      "spectrum": 3867,
      "RING": 3868,
      "swit": 3869,
      "carriers": 3870,
      "lapatinib": 3871,
      "USA": 3872,
      "##encies": 3873,
      "When": 3874,
      "FGFR1": 3875,
      "##K293": 3876,
      "##perature": 3877,
      "investigate": 3878,
      "provides": 3879,
      "functionally": 3880,
      "estimated": 3881,
      "fully": 3882,
      "HEK293": 3883,
      "##blasts": 3884,
      "1995": 3885,
      "subsequent": 3886,
      "enti": 3887,
      "##ively": 3888,
      "##bit": 3889,
      "##armac": 3890,
      "den": 3891,
      "labeled": 3892,
      "LOH": 3893,
      "##amous": 3894,
      "parent": 3895,
      "##ublished": 3896,
      "hep": 3897,
      "##ilit": 3898,
      "##plicate": 3899,
      "TET2": 3900,
      "occurred": 3901,
      "retrovir": 3902,
      "##lation": 3903,
      "##etal": 3904,
      "favor": 3905,
      "noted": 3906,
      "comparable": 3907,
      "##hip": 3908,
      "##put": 3909,
      "involve": 3910,
      "##insic": 3911,
      "dil": 3912,
      "mm": 3913,
      "chromosomal": 3914,
      "empty": 3915,
      "ubiquitination": 3916,
      "homozygous": 3917,
      "responsible": 3918,
      "deple": 3919,
      "seg": 3920,
      "##opoie": 3921,
      "sour": 3922,
      "failed": 3923,
      "May": 3924,
      "##ird": 3925,
      "MP": 3926,
      "putative": 3927,
      "Previous": 3928,
      "##OD": 3929,
      "S6K": 3930,
      "Cre": 3931,
      "agents": 3932,
      "temperature": 3933,
      "150": 3934,
      "blotting": 3935,
      "codons": 3936,
      "colonies": 3937,
      "PAGE": 3938,
      "##1A": 3939,
      "contain": 3940,
      "facilit": 3941,
      "xenograf": 3942,
      "##ady": 3943,
      "glut": 3944,
      "Santa": 3945,
      "anim": 3946,
      "64": 3947,
      "ES": 3948,
      "understanding": 3949,
      "impro": 3950,
      "heterogene": 3951,
      "malignancies": 3952,
      "histone": 3953,
      "Signaling": 3954,
      "diges": 3955,
      "Ig": 3956,
      "##elihood": 3957,
      "recombination": 3958,
      "pen": 3959,
      "extracted": 3960,
      "##anine": 3961,
      "##94": 3962,
      "predom": 3963,
      "highl": 3964,
      "translocation": 3965,
      "MLL": 3966,
      "##omen": 3967,
      "others": 3968,
      "68": 3969,
      "##ynamic": 3970,
      "AKT1": 3971,
      "disrupt": 3972,
      "##urine": 3973,
      "components": 3974,
      "Cul": 3975,
      "##arcoma": 3976,
      "restric": 3977,
      "##UT": 3978,
      "exclus": 3979,
      "##acts": 3980,
      "Clinical": 3981,
      "##rolifer": 3982,
      "##osp": 3983,
      "##journ": 3984,
      "##uration": 3985,
      "Introduction": 3986,
      "foci": 3987,
      "skin": 3988,
      "intens": 3989,
      "morph": 3990,
      "much": 3991,
      "##opoietic": 3992,
      "metastasis": 3993,
      "##oper": 3994,
      "Onc": 3995,
      "eth": 3996,
      "By": 3997,
      "##86": 3998,
      "mapp": 3999,
      "R6": 4000,
      "suc": 4001,
      "##merase": 4002,
      "##aches": 4003,
      "alteration": 4004,
      "cisplatin": 4005,
      "child": 4006,
      "conserv": 4007,
      "collected": 4008,
      "IR": 4009,
      "##ns": 4010,
      "abrog": 4011,
      "order": 4012,
      "##gi": 4013,
      "complement": 4014,
      "NS": 4015,
      "agreement": 4016,
      "##aw": 4017,
      "##ures": 4018,
      "likelihood": 4019,
      "liver": 4020,
      "endometrial": 4021,
      "##ler": 4022,
      "##bility": 4023,
      "software": 4024,
      "GBM": 4025,
      "TA": 4026,
      "BL": 4027,
      "mig": 4028,
      "##H6": 4029,
      "inhibits": 4030,
      "techn": 4031,
      "##hens": 4032,
      "##tis": 4033,
      "drugs": 4034,
      "better": 4035,
      "##ided": 4036,
      "conduc": 4037,
      "acet": 4038,
      "commonly": 4039,
      "##nal": 4040,
      ")(": 4041,
      "pedig": 4042,
      "##lob": 4043,
      "##pend": 4044,
      "regulate": 4045,
      "##elf": 4046,
      "Leu": 4047,
      "##65": 4048,
      "incidence": 4049,
      "note": 4050,
      "species": 4051,
      "MSI": 4052,
      "RUNX1": 4053,
      "##ights": 4054,
      "Cdk": 4055,
      "##2C": 4056,
      "myc": 4057,
      "grown": 4058,
      "##ga": 4059,
      "63": 4060,
      "IN": 4061,
      "##43": 4062,
      "apparent": 4063,
      "mass": 4064,
      "received": 4065,
      "Since": 4066,
      "##asatinib": 4067,
      "ras": 4068,
      "##here": 4069,
      "##CAG": 4070,
      "APC": 4071,
      "##RE": 4072,
      "approved": 4073,
      "mes": 4074,
      "##alth": 4075,
      "underst": 4076,
      "fram": 4077,
      "since": 4078,
      "##UL": 4079,
      "##itol": 4080,
      "67": 4081,
      "chr": 4082,
      "categor": 4083,
      "##acent": 4084,
      "With": 4085,
      "now": 4086,
      "##ruz": 4087,
      "Kras": 4088,
      "##tinu": 4089,
      "Each": 4090,
      "disord": 4091,
      "cytok": 4092,
      "Qu": 4093,
      "tuber": 4094,
      "doc": 4095,
      "Acc": 4096,
      "disc": 4097,
      "immunohist": 4098,
      "murine": 4099,
      "65": 4100,
      "##ising": 4101,
      "view": 4102,
      "accumulation": 4103,
      "entire": 4104,
      "##III": 4105,
      "MDS": 4106,
      "arg": 4107,
      "##ibr": 4108,
      "G1": 4109,
      "cytoplasmic": 4110,
      "dos": 4111,
      "probability": 4112,
      "Full": 4113,
      "certain": 4114,
      "acute": 4115,
      "defect": 4116,
      "Cruz": 4117,
      "##trans": 4118,
      "##pecific": 4119,
      "fixed": 4120,
      "turn": 4121,
      "fem": 4122,
      "##eptides": 4123,
      "Notably": 4124,
      "##W7": 4125,
      "##resh": 4126,
      "potentially": 4127,
      "##ocl": 4128,
      "##HO": 4129,
      "nonsense": 4130,
      "1994": 4131,
      "RTK": 4132,
      "##otides": 4133,
      "squamous": 4134,
      "##R2": 4135,
      "Most": 4136,
      "##ext": 4137,
      "PBS": 4138,
      "produced": 4139,
      "MSH2": 4140,
      "Other": 4141,
      "central": 4142,
      "##ination": 4143,
      "VUSs": 4144,
      "293T": 4145,
      "whose": 4146,
      "##BCL": 4147,
      "ox": 4148,
      "phosphop": 4149,
      "probably": 4150,
      "cand": 4151,
      "prediction": 4152,
      "Phosph": 4153,
      "particularly": 4154,
      "CF": 4155,
      "EZ": 4156,
      "useful": 4157,
      "##ography": 4158,
      "sor": 4159,
      "##itu": 4160,
      "RAC": 4161,
      "##ulf": 4162,
      "recruit": 4163,
      "##preg": 4164,
      "400": 4165,
      "PHTS": 4166,
      "##vered": 4167,
      "##pha": 4168,
      "transition": 4169,
      "approaches": 4170,
      "currently": 4171,
      "homologous": 4172,
      "roles": 4173,
      "##ounts": 4174,
      "classes": 4175,
      "##amine": 4176,
      "##CTG": 4177,
      "PMS": 4178,
      "62": 4179,
      "aacr": 4180,
      "ple": 4181,
      "apoptotic": 4182,
      "##amide": 4183,
      "broad": 4184,
      "unt": 4185,
      "##omy": 4186,
      "origin": 4187,
      "##rising": 4188,
      "date": 4189,
      "lipid": 4190,
      "overl": 4191,
      "identical": 4192,
      "Similarly": 4193,
      "##2V": 4194,
      "represents": 4195,
      "amount": 4196,
      "deg": 4197,
      "prec": 4198,
      "despite": 4199,
      "TCGA": 4200,
      "expos": 4201,
      "implicated": 4202,
      "chromatin": 4203,
      "66": 4204,
      "CO": 4205,
      "year": 4206,
      "##ermal": 4207,
      "##ochemistry": 4208,
      "below": 4209,
      "table": 4210,
      "##prehens": 4211,
      "intrinsic": 4212,
      "benefit": 4213,
      "BT": 4214,
      "GC": 4215,
      "Tris": 4216,
      "Stud": 4217,
      "ham": 4218,
      "##yroid": 4219,
      "CRC": 4220,
      "##6A": 4221,
      "advant": 4222,
      "along": 4223,
      "##journals": 4224,
      "4B": 4225,
      "##ARC": 4226,
      "Li": 4227,
      "##reatic": 4228,
      "introduced": 4229,
      "final": 4230,
      "phenotypes": 4231,
      "done": 4232,
      "DI": 4233,
      "pR": 4234,
      "clone": 4235,
      "recombinant": 4236,
      "nmol": 4237,
      "##oss": 4238,
      "hydroly": 4239,
      "outcome": 4240,
      "##ystems": 4241,
      "bars": 4242,
      "hand": 4243,
      "##utes": 4244,
      "PE": 4245,
      "Overall": 4246,
      "upstream": 4247,
      "upreg": 4248,
      "1C": 4249,
      "degree": 4250,
      "NC": 4251,
      "glyc": 4252,
      "plate": 4253,
      "polymerase": 4254,
      "plays": 4255,
      "##ha": 4256,
      "##77": 4257,
      "DLBCL": 4258,
      "94": 4259,
      "##ustr": 4260,
      "except": 4261,
      "volume": 4262,
      "LS": 4263,
      "##uded": 4264,
      "severe": 4265,
      "evolution": 4266,
      "lacking": 4267,
      "aacrjournals": 4268,
      "S5": 4269,
      "serine": 4270,
      "minutes": 4271,
      "transiently": 4272,
      "##atories": 4273,
      "##ittle": 4274,
      "exten": 4275,
      "Molecular": 4276,
      "sun": 4277,
      "quantif": 4278,
      "backgro": 4279,
      "tuberin": 4280,
      "##rance": 4281,
      "load": 4282,
      "##went": 4283,
      "truncated": 4284,
      "R13": 4285,
      "##imers": 4286,
      "detectable": 4287,
      "Flag": 4288,
      "##cepti": 4289,
      "tail": 4290,
      "PIPK": 4291,
      "alignment": 4292,
      "diagnosed": 4293,
      "VE": 4294,
      "##plex": 4295,
      "##az": 4296,
      "intrac": 4297,
      "##oster": 4298,
      "##eling": 4299,
      "powerpoint": 4300,
      "GTPase": 4301,
      "call": 4302,
      "##ision": 4303,
      "##plasia": 4304,
      "Ke": 4305,
      "##abol": 4306,
      "bear": 4307,
      "patterns": 4308,
      "##sp": 4309,
      "##ash": 4310,
      "fluorescence": 4311,
      "##ne": 4312,
      "##ze": 4313,
      "2017": 4314,
      "##oclonal": 4315,
      "supplemented": 4316,
      "tox": 4317,
      "near": 4318,
      "kD": 4319,
      "##M1": 4320,
      "methyl": 4321,
      "docum": 4322,
      "ren": 4323,
      "STAT5": 4324,
      "##plo": 4325,
      "G719": 4326,
      "validation": 4327,
      "conformational": 4328,
      "suscepti": 4329,
      "##ensus": 4330,
      "achieved": 4331,
      "##istance": 4332,
      "Sub": 4333,
      "pass": 4334,
      "program": 4335,
      "variety": 4336,
      "PDGF": 4337,
      "Labor": 4338,
      "##OC": 4339,
      "generate": 4340,
      "instability": 4341,
      "##pri": 4342,
      "Next": 4343,
      "address": 4344,
      "pathogenicity": 4345,
      "NA": 4346,
      "DN": 4347,
      "completely": 4348,
      "##ivalent": 4349,
      "nine": 4350,
      "##testinal": 4351,
      "harves": 4352,
      "cut": 4353,
      "typ": 4354,
      "ERK1": 4355,
      "abol": 4356,
      "%).": 4357,
      "Import": 4358,
      "plasmids": 4359,
      "adjacent": 4360,
      "unli": 4361,
      "interacts": 4362,
      "helic": 4363,
      "##ural": 4364,
      "transcripts": 4365,
      "ERCC": 4366,
      "exhibit": 4367,
      "##rep": 4368,
      "solid": 4369,
      "##WS": 4370,
      "reas": 4371,
      "82": 4372,
      "##abbit": 4373,
      "conducted": 4374,
      "##eded": 4375,
      "pancreatic": 4376,
      "diverse": 4377,
      "FB": 4378,
      "pack": 4379,
      "##amycin": 4380,
      "immunoprecipitated": 4381,
      "##oblastoma": 4382,
      "##ck": 4383,
      "##ationship": 4384,
      "##affin": 4385,
      "];": 4386,
      "##ico": 4387,
      "##62": 4388,
      "Human": 4389,
      "vectors": 4390,
      "BaF3": 4391,
      "tryp": 4392,
      "##ap1": 4393,
      "DM": 4394,
      "pool": 4395,
      "##ances": 4396,
      "Class": 4397,
      "##work": 4398,
      "##most": 4399,
      "##LS": 4400,
      "RES": 4401,
      "##ham": 4402,
      "##ocyte": 4403,
      "rest": 4404,
      "incor": 4405,
      "causality": 4406,
      "underlying": 4407,
      "close": 4408,
      "switch": 4409,
      "viability": 4410,
      "third": 4411,
      "trial": 4412,
      "smok": 4413,
      "##LA": 4414,
      "##esh": 4415,
      "##ocytic": 4416,
      "##atch": 4417,
      "##39": 4418,
      "##rimer": 4419,
      "visual": 4420,
      "conjug": 4421,
      "partially": 4422,
      "##otal": 4423,
      "##f3": 4424,
      "representative": 4425,
      "Biotech": 4426,
      "success": 4427,
      "instruc": 4428,
      "microsc": 4429,
      "##31": 4430,
      "2C": 4431,
      "##1775": 4432,
      "little": 4433,
      "reviewed": 4434,
      "int": 4435,
      "cys": 4436,
      "##ogenes": 4437,
      "familial": 4438,
      "##PC": 4439,
      "##90M": 4440,
      "MSH6": 4441,
      "never": 4442,
      "later": 4443,
      "##otic": 4444,
      "PIPKII": 4445,
      "applied": 4446,
      "Second": 4447,
      "##prehensive": 4448,
      "##owled": 4449,
      "##fibrom": 4450,
      "respond": 4451,
      "causing": 4452,
      "##anger": 4453,
      "transduction": 4454,
      "Importantly": 4455,
      "KE": 4456,
      "−/": 4457,
      "IVS": 4458,
      "chronic": 4459,
      "Keap1": 4460,
      "##hy": 4461,
      "prom": 4462,
      "moder": 4463,
      "induces": 4464,
      "thereby": 4465,
      "##Open": 4466,
      "figureOpen": 4467,
      "DISC": 4468,
      "Des": 4469,
      "##etwork": 4470,
      "cloned": 4471,
      "ERBB3": 4472,
      "##2H": 4473,
      "##t3": 4474,
      "conclusion": 4475,
      "text": 4476,
      "ASD": 4477,
      "wide": 4478,
      "progen": 4479,
      "Three": 4480,
      "tabDownload": 4481,
      "subcl": 4482,
      "R17": 4483,
      "monoclonal": 4484,
      "immunoprecipitation": 4485,
      "##ially": 4486,
      "regard": 4487,
      "markers": 4488,
      "##ometry": 4489,
      "##group": 4490,
      "EZH2": 4491,
      "##P2": 4492,
      "##els": 4493,
      "bio": 4494,
      "loops": 4495,
      "hematopoietic": 4496,
      "parental": 4497,
      "ret": 4498,
      "##1174": 4499,
      "##ipher": 4500,
      "RAD": 4501,
      "UV": 4502,
      "Src": 4503,
      "statistical": 4504,
      "##etic": 4505,
      "##au": 4506,
      "##adder": 4507,
      "Path": 4508,
      "PFS": 4509,
      "##erlin": 4510,
      "homology": 4511,
      "99": 4512,
      "D84": 4513,
      "none": 4514,
      "GSK": 4515,
      "advantage": 4516,
      "regulates": 4517,
      "discovery": 4518,
      "clin": 4519,
      "##vance": 4520,
      "frequencies": 4521,
      "##atter": 4522,
      "examine": 4523,
      "lysed": 4524,
      "exp": 4525,
      "##FS": 4526,
      "##PD": 4527,
      "Jap": 4528,
      "##ient": 4529,
      "diffic": 4530,
      "pS": 4531,
      "impair": 4532,
      "##GS": 4533,
      "##arch": 4534,
      "##certain": 4535,
      "ju": 4536,
      "eng": 4537,
      "kDa": 4538,
      "regre": 4539,
      "seems": 4540,
      "Exon": 4541,
      "regression": 4542,
      "##osomal": 4543,
      "clearly": 4544,
      "intracellular": 4545,
      "ill": 4546,
      "##och": 4547,
      "segment": 4548,
      "##ospital": 4549,
      "R16": 4550,
      "oncogenes": 4551,
      "longer": 4552,
      "##180": 4553,
      "author": 4554,
      "setting": 4555,
      "increases": 4556,
      "classifi": 4557,
      "##pase": 4558,
      "##fs": 4559,
      "occurring": 4560,
      "predominant": 4561,
      "NTR": 4562,
      "statistically": 4563,
      "exposure": 4564,
      "300": 4565,
      "##enced": 4566,
      "Association": 4567,
      "85": 4568,
      "##umin": 4569,
      "Sci": 4570,
      "proteoly": 4571,
      "overexpressed": 4572,
      "thought": 4573,
      "SN": 4574,
      "dasatinib": 4575,
      "internal": 4576,
      "abnormalities": 4577,
      "Ag": 4578,
      "Phe": 4579,
      "Tables": 4580,
      "##opic": 4581,
      "beta": 4582,
      "wor": 4583,
      "##uture": 4584,
      "##tives": 4585,
      "##lamm": 4586,
      "##3T3": 4587,
      "4C": 4588,
      "consensus": 4589,
      "1α": 4590,
      "74": 4591,
      "DS": 4592,
      "EC": 4593,
      "situ": 4594,
      "##plan": 4595,
      "subc": 4596,
      "##priate": 4597,
      "EWS": 4598,
      "Sur": 4599,
      "interpre": 4600,
      "Poly": 4601,
      "encoded": 4602,
      "##EB": 4603,
      "location": 4604,
      "ubiqu": 4605,
      "prognosis": 4606,
      "physi": 4607,
      "hydrolysis": 4608,
      "Institute": 4609,
      "design": 4610,
      "##10A": 4611,
      "Given": 4612,
      "mix": 4613,
      "117": 4614,
      "predictive": 4615,
      "##omain": 4616,
      "extracts": 4617,
      "epid": 4618,
      "subtypes": 4619,
      "##MCE": 4620,
      "screened": 4621,
      "BAP1": 4622,
      "−/−": 4623,
      "##opro": 4624,
      "motifs": 4625,
      "PIP3": 4626,
      "density": 4627,
      "truncating": 4628,
      "gastric": 4629,
      "fibroblasts": 4630,
      "perform": 4631,
      "##genic": 4632,
      "Ref": 4633,
      "pc": 4634,
      "71": 4635,
      "Technologies": 4636,
      "R26": 4637,
      "106": 4638,
      "metabol": 4639,
      "##ocal": 4640,
      "adap": 4641,
      "downreg": 4642,
      "relationship": 4643,
      "characterization": 4644,
      "Inhib": 4645,
      "quantitative": 4646,
      "##ographic": 4647,
      "Sequence": 4648,
      "ERG": 4649,
      "JAK1": 4650,
      "Sam": 4651,
      "Power": 4652,
      "##ror": 4653,
      "aberrations": 4654,
      "Variants": 4655,
      "define": 4656,
      "stress": 4657,
      "D816": 4658,
      "incorpor": 4659,
      "reference": 4660,
      "instructions": 4661,
      "##emia": 4662,
      "reads": 4663,
      "PP2A": 4664,
      "##G12D": 4665,
      "Cul3": 4666,
      "disorders": 4667,
      "cir": 4668,
      "tw": 4669,
      "rabbit": 4670,
      "##78": 4671,
      "late": 4672,
      "unp": 4673,
      "beads": 4674,
      "##onatinib": 4675,
      "First": 4676,
      "R24": 4677,
      "/+": 4678,
      "agar": 4679,
      "RhoA": 4680,
      "bearing": 4681,
      "assum": 4682,
      "component": 4683,
      "evaluate": 4684,
      "equivalent": 4685,
      "##onym": 4686,
      "retained": 4687,
      "ETV6": 4688,
      "##land": 4689,
      "autophosphorylation": 4690,
      "background": 4691,
      "Flt3": 4692,
      "CL": 4693,
      "M1775": 4694,
      "##heless": 4695,
      "##ission": 4696,
      "ect": 4697,
      "fragments": 4698,
      "Center": 4699,
      "MAT": 4700,
      "98": 4701,
      "p85α": 4702,
      "LK": 4703,
      "immunoblotting": 4704,
      "Rad": 4705,
      "subgroup": 4706,
      "##599": 4707,
      "promotes": 4708,
      "##riched": 4709,
      "carbox": 4710,
      "exome": 4711,
      "##io": 4712,
      "differential": 4713,
      "##ogous": 4714,
      "pathogenesis": 4715,
      "##hesized": 4716,
      "##100": 4717,
      "##gorith": 4718,
      "thre": 4719,
      "almost": 4720,
      "##let": 4721,
      "##mental": 4722,
      "Figs": 4723,
      "stimul": 4724,
      "##aced": 4725,
      "104": 4726,
      "slight": 4727,
      "3C": 4728,
      "Gl": 4729,
      "##lated": 4730,
      "conc": 4731,
      "maxim": 4732,
      "Based": 4733,
      "sal": 4734,
      "harvested": 4735,
      "##ranes": 4736,
      "account": 4737,
      "##ect": 4738,
      "influence": 4739,
      "having": 4740,
      "generally": 4741,
      "sunitinib": 4742,
      "signature": 4743,
      "bac": 4744,
      "##FG": 4745,
      "arrow": 4746,
      "##EF": 4747,
      "defin": 4748,
      "med": 4749,
      "polyp": 4750,
      "harbored": 4751,
      "105": 4752,
      "requires": 4753,
      "NIH3T3": 4754,
      "initiation": 4755,
      "NaCl": 4756,
      "phosphopeptide": 4757,
      "##rix": 4758,
      "validated": 4759,
      "##eshift": 4760,
      "thyroid": 4761,
      "detailed": 4762,
      "None": 4763,
      "electroph": 4764,
      "algorith": 4765,
      "native": 4766,
      "GR": 4767,
      "##BI": 4768,
      "recruitment": 4769,
      "##hest": 4770,
      "transm": 4771,
      "##atid": 4772,
      "responsive": 4773,
      "interest": 4774,
      "##91": 4775,
      "##olved": 4776,
      "actin": 4777,
      "invasion": 4778,
      "term": 4779,
      "lysis": 4780,
      "##ipheral": 4781,
      "MK": 4782,
      "cytos": 4783,
      "##onymous": 4784,
      "comprehensive": 4785,
      "##ATA": 4786,
      "processes": 4787,
      "2H": 4788,
      "μl": 4789,
      "intron": 4790,
      "rich": 4791,
      "exc": 4792,
      "##pective": 4793,
      "uncle": 4794,
      "maintained": 4795,
      "κB": 4796,
      "localized": 4797,
      "T790M": 4798,
      "CFC": 4799,
      "3D": 4800,
      "candidate": 4801,
      "prognostic": 4802,
      "por": 4803,
      "occurrence": 4804,
      "documented": 4805,
      "OS": 4806,
      "gal": 4807,
      "##onine": 4808,
      "enriched": 4809,
      "maintain": 4810,
      "toler": 4811,
      "pap": 4812,
      "mTORC1": 4813,
      "infected": 4814,
      "250": 4815,
      "##aff": 4816,
      "polymorphisms": 4817,
      "resc": 4818,
      "strom": 4819,
      "OR": 4820,
      "##side": 4821,
      "Elf3": 4822,
      "PIPKIIβ": 4823,
      "##42": 4824,
      "##L1": 4825,
      "##onical": 4826,
      "illustr": 4827,
      "6A": 4828,
      "77": 4829,
      "##bedded": 4830,
      "Sp": 4831,
      "marker": 4832,
      "##assified": 4833,
      "scan": 4834,
      "BA": 4835,
      "personal": 4836,
      "undergo": 4837,
      "supported": 4838,
      "Gr": 4839,
      "subunits": 4840,
      "##les": 4841,
      "##enting": 4842,
      "coord": 4843,
      "78": 4844,
      "##otrans": 4845,
      "encodes": 4846,
      "##aP": 4847,
      "research": 4848,
      "supplement": 4849,
      "CDK6": 4850,
      "predispos": 4851,
      "particip": 4852,
      "##140": 4853,
      "Del": 4854,
      "SH2": 4855,
      "fus": 4856,
      "##pecially": 4857,
      "MCF10A": 4858,
      "Experi": 4859,
      "Abl": 4860,
      "yiel": 4861,
      "unclear": 4862,
      "##ID": 4863,
      "##bor": 4864,
      "extr": 4865,
      "Genomic": 4866,
      "##CAT": 4867,
      "compounds": 4868,
      "Bre": 4869,
      "FAN": 4870,
      "devi": 4871,
      "##fected": 4872,
      "GDP": 4873,
      "Another": 4874,
      "##owledge": 4875,
      "capac": 4876,
      "PKC": 4877,
      "##artin": 4878,
      "exch": 4879,
      "combin": 4880,
      "cooper": 4881,
      "Jun": 4882,
      "##any": 4883,
      "Inter": 4884,
      "exact": 4885,
      "open": 4886,
      "shift": 4887,
      "mism": 4888,
      "relevance": 4889,
      "##phosphate": 4890,
      "matched": 4891,
      "solution": 4892,
      "parallel": 4893,
      "GV": 4894,
      "old": 4895,
      "##rac": 4896,
      "benign": 4897,
      "caspase": 4898,
      "97": 4899,
      "##w7": 4900,
      "##oint": 4901,
      "Qi": 4902,
      "da": 4903,
      "subtype": 4904,
      "##unately": 4905,
      "Biotechn": 4906,
      "ques": 4907,
      "proced": 4908,
      "##ember": 4909,
      "##fort": 4910,
      "includes": 4911,
      "##ereg": 4912,
      "purch": 4913,
      "CAR": 4914,
      "##zen": 4915,
      "##La": 4916,
      "designed": 4917,
      "Per": 4918,
      "migration": 4919,
      "##ney": 4920,
      "PMS2": 4921,
      "tetram": 4922,
      "mmol": 4923,
      "purchased": 4924,
      "2014": 4925,
      "##MV": 4926,
      "highest": 4927,
      "peptides": 4928,
      "treat": 4929,
      "deleted": 4930,
      "pcDNA": 4931,
      "##),": 4932,
      "cou": 4933,
      "folding": 4934,
      "especially": 4935,
      "NRF2": 4936,
      "HN": 4937,
      "Applied": 4938,
      "Laboratories": 4939,
      "##igu": 4940,
      "flow": 4941,
      "accessible": 4942,
      "cyste": 4943,
      "every": 4944,
      "neurofibrom": 4945,
      "##fortunately": 4946,
      "CTD": 4947,
      "##ino": 4948,
      "explain": 4949,
      "juxt": 4950,
      "threonine": 4951,
      "Roc": 4952,
      "animals": 4953,
      "AN": 4954,
      "Mutant": 4955,
      "Fb": 4956,
      "bladder": 4957,
      "Dep": 4958,
      "Downloaded": 4959,
      "penet": 4960,
      "##anib": 4961,
      "activates": 4962,
      "##ordance": 4963,
      "LKB1": 4964,
      "band": 4965,
      "primarily": 4966,
      "Taken": 4967,
      "ra": 4968,
      "##hematic": 4969,
      "mainly": 4970,
      "inflamm": 4971,
      "neoplasm": 4972,
      "modified": 4973,
      "populations": 4974,
      "BC": 4975,
      "androgen": 4976,
      "##olo": 4977,
      "69": 4978,
      "water": 4979,
      "##HC": 4980,
      "precl": 4981,
      "atten": 4982,
      "Recently": 4983,
      "AD": 4984,
      "appropriate": 4985,
      "translation": 4986,
      "Hospital": 4987,
      "##iciently": 4988,
      "##1047": 4989,
      "equal": 4990,
      "M2": 4991,
      "p53s": 4992,
      "##ML4": 4993,
      "KMT": 4994,
      "##rief": 4995,
      "Genetic": 4996,
      "##cular": 4997,
      "area": 4998,
      "##avage": 4999,
      "evaluation": 5000,
      "##IP1": 5001,
      "##ional": 5002,
      "##agent": 5003,
      "twice": 5004,
      "##ottom": 5005,
      "04": 5006,
      "seeded": 5007,
      "capacity": 5008,
      "##A1": 5009,
      "strategy": 5010,
      "HeLa": 5011,
      "76": 5012,
      "prevalence": 5013,
      "Qiagen": 5014,
      "##h1": 5015,
      "liter": 5016,
      "Unfortunately": 5017,
      "aggre": 5018,
      "##rowth": 5019,
      "##cap": 5020,
      "publ": 5021,
      "adenocarcinomas": 5022,
      "scores": 5023,
      "listed": 5024,
      "RAC1": 5025,
      "##idase": 5026,
      "MEF2": 5027,
      "she": 5028,
      "##uish": 5029,
      "##CTT": 5030,
      "horm": 5031,
      "##ogether": 5032,
      "rapamycin": 5033,
      "EML4": 5034,
      "tool": 5035,
      "MAP2": 5036,
      "peripheral": 5037,
      "##luor": 5038,
      "Biotechnology": 5039,
      "amounts": 5040,
      "##reated": 5041,
      "extent": 5042,
      "elements": 5043,
      "competi": 5044,
      "##obust": 5045,
      "proteas": 5046,
      "IF": 5047,
      "util": 5048,
      "assayed": 5049,
      "##idel": 5050,
      "presum": 5051,
      "injected": 5052,
      "network": 5053,
      "##8A": 5054,
      "thym": 5055,
      "genotype": 5056,
      "frameshift": 5057,
      "onto": 5058,
      "##GD": 5059,
      "contacts": 5060,
      "Total": 5061,
      "assemb": 5062,
      "89": 5063,
      "RMCE": 5064,
      "##ypic": 5065,
      "variable": 5066,
      "production": 5067,
      "dynamic": 5068,
      "##SCC": 5069,
      "Cbl": 5070,
      "L8": 5071,
      "U2AF": 5072,
      "CRAF": 5073,
      "##1C": 5074,
      "BCC": 5075,
      "81": 5076,
      "Iden": 5077,
      "##ready": 5078,
      "sections": 5079,
      "CCN": 5080,
      "represented": 5081,
      "##prising": 5082,
      "plus": 5083,
      "efficiency": 5084,
      "life": 5085,
      "##uted": 5086,
      "PL": 5087,
      "Gro": 5088,
      "light": 5089,
      "already": 5090,
      "failure": 5091,
      "EP": 5092,
      "resolution": 5093,
      "paraffin": 5094,
      "remain": 5095,
      "silico": 5096,
      "##set": 5097,
      "##amily": 5098,
      "outside": 5099,
      "p27": 5100,
      "susceptibility": 5101,
      "uncertain": 5102,
      "C2": 5103,
      "metastases": 5104,
      "rescue": 5105,
      "sk": 5106,
      "##la": 5107,
      "continu": 5108,
      "profiles": 5109,
      "ATR": 5110,
      "latter": 5111,
      "angi": 5112,
      "array": 5113,
      "0001": 5114,
      "##IS": 5115,
      "They": 5116,
      "enzymatic": 5117,
      "WM": 5118,
      "mid": 5119,
      "adhes": 5120,
      "5A": 5121,
      "##97": 5122,
      "evid": 5123,
      "effectors": 5124,
      "HRAS": 5125,
      "ED": 5126,
      "Prome": 5127,
      "Promega": 5128,
      "SK": 5129,
      "MEFs": 5130,
      "##ethyl": 5131,
      "ErbB": 5132,
      "organ": 5133,
      "KEAP1": 5134,
      "fetal": 5135,
      "##SH2": 5136,
      "##imen": 5137,
      "needed": 5138,
      "##itary": 5139,
      "libr": 5140,
      "##lier": 5141,
      "coe": 5142,
      "summari": 5143,
      "1993": 5144,
      "allowed": 5145,
      "analysed": 5146,
      "DMEM": 5147,
      "interacting": 5148,
      "Str": 5149,
      "##eh": 5150,
      "beha": 5151,
      "coll": 5152,
      "dereg": 5153,
      "hr": 5154,
      "88": 5155,
      "Anti": 5156,
      "transmembrane": 5157,
      "means": 5158,
      "Compar": 5159,
      "CDKN2A": 5160,
      "obtain": 5161,
      "ubiquity": 5162,
      "##mend": 5163,
      "disruption": 5164,
      "rang": 5165,
      "subsequently": 5166,
      "check": 5167,
      "Non": 5168,
      "IDH2": 5169,
      "epidermal": 5170,
      "aa": 5171,
      "rearrangement": 5172,
      "hybridization": 5173,
      "##D2": 5174,
      "causes": 5175,
      "terms": 5176,
      "artic": 5177,
      "##rozen": 5178,
      "possess": 5179,
      "##versely": 5180,
      "sets": 5181,
      "intact": 5182,
      "Whe": 5183,
      "73": 5184,
      "##pro": 5185,
      "progress": 5186,
      "p300": 5187,
      "dist": 5188,
      "Never": 5189,
      "media": 5190,
      "clos": 5191,
      "possibly": 5192,
      "##rifug": 5193,
      "supporting": 5194,
      "precipit": 5195,
      "aga": 5196,
      "heterozyg": 5197,
      "Structural": 5198,
      "##ARP": 5199,
      "flex": 5200,
      "und": 5201,
      "hepat": 5202,
      "##clonal": 5203,
      "ATM": 5204,
      "Biosystems": 5205,
      "Statis": 5206,
      "Car": 5207,
      "##ection": 5208,
      "%;": 5209,
      "##night": 5210,
      "cere": 5211,
      "taken": 5212,
      "dram": 5213,
      "IP": 5214,
      "linker": 5215,
      "SRC": 5216,
      "depletion": 5217,
      "dramatic": 5218,
      "promoting": 5219,
      "profile": 5220,
      "FBS": 5221,
      "intensity": 5222,
      "##amembrane": 5223,
      "exchange": 5224,
      "ligands": 5225,
      "LC": 5226,
      "ii": 5227,
      "respect": 5228,
      "Ml": 5229,
      "coupl": 5230,
      "TERT": 5231,
      "Cys": 5232,
      "##rin": 5233,
      "Sequencing": 5234,
      "AC": 5235,
      "counter": 5236,
      "##atidyl": 5237,
      "##tation": 5238,
      "##atives": 5239,
      "Align": 5240,
      "last": 5241,
      "embedded": 5242,
      "##GAG": 5243,
      "##iving": 5244,
      "##sin": 5245,
      "##otype": 5246,
      "agarose": 5247,
      "##vo": 5248,
      "R27": 5249,
      "western": 5250,
      "SMAD4": 5251,
      "transferred": 5252,
      "minor": 5253,
      "pe": 5254,
      "Wild": 5255,
      "future": 5256,
      "robust": 5257,
      "literature": 5258,
      "Online": 5259,
      "Sanger": 5260,
      "segregation": 5261,
      "2HG": 5262,
      "rational": 5263,
      "##classified": 5264,
      "##117": 5265,
      "Ub": 5266,
      "nm": 5267,
      "##rient": 5268,
      "Dr": 5269,
      "##rg": 5270,
      "##inositol": 5271,
      "nor": 5272,
      "scale": 5273,
      "600": 5274,
      "Somatic": 5275,
      "stri": 5276,
      "atom": 5277,
      "##indow": 5278,
      "##ogenetic": 5279,
      "recommend": 5280,
      "##cription": 5281,
      "membranes": 5282,
      "conservation": 5283,
      "##eline": 5284,
      "onset": 5285,
      "points": 5286,
      "##tification": 5287,
      "anch": 5288,
      "PIK3R1": 5289,
      "separated": 5290,
      "DFG": 5291,
      "forward": 5292,
      "MH2": 5293,
      "predictions": 5294,
      "canonical": 5295,
      "##abilities": 5296,
      "##k2": 5297,
      "untreated": 5298,
      "##ling": 5299,
      "magn": 5300,
      "knowledge": 5301,
      "mixed": 5302,
      "ponatinib": 5303,
      "##ortal": 5304,
      "ent": 5305,
      "electrophores": 5306,
      "D3": 5307,
      "developmental": 5308,
      "oligonucle": 5309,
      "BTB": 5310,
      "lost": 5311,
      "overnight": 5312,
      "##eared": 5313,
      "##ected": 5314,
      "cation": 5315,
      "kg": 5316,
      "ear": 5317,
      "adult": 5318,
      "##zyme": 5319,
      "Ca": 5320,
      "##ones": 5321,
      "renal": 5322,
      "Effec": 5323,
      "##pens": 5324,
      "##M2": 5325,
      "##irus": 5326,
      "allows": 5327,
      "action": 5328,
      "retain": 5329,
      "daily": 5330,
      "##iveness": 5331,
      "Is": 5332,
      "plated": 5333,
      "juxtamembrane": 5334,
      "bonds": 5335,
      "kind": 5336,
      "##illary": 5337,
      "##irect": 5338,
      "classical": 5339,
      "DDR2": 5340,
      "bottom": 5341,
      "##Si": 5342,
      "##order": 5343,
      "##95": 5344,
      "aggregation": 5345,
      "Roche": 5346,
      "HCT": 5347,
      "##68": 5348,
      "parame": 5349,
      "incubation": 5350,
      "##phosphorylated": 5351,
      "ERα": 5352,
      "ro": 5353,
      "##GHT": 5354,
      "refer": 5355,
      "enzymes": 5356,
      "MutL": 5357,
      "PDB": 5358,
      "triplicate": 5359,
      "mediate": 5360,
      "aggressive": 5361,
      "##entiv": 5362,
      "phosphatidyl": 5363,
      "Some": 5364,
      "##rate": 5365,
      "synthesis": 5366,
      "Life": 5367,
      "##ble": 5368,
      "dimin": 5369,
      "variation": 5370,
      "pharmac": 5371,
      "##ipp": 5372,
      "cotrans": 5373,
      "diseases": 5374,
      "potency": 5375,
      "##roin": 5376,
      "plot": 5377,
      "labor": 5378,
      "R1699": 5379,
      "fluores": 5380,
      "##fect": 5381,
      "assembly": 5382,
      "RP": 5383,
      "exogenous": 5384,
      "##116": 5385,
      "##ucleotide": 5386,
      "Assay": 5387,
      "cleavage": 5388,
      "Kin": 5389,
      "Prim": 5390,
      "leth": 5391,
      "##RI": 5392,
      "optim": 5393,
      "DO": 5394,
      "Mod": 5395,
      "men": 5396,
      "##inine": 5397,
      "enhance": 5398,
      "probes": 5399,
      "helical": 5400,
      "##Val": 5401,
      "##rop": 5402,
      "imm": 5403,
      "excluded": 5404,
      "##arged": 5405,
      "mammary": 5406,
      "dimens": 5407,
      "ul": 5408,
      "clinic": 5409,
      "online": 5410,
      "##cal": 5411,
      "thresh": 5412,
      "reactions": 5413,
      "Bl": 5414,
      "explan": 5415,
      "difficult": 5416,
      "EGFP": 5417,
      "tetramer": 5418,
      "cysteine": 5419,
      "adhesion": 5420,
      "##wor": 5421,
      "Tre": 5422,
      "##artment": 5423,
      "Trk": 5424,
      "markedly": 5425,
      "oligomer": 5426,
      "RB": 5427,
      "mate": 5428,
      "polyclonal": 5429,
      "PTPR": 5430,
      "counted": 5431,
      "extre": 5432,
      "doses": 5433,
      "##atric": 5434,
      "##fection": 5435,
      "understand": 5436,
      "##EA": 5437,
      "##eper": 5438,
      "mismatch": 5439,
      "##AAG": 5440,
      "frozen": 5441,
      "proxim": 5442,
      "window": 5443,
      "##osity": 5444,
      "div": 5445,
      "inhibiting": 5446,
      "lobe": 5447,
      "trig": 5448,
      "##round": 5449,
      "Such": 5450,
      "gluc": 5451,
      "reason": 5452,
      "##SiGHT": 5453,
      "Genome": 5454,
      "novo": 5455,
      "galact": 5456,
      "women": 5457,
      "InSiGHT": 5458,
      "92": 5459,
      "vary": 5460,
      "##112": 5461,
      "translocations": 5462,
      "leg": 5463,
      "FANC": 5464,
      "stop": 5465,
      "mac": 5466,
      "##ibility": 5467,
      "independently": 5468,
      "wid": 5469,
      "heterogeneity": 5470,
      "fused": 5471,
      "##kely": 5472,
      "##473": 5473,
      "inducible": 5474,
      "source": 5475,
      "bands": 5476,
      "AF": 5477,
      "once": 5478,
      "##rees": 5479,
      "correspond": 5480,
      "NU": 5481,
      "##ried": 5482,
      "##version": 5483,
      "MC": 5484,
      "sym": 5485,
      "casc": 5486,
      "chall": 5487,
      "AZ": 5488,
      "abund": 5489,
      "CDK12": 5490,
      "##haps": 5491,
      "digestion": 5492,
      "##oler": 5493,
      "##389": 5494,
      "largely": 5495,
      "E17": 5496,
      "##I1": 5497,
      "enrich": 5498,
      "weight": 5499,
      "Mlh1": 5500,
      "02": 5501,
      "centrifug": 5502,
      "pcDNA3": 5503,
      "##ah": 5504,
      "contribution": 5505,
      "visualized": 5506,
      "Pt": 5507,
      "##URE": 5508,
      "phenyl": 5509,
      "representation": 5510,
      "hot": 5511,
      "partner": 5512,
      "insulin": 5513,
      "eluc": 5514,
      "establish": 5515,
      "children": 5516,
      "Group": 5517,
      "Cal": 5518,
      "invasive": 5519,
      "##ellow": 5520,
      "Type": 5521,
      "μm": 5522,
      "coil": 5523,
      "chimer": 5524,
      "templ": 5525,
      "M1775R": 5526,
      "##OV": 5527,
      "Imatinib": 5528,
      "syndrom": 5529,
      "##rointestinal": 5530,
      "developing": 5531,
      "Ki": 5532,
      "female": 5533,
      "successful": 5534,
      "proble": 5535,
      "find": 5536,
      "##ULTS": 5537,
      "hydrox": 5538,
      "discovered": 5539,
      "immunohistochemistry": 5540,
      "stromal": 5541,
      "Four": 5542,
      "Specific": 5543,
      "##umab": 5544,
      "arginine": 5545,
      "pairs": 5546,
      "hamartin": 5547,
      "smokers": 5548,
      "way": 5549,
      "##theless": 5550,
      "transgenic": 5551,
      "S16": 5552,
      "follows": 5553,
      "around": 5554,
      "##comes": 5555,
      "virus": 5556,
      "According": 5557,
      "##ediatric": 5558,
      "produce": 5559,
      "From": 5560,
      "implications": 5561,
      "compare": 5562,
      "diagnostic": 5563,
      "unpublished": 5564,
      "F1174": 5565,
      "##mut": 5566,
      "##124": 5567,
      "RESULTS": 5568,
      "scored": 5569,
      "##MG": 5570,
      "##isher": 5571,
      "truncation": 5572,
      "E54": 5573,
      "cm": 5574,
      "mapped": 5575,
      "Rel": 5576,
      "coli": 5577,
      "regulating": 5578,
      "infection": 5579,
      "page": 5580,
      "systems": 5581,
      "moderate": 5582,
      "##ux": 5583,
      "exception": 5584,
      "H12": 5585,
      "##icted": 5586,
      "PTC": 5587,
      "spot": 5588,
      "##cyt": 5589,
      "substantial": 5590,
      "junction": 5591,
      "##ta": 5592,
      "unclassified": 5593,
      "original": 5594,
      "##anol": 5595,
      "off": 5596,
      "Open": 5597,
      "##emat": 5598,
      "alloster": 5599,
      "effectively": 5600,
      "extensive": 5601,
      "mixture": 5602,
      "86": 5603,
      "##inhib": 5604,
      "##apse": 5605,
      "sorafenib": 5606,
      "article": 5607,
      "epigen": 5608,
      "predominantly": 5609,
      "##ki": 5610,
      "##SION": 5611,
      "correct": 5612,
      "ACC": 5613,
      "HS": 5614,
      "pC": 5615,
      "assigned": 5616,
      "disting": 5617,
      "87": 5618,
      "Additionally": 5619,
      "Activation": 5620,
      "Ind": 5621,
      "Medi": 5622,
      "muc": 5623,
      "##5C": 5624,
      "reduce": 5625,
      "##osa": 5626,
      "Japan": 5627,
      "##CTC": 5628,
      "EDTA": 5629,
      "CML": 5630,
      "Germany": 5631,
      "##for": 5632,
      "Despite": 5633,
      "ETS": 5634,
      "##549": 5635,
      "great": 5636,
      "called": 5637,
      "mim": 5638,
      "clonal": 5639,
      "duplication": 5640,
      "Also": 5641,
      "##ocytosis": 5642,
      "1D": 5643,
      "##viron": 5644,
      "FOX": 5645,
      "##sc": 5646,
      "appeared": 5647,
      "##USSION": 5648,
      "ERCC2": 5649,
      "conjugated": 5650,
      "##tag": 5651,
      "ow": 5652,
      "##nat": 5653,
      "until": 5654,
      "towards": 5655,
      "biopsy": 5656,
      "##ereditary": 5657,
      "reflect": 5658,
      "JN": 5659,
      "32D": 5660,
      "##mitte": 5661,
      "L11": 5662,
      "##ovine": 5663,
      "##roliferative": 5664,
      "profiling": 5665,
      "##vis": 5666,
      "ratios": 5667,
      "##oloen": 5668,
      "don": 5669,
      "facilitate": 5670,
      "glob": 5671,
      "##ave": 5672,
      "unlikely": 5673,
      "physiological": 5674,
      "nearly": 5675,
      "pertur": 5676,
      "anchor": 5677,
      "DISCUSSION": 5678,
      "unre": 5679,
      "differ": 5680,
      "120": 5681,
      "Statistical": 5682,
      "preferen": 5683,
      "contributes": 5684,
      "Ka": 5685,
      "Together": 5686,
      "modeling": 5687,
      "minimal": 5688,
      "##aster": 5689,
      "##ake": 5690,
      "rank": 5691,
      "##ners": 5692,
      "constructed": 5693,
      "repro": 5694,
      "AA": 5695,
      "##andem": 5696,
      "neoplasms": 5697,
      "So": 5698,
      "##17F": 5699,
      "summary": 5700,
      "orth": 5701,
      "T389": 5702,
      "monomer": 5703,
      "HP": 5704,
      "##NN": 5705,
      "secre": 5706,
      "make": 5707,
      "map": 5708,
      "##ulating": 5709,
      "manuscript": 5710,
      "G17": 5711,
      "##ene": 5712,
      "##inger": 5713,
      "MYCN": 5714,
      "remained": 5715,
      "Breast": 5716,
      "AG": 5717,
      "norm": 5718,
      "head": 5719,
      "arise": 5720,
      "##278": 5721,
      "conferred": 5722,
      "formal": 5723,
      "Asn": 5724,
      "syndromes": 5725,
      "preven": 5726,
      "consequence": 5727,
      "antigen": 5728,
      "PB": 5729,
      "RPM": 5730,
      "##herin": 5731,
      "BACH1": 5732,
      "peri": 5733,
      "bovine": 5734,
      "H1047": 5735,
      "##umor": 5736,
      "##olanib": 5737,
      "differentially": 5738,
      "gate": 5739,
      "refrac": 5740,
      "Samples": 5741,
      "hormone": 5742,
      "portion": 5743,
      "Mg": 5744,
      "Wnt": 5745,
      "Notch1": 5746,
      "penetrance": 5747,
      "84": 5748,
      "SW": 5749,
      "go": 5750,
      "slide": 5751,
      "##NT": 5752,
      "autoinhib": 5753,
      "##ploy": 5754,
      "##ending": 5755,
      "##anking": 5756,
      "##erous": 5757,
      "slightly": 5758,
      "preclinical": 5759,
      "79": 5760,
      "##inositi": 5761,
      "quantified": 5762,
      "##renolanib": 5763,
      "cytokine": 5764,
      "##XW7": 5765,
      "5B": 5766,
      "83": 5767,
      "glioblastoma": 5768,
      "emerg": 5769,
      "Department": 5770,
      "Note": 5771,
      "coordin": 5772,
      "EV": 5773,
      "involvement": 5774,
      "hyperm": 5775,
      "proteolysis": 5776,
      "strategies": 5777,
      "become": 5778,
      "##gib": 5779,
      "outcomes": 5780,
      "panels": 5781,
      "RPMI": 5782,
      "##common": 5783,
      "POL": 5784,
      "##aneously": 5785,
      "Additional": 5786,
      "Medical": 5787,
      "loading": 5788,
      "##ias": 5789,
      "##plant": 5790,
      "focal": 5791,
      "AML1": 5792,
      "##nf": 5793,
      "##icle": 5794,
      "radiation": 5795,
      "##rine": 5796,
      "##79": 5797,
      "predisposition": 5798,
      "exist": 5799,
      "separate": 5800,
      "allosteric": 5801,
      "PARP": 5802,
      "kb": 5803,
      "##eed": 5804,
      "tests": 5805,
      "Mutants": 5806,
      "Only": 5807,
      "upper": 5808,
      "tandem": 5809,
      "uns": 5810,
      "##ocyt": 5811,
      "Fisher": 5812,
      "##ucine": 5813,
      "cycles": 5814,
      "cDNAs": 5815,
      "estrogen": 5816,
      "earlier": 5817,
      "High": 5818,
      "L861": 5819,
      "##ton": 5820,
      "accep": 5821,
      "Cdk12": 5822,
      "##otyrosine": 5823,
      "##embl": 5824,
      "crystall": 5825,
      "M16": 5826,
      "Ov": 5827,
      "yellow": 5828,
      "##ously": 5829,
      "IDH": 5830,
      "D842V": 5831,
      "##cuss": 5832,
      "Recent": 5833,
      "legend": 5834,
      "discuss": 5835,
      "kid": 5836,
      "member": 5837,
      "dimensional": 5838,
      "R2": 5839,
      "agent": 5840,
      "Treatment": 5841,
      "##keeper": 5842,
      "FAT": 5843,
      "IARC": 5844,
      "##heri": 5845,
      "##apping": 5846,
      "MTOR": 5847,
      "MEK2": 5848,
      "regulator": 5849,
      "exclusive": 5850,
      "best": 5851,
      "3β": 5852,
      "progressive": 5853,
      "##odegib": 5854,
      "SIF": 5855,
      "##uz": 5856,
      "##ismodegib": 5857,
      "epitope": 5858,
      "##ERT2": 5859,
      "##riefly": 5860,
      "##blastic": 5861,
      "Biosci": 5862,
      "Ill": 5863,
      "##odium": 5864,
      "correlate": 5865,
      "ubiquitylation": 5866,
      "**": 5867,
      "##pe": 5868,
      "amplifications": 5869,
      "helices": 5870,
      ".)": 5871,
      "cruc": 5872,
      "partners": 5873,
      "##ferences": 5874,
      "SIFT": 5875,
      "lympho": 5876,
      "hereditary": 5877,
      "sarcoma": 5878,
      "absent": 5879,
      "KrasG12D": 5880,
      "ide": 5881,
      "notion": 5882,
      "phosphoinositi": 5883,
      "##K27": 5884,
      "FBXW7": 5885,
      "Ev": 5886,
      "##5P": 5887,
      "DSB": 5888,
      "##EP": 5889,
      "demonstrating": 5890,
      "tel": 5891,
      "##HT": 5892,
      "H3K27": 5893,
      "enrichment": 5894,
      "male": 5895,
      "refractory": 5896,
      "##itors": 5897,
      "microar": 5898,
      "toxicity": 5899,
      "##ron": 5900,
      "phosphatidylinositol": 5901,
      "nat": 5902,
      "MAP2K1": 5903,
      "good": 5904,
      "##adherin": 5905,
      "##ffected": 5906,
      "##aged": 5907,
      "%.": 5908,
      "Q61": 5909,
      "TCF": 5910,
      "pG": 5911,
      "Collec": 5912,
      "starved": 5913,
      "DR": 5914,
      "Key": 5915,
      "prevent": 5916,
      "inactivating": 5917,
      "HCT116": 5918,
      "inflammatory": 5919,
      "Mul": 5920,
      "##teins": 5921,
      "buried": 5922,
      "peak": 5923,
      "AZD": 5924,
      "P3": 5925,
      "##BP1": 5926,
      "transient": 5927,
      "uncommon": 5928,
      "GATA": 5929,
      "##01": 5930,
      "dual": 5931,
      "nod": 5932,
      "immune": 5933,
      "trypsin": 5934,
      "Phosphoryl": 5935,
      "NP": 5936,
      "Pu": 5937,
      "throughout": 5938,
      "itself": 5939,
      "HDR": 5940,
      "neurofibromin": 5941,
      "Hist": 5942,
      "Reg": 5943,
      "explanation": 5944,
      "##7A": 5945,
      "recognized": 5946,
      "Rb": 5947,
      ")]": 5948,
      "chains": 5949,
      "Di": 5950,
      "mast": 5951,
      "capture": 5952,
      "xenograft": 5953,
      "material": 5954,
      "ax": 5955,
      "start": 5956,
      "focused": 5957,
      "content": 5958,
      "coupled": 5959,
      "##ld": 5960,
      "tub": 5961,
      "1000": 5962,
      "modest": 5963,
      "##terior": 5964,
      "capable": 5965,
      "91": 5966,
      "Dif": 5967,
      "aggreg": 5968,
      "initially": 5969,
      "93": 5970,
      "GAL": 5971,
      "RCC": 5972,
      "holoen": 5973,
      "##9A": 5974,
      "investigation": 5975,
      "blocks": 5976,
      "lineage": 5977,
      "proliferative": 5978,
      "classify": 5979,
      "epigenetic": 5980,
      "IK": 5981,
      "Kinase": 5982,
      "##pp": 5983,
      "##5K": 5984,
      "centros": 5985,
      "##mittee": 5986,
      "paired": 5987,
      "similarly": 5988,
      "ethn": 5989,
      "XP": 5990,
      "electrophoresis": 5991,
      "NPM": 5992,
      "limit": 5993,
      "HCl": 5994,
      "must": 5995,
      "employ": 5996,
      "##tering": 5997,
      "Supp": 5998,
      "providing": 5999,
      "highligh": 6000,
      "ND": 6001,
      "iss": 6002,
      "##NS": 6003,
      "##plicates": 6004,
      "relapse": 6005,
      "quality": 6006,
      "backb": 6007,
      "gatekeeper": 6008,
      "##EGFR": 6009,
      "nucleotides": 6010,
      "Par": 6011,
      "rou": 6012,
      "sodium": 6013,
      "##ench": 6014,
      "##herited": 6015,
      "NOTCH": 6016,
      "SCC": 6017,
      "##range": 6018,
      "gastrointestinal": 6019,
      "denat": 6020,
      "HLA": 6021,
      "tend": 6022,
      "BM": 6023,
      "G4": 6024,
      "##emur": 6025,
      "##oxic": 6026,
      "06": 6027,
      "stimulate": 6028,
      "crucial": 6029,
      "##C2": 6030,
      "pedigree": 6031,
      "LY": 6032,
      "FR": 6033,
      "##turally": 6034,
      "Conversely": 6035,
      "Binding": 6036,
      "lysine": 6037,
      "##gery": 6038,
      "##cape": 6039,
      "##ye": 6040,
      "consent": 6041,
      "question": 6042,
      "##lic": 6043,
      "deviation": 6044,
      "KMT2": 6045,
      "KB": 6046,
      "spect": 6047,
      "##olding": 6048,
      "ceritinib": 6049,
      "Bcl": 6050,
      "##type": 6051,
      "shor": 6052,
      "##mod": 6053,
      "please": 6054,
      "mis": 6055,
      "##iral": 6056,
      "##tity": 6057,
      "alpha": 6058,
      "cour": 6059,
      "homod": 6060,
      "efficiently": 6061,
      "verified": 6062,
      "characterize": 6063,
      "interesting": 6064,
      "SCF": 6065,
      "subjects": 6066,
      "##tration": 6067,
      "##zer": 6068,
      "share": 6069,
      "dilution": 6070,
      "##wise": 6071,
      "##ensitivity": 6072,
      "##ocrine": 6073,
      "assistance": 6074,
      "##CTGG": 6075,
      "##emurafenib": 6076,
      "##di": 6077,
      "replication": 6078,
      "true": 6079,
      "supernat": 6080,
      "RAD51": 6081,
      "##inge": 6082,
      "tumorigenic": 6083,
      "clustering": 6084,
      "##quis": 6085,
      "allelic": 6086,
      "DBD": 6087,
      "restriction": 6088,
      "##orts": 6089,
      "kidney": 6090,
      "Mic": 6091,
      "##AX": 6092,
      "blocked": 6093,
      "retroviral": 6094,
      "K6": 6095,
      "consisting": 6096,
      "Nevertheless": 6097,
      "HGF": 6098,
      "D835": 6099,
      "Loss": 6100,
      "MutS": 6101,
      "improve": 6102,
      "brid": 6103,
      "spon": 6104,
      "probabilities": 6105,
      "pedigrees": 6106,
      "##itored": 6107,
      "##tead": 6108,
      "charge": 6109,
      "MDM2": 6110,
      "unf": 6111,
      "##enger": 6112,
      "##81": 6113,
      "FIGURE": 6114,
      "antag": 6115,
      "Gefitinib": 6116,
      "##P1": 6117,
      "Structure": 6118,
      "retrovirus": 6119,
      "elong": 6120,
      "##ompass": 6121,
      "antagon": 6122,
      "treatments": 6123,
      "##ehicle": 6124,
      "IHC": 6125,
      "##versible": 6126,
      "encompass": 6127,
      "VEGF": 6128,
      "conver": 6129,
      "removed": 6130,
      "(%": 6131,
      "##CAC": 6132,
      "Information": 6133,
      "suppressed": 6134,
      "cadherin": 6135,
      "##x1": 6136,
      "BRAFV6": 6137,
      "monitored": 6138,
      "Intr": 6139,
      "##ylate": 6140,
      "elimin": 6141,
      "anchorage": 6142,
      "lentiv": 6143,
      "##etry": 6144,
      "compris": 6145,
      "##3A": 6146,
      "##Vs": 6147,
      "dissociation": 6148,
      "-,": 6149,
      "LR": 6150,
      "accur": 6151,
      "smaller": 6152,
      "backbone": 6153,
      "##atell": 6154,
      "##aries": 6155,
      "##mitted": 6156,
      "ERK2": 6157,
      "chromat": 6158,
      "cohorts": 6159,
      "##present": 6160,
      "xenografts": 6161,
      "##isten": 6162,
      "integrity": 6163,
      "attenu": 6164,
      "##ensitive": 6165,
      "template": 6166,
      "mus": 6167,
      "##View": 6168,
      "TKD": 6169,
      "differentiated": 6170,
      "##eler": 6171,
      "##amp": 6172,
      "surg": 6173,
      "cytometry": 6174,
      "biopsies": 6175,
      "##erve": 6176,
      "##ryth": 6177,
      "##atellite": 6178,
      "##icine": 6179,
      "gliomas": 6180,
      "##plete": 6181,
      "ETV": 6182,
      "algorithm": 6183,
      "CCND1": 6184,
      "NCI": 6185,
      "##ery": 6186,
      "##yping": 6187,
      "admin": 6188,
      "##usions": 6189,
      "##sequently": 6190,
      "p16INK4A": 6191,
      "SA": 6192,
      "corresponds": 6193,
      "flanking": 6194,
      "threshold": 6195,
      "Cα": 6196,
      "charged": 6197,
      "Briefly": 6198,
      "you": 6199,
      "interfere": 6200,
      "serve": 6201,
      "##BRAF": 6202,
      "Section": 6203,
      "1992": 6204,
      "##ached": 6205,
      "##gest": 6206,
      "phenotypic": 6207,
      "parameters": 6208,
      "BD": 6209,
      "##aset": 6210,
      "rend": 6211,
      "normally": 6212,
      "Identification": 6213,
      "Yes": 6214,
      "proline": 6215,
      "analyze": 6216,
      "Append": 6217,
      "bo": 6218,
      "finger": 6219,
      "histology": 6220,
      "zinc": 6221,
      "Fbw7": 6222,
      "inherited": 6223,
      "##ora": 6224,
      "##As": 6225,
      "underwent": 6226,
      "negatively": 6227,
      "Appendix": 6228,
      "gran": 6229,
      "##769": 6230,
      "Immunoblot": 6231,
      "G2": 6232,
      "##2G": 6233,
      "NIC": 6234,
      "global": 6235,
      "##formations": 6236,
      "astro": 6237,
      "structurally": 6238,
      "(−": 6239,
      "leuka": 6240,
      "estimate": 6241,
      "Published": 6242,
      "comparing": 6243,
      "Lee": 6244,
      "V17": 6245,
      "Ubc": 6246,
      "##ione": 6247,
      "colum": 6248,
      "R12": 6249,
      "dead": 6250,
      "stabilization": 6251,
      "Pan": 6252,
      "crenolanib": 6253,
      "sen": 6254,
      "##otes": 6255,
      "##ergy": 6256,
      "mutually": 6257,
      "numerous": 6258,
      "S7": 6259,
      "##3H": 6260,
      "wildtype": 6261,
      "engine": 6262,
      "##son": 6263,
      "##ky": 6264,
      "real": 6265,
      "una": 6266,
      "##blastomas": 6267,
      "DOI": 6268,
      "##ariate": 6269,
      "examination": 6270,
      "poorly": 6271,
      "complementation": 6272,
      "Schematic": 6273,
      "##aly": 6274,
      "accomp": 6275,
      "##ME": 6276,
      "basic": 6277,
      "##dom": 6278,
      "##roph": 6279,
      "lysate": 6280,
      "fluorescent": 6281,
      "recor": 6282,
      "interpretation": 6283,
      "CARD": 6284,
      "National": 6285,
      "##iae": 6286,
      "PDGFRB": 6287,
      "Biosciences": 6288,
      "##LI": 6289,
      "MEF2B": 6290,
      "seq": 6291,
      "cultures": 6292,
      "vismodegib": 6293,
      "##osegregation": 6294,
      "representing": 6295,
      "tolerated": 6296,
      "Fox": 6297,
      "att": 6298,
      "6B": 6299,
      "antic": 6300,
      "reagent": 6301,
      "presumably": 6302,
      "morphology": 6303,
      "##sh": 6304,
      "##rium": 6305,
      "overexpressing": 6306,
      "07": 6307,
      "span": 6308,
      "108": 6309,
      "mimic": 6310,
      "CB": 6311,
      "health": 6312,
      "inducing": 6313,
      "Sl": 6314,
      "##fluorescence": 6315,
      "##gf": 6316,
      "indeed": 6317,
      "##atinum": 6318,
      "2D": 6319,
      "usually": 6320,
      "perhaps": 6321,
      "A549": 6322,
      "##G1": 6323,
      "##romycin": 6324,
      "Akt1": 6325,
      "##umina": 6326,
      "protease": 6327,
      "140": 6328,
      "emer": 6329,
      "Clin": 6330,
      "blots": 6331,
      "substantially": 6332,
      "perturb": 6333,
      "suppressive": 6334,
      "Charac": 6335,
      "eryth": 6336,
      "##598": 6337,
      "enhancer": 6338,
      "##idelines": 6339,
      "##ascular": 6340,
      "correlates": 6341,
      "upregulation": 6342,
      "routin": 6343,
      "room": 6344,
      "unaffected": 6345,
      "##dle": 6346,
      "posi": 6347,
      "Illumina": 6348,
      "holoenzyme": 6349,
      "##Point": 6350,
      "Hom": 6351,
      "RN": 6352,
      "indirect": 6353,
      "adop": 6354,
      "efforts": 6355,
      "ERBB4": 6356,
      "elu": 6357,
      "rapidly": 6358,
      "5C": 6359,
      "senes": 6360,
      "exer": 6361,
      "##pread": 6362,
      "mode": 6363,
      "V617F": 6364,
      "PTPN": 6365,
      "##BRCA": 6366,
      "sources": 6367,
      "##iguing": 6368,
      "##roso": 6369,
      "strep": 6370,
      "##ochond": 6371,
      "replace": 6372,
      "replaced": 6373,
      "##of": 6374,
      "##mC": 6375,
      "Min": 6376,
      "HEK293T": 6377,
      "glycine": 6378,
      "behavi": 6379,
      "glucose": 6380,
      "09": 6381,
      "##uly": 6382,
      "##LR": 6383,
      "prolong": 6384,
      "Respon": 6385,
      "obvious": 6386,
      "PAL": 6387,
      "##apsed": 6388,
      "subcellular": 6389,
      "New": 6390,
      "bod": 6391,
      "rib": 6392,
      "##mark": 6393,
      "GVGD": 6394,
      "summarized": 6395,
      "##pG": 6396,
      "disorder": 6397,
      "affects": 6398,
      "repeated": 6399,
      "##roun": 6400,
      "insight": 6401,
      "Technology": 6402,
      "##ethylation": 6403,
      "Site": 6404,
      "G12V": 6405,
      "course": 6406,
      "aim": 6407,
      "PowerPoint": 6408,
      "MATH": 6409,
      "1a": 6410,
      "vehicle": 6411,
      "insights": 6412,
      "##NCaP": 6413,
      "pull": 6414,
      "San": 6415,
      "fit": 6416,
      "RAF1": 6417,
      "3a": 6418,
      "Y5": 6419,
      "SNPs": 6420,
      "NM_": 6421,
      "RA": 6422,
      "##4D": 6423,
      "subclon": 6424,
      "2a": 6425,
      "##idine": 6426,
      "search": 6427,
      "gels": 6428,
      "stabilize": 6429,
      "FH": 6430,
      "##122": 6431,
      "WM278": 6432,
      "LNCaP": 6433,
      "loci": 6434,
      "##teen": 6435,
      "##ental": 6436,
      "Gln": 6437,
      "IGF": 6438,
      "##hetic": 6439,
      "confirming": 6440,
      "orient": 6441,
      "##zing": 6442,
      "Su": 6443,
      "ChIP": 6444,
      "Quan": 6445,
      "eos": 6446,
      "phosphoinositide": 6447,
      "run": 6448,
      "spl": 6449,
      "##onan": 6450,
      "1158": 6451,
      "3b": 6452,
      "Po": 6453,
      "pY": 6454,
      "##1E": 6455,
      "accordance": 6456,
      "##ploid": 6457,
      "##ighbor": 6458,
      "chemical": 6459,
      "##RSS": 6460,
      "resolved": 6461,
      "prepar": 6462,
      "p38": 6463,
      "##inform": 6464,
      "exclude": 6465,
      "##pended": 6466,
      "):": 6467,
      "cop": 6468,
      "stages": 6469,
      "surroun": 6470,
      "overcome": 6471,
      "integrated": 6472,
      "cient": 6473,
      "PALB2": 6474,
      "##CS": 6475,
      "conven": 6476,
      "matrix": 6477,
      "ice": 6478,
      "nam": 6479,
      "involves": 6480,
      "count": 6481,
      "μmol": 6482,
      "TI": 6483,
      "##770": 6484,
      "regulators": 6485,
      "Health": 6486,
      "liqu": 6487,
      "03": 6488,
      "extended": 6489,
      "closely": 6490,
      "pT": 6491,
      "μL": 6492,
      "##126": 6493,
      "promoters": 6494,
      "SI": 6495,
      "histological": 6496,
      "cerevis": 6497,
      "slow": 6498,
      "nonc": 6499,
      "##roliferation": 6500,
      "4E": 6501,
      "NE": 6502,
      "##fl": 6503,
      "comprom": 6504,
      "Ptd": 6505,
      "##ness": 6506,
      "cascade": 6507,
      "cerevisiae": 6508,
      "ring": 6509,
      "biology": 6510,
      "inactivated": 6511,
      "##8E": 6512,
      "introduction": 6513,
      "Comparison": 6514,
      "prin": 6515,
      "abrogated": 6516,
      "DMS": 6517,
      "##Pro": 6518,
      "T3": 6519,
      "##BER": 6520,
      "phosphotyrosine": 6521,
      "comput": 6522,
      "public": 6523,
      "##vation": 6524,
      "SOX": 6525,
      "defi": 6526,
      "TGFβ": 6527,
      "Science": 6528,
      "P2": 6529,
      "antis": 6530,
      "institu": 6531,
      "Amino": 6532,
      "fluor": 6533,
      "##equ": 6534,
      "##ades": 6535,
      "NK": 6536,
      "pediatric": 6537,
      "##ionine": 6538,
      "images": 6539,
      "heterogeneous": 6540,
      "vemurafenib": 6541,
      "propose": 6542,
      "1863": 6543,
      "couns": 6544,
      "Brd": 6545,
      "sulf": 6546,
      "##MIC": 6547,
      "##plications": 6548,
      "COOH": 6549,
      "unco": 6550,
      "exclusively": 6551,
      "##wenty": 6552,
      "neck": 6553,
      "excess": 6554,
      "HEK": 6555,
      "Tumors": 6556,
      "self": 6557,
      "##ymal": 6558,
      "##words": 6559,
      "carcinogenesis": 6560,
      "##7S": 6561,
      "composed": 6562,
      "oxid": 6563,
      "HNSCC": 6564,
      "Keywords": 6565,
      "##6C": 6566,
      "surprising": 6567,
      "period": 6568,
      "GE": 6569,
      "Activity": 6570,
      "typically": 6571,
      "##radi": 6572,
      "##GAP": 6573,
      "##N1": 6574,
      "restricted": 6575,
      "MEN": 6576,
      "##ste": 6577,
      "##iR": 6578,
      "##GK": 6579,
      "modifications": 6580,
      "combinations": 6581,
      "engineered": 6582,
      "##MD": 6583,
      "systematic": 6584,
      "acceler": 6585,
      "##precipitation": 6586,
      "##phila": 6587,
      "##ought": 6588,
      "mapping": 6589,
      "sought": 6590,
      "##ylamide": 6591,
      "guidelines": 6592,
      "##L2": 6593,
      "section": 6594,
      "respective": 6595,
      "COSMIC": 6596,
      "(%)": 6597,
      "##rosophila": 6598,
      "##transfer": 6599,
      "DMSO": 6600,
      "regimens": 6601,
      "competitive": 6602,
      "responsiveness": 6603,
      "##Ins": 6604,
      "humans": 6605,
      "makes": 6606,
      "June": 6607,
      "POLE": 6608,
      "liquid": 6609,
      "retin": 6610,
      "##urs": 6611,
      "scaff": 6612,
      "EN": 6613,
      "Wil": 6614,
      "chromosomes": 6615,
      "##oh": 6616,
      "##26A": 6617,
      "Noonan": 6618,
      "equil": 6619,
      "##9S": 6620,
      "##iton": 6621,
      "ARAF": 6622,
      "AND": 6623,
      "heterozygosity": 6624,
      "referred": 6625,
      "ana": 6626,
      "initiated": 6627,
      "hypothesized": 6628,
      "CpG": 6629,
      "##GP": 6630,
      "library": 6631,
      "problem": 6632,
      "Pim": 6633,
      "##ancy": 6634,
      "##cell": 6635,
      "forming": 6636,
      "SHP2": 6637,
      "efficient": 6638,
      "1b": 6639,
      "SSA": 6640,
      "feed": 6641,
      "##oph": 6642,
      "Five": 6643,
      "Many": 6644,
      "procedures": 6645,
      "Kaplan": 6646,
      "transfect": 6647,
      "064": 6648,
      "depending": 6649,
      "Represent": 6650,
      "##1N": 6651,
      "disrupted": 6652,
      "H3K": 6653,
      "explained": 6654,
      "U2AF1": 6655,
      "Strat": 6656,
      "##osition": 6657,
      "beg": 6658,
      "H2": 6659,
      "PLC": 6660,
      "##osome": 6661,
      "prem": 6662,
      "##points": 6663,
      "sple": 6664,
      "nuclei": 6665,
      "KDM": 6666,
      "malignancy": 6667,
      "Zn": 6668,
      "G170": 6669,
      "##ats": 6670,
      "Fol": 6671,
      "##isco": 6672,
      "##emor": 6673,
      "##639": 6674,
      "recurrence": 6675,
      "##tenance": 6676,
      "##jective": 6677,
      "Whereas": 6678,
      "(+": 6679,
      "Drosophila": 6680,
      "conn": 6681,
      "mitogen": 6682,
      "##PCR": 6683,
      "neither": 6684,
      "colle": 6685,
      "colleag": 6686,
      "transplant": 6687,
      "neur": 6688,
      "authors": 6689,
      "CM": 6690,
      "##ilotinib": 6691,
      "neu": 6692,
      "progenitor": 6693,
      "SB": 6694,
      "pel": 6695,
      "##6K": 6696,
      "relatives": 6697,
      "bacteri": 6698,
      "G12D": 6699,
      "RE": 6700,
      "simult": 6701,
      "spont": 6702,
      "mediates": 6703,
      "##1G": 6704,
      "drive": 6705,
      "adaptor": 6706,
      "'-": 6707,
      "##arding": 6708,
      "areas": 6709,
      "JAK": 6710,
      "##atform": 6711,
      "Box": 6712,
      "##ygen": 6713,
      "Sout": 6714,
      "##375": 6715,
      "##aper": 6716,
      "intronic": 6717,
      "##4A": 6718,
      "SMAD3": 6719,
      "dimers": 6720,
      "dem": 6721,
      "description": 6722,
      "endot": 6723,
      "deficiency": 6724,
      "##immun": 6725,
      "CHE": 6726,
      "4D": 6727,
      "selectively": 6728,
      "##ject": 6729,
      "SMAD2": 6730,
      "Cycl": 6731,
      "centrosome": 6732,
      "##TI": 6733,
      "amplic": 6734,
      "UbcH": 6735,
      "##oproliferative": 6736,
      "##agene": 6737,
      "##5A": 6738,
      "enrol": 6739,
      "ErbB4": 6740,
      "RS": 6741,
      "measurements": 6742,
      "Lung": 6743,
      "Meier": 6744,
      "##ersham": 6745,
      "##ises": 6746,
      "pros": 6747,
      "rearranged": 6748,
      "End": 6749,
      "colleagues": 6750,
      "NH": 6751,
      "deriv": 6752,
      "clusters": 6753,
      "extrem": 6754,
      "evident": 6755,
      "striking": 6756,
      "reveals": 6757,
      "maintenance": 6758,
      "informed": 6759,
      "states": 6760,
      "release": 6761,
      "Num": 6762,
      "##use": 6763,
      "Clon": 6764,
      "identifying": 6765,
      "Amersham": 6766,
      "A170": 6767,
      "Euro": 6768,
      "##82": 6769,
      "FANCA": 6770,
      "nude": 6771,
      "##heb": 6772,
      "variations": 6773,
      "relapsed": 6774,
      "Erk": 6775,
      "papillary": 6776,
      "aspar": 6777,
      "modification": 6778,
      "curves": 6779,
      "ns": 6780,
      "##rays": 6781,
      "processing": 6782,
      "D17": 6783,
      "Merlin": 6784,
      "surgery": 6785,
      "(<": 6786,
      "##Se": 6787,
      "H1047R": 6788,
      "##BRCA1": 6789,
      "hinge": 6790,
      "black": 6791,
      "##illa": 6792,
      "extraction": 6793,
      "Neu": 6794,
      "##urora": 6795,
      "van": 6796,
      "alanine": 6797,
      "conformations": 6798,
      "biom": 6799,
      "lymphomas": 6800,
      "##HODS": 6801,
      "##ways": 6802,
      "color": 6803,
      "Plasm": 6804,
      "Experimental": 6805,
      "Prob": 6806,
      "##cribed": 6807,
      "assumed": 6808,
      "Bo": 6809,
      "Growth": 6810,
      "Pms": 6811,
      "##PH": 6812,
      "##000": 6813,
      "pathological": 6814,
      "##cline": 6815,
      "readily": 6816,
      "Cri": 6817,
      "##ARA": 6818,
      "kine": 6819,
      "##41": 6820,
      "clustered": 6821,
      "microarray": 6822,
      "Pred": 6823,
      "##DH": 6824,
      "Stratagene": 6825,
      "##eb": 6826,
      "error": 6827,
      "abolish": 6828,
      "CARD11": 6829,
      "activator": 6830,
      "EGFRv": 6831,
      "##AAT": 6832,
      "##O1": 6833,
      "##agement": 6834,
      "probands": 6835,
      "fall": 6836,
      "microsatellite": 6837,
      "proteasome": 6838,
      "BCCs": 6839,
      "CBP": 6840,
      "cosegregation": 6841,
      "Ald": 6842,
      "WT1": 6843,
      "embryos": 6844,
      "CTNN": 6845,
      "copies": 6846,
      "UTR": 6847,
      "METHODS": 6848,
      "T6": 6849,
      "Ta": 6850,
      "##54A": 6851,
      "αC": 6852,
      "employed": 6853,
      "##omers": 6854,
      "TMP": 6855,
      "##ryp": 6856,
      "Representative": 6857,
      "Oncology": 6858,
      "′;": 6859,
      "antit": 6860,
      "created": 6861,
      "##istence": 6862,
      "Rem": 6863,
      "SOS": 6864,
      "##osen": 6865,
      "senescence": 6866,
      "Mill": 6867,
      "##urable": 6868,
      "##omach": 6869,
      "platform": 6870,
      "conflu": 6871,
      "Ha": 6872,
      "##trol": 6873,
      "qual": 6874,
      "achieve": 6875,
      "Pms1": 6876,
      "infil": 6877,
      "unrelated": 6878,
      "axis": 6879,
      "Aldrich": 6880,
      "Image": 6881,
      "FD": 6882,
      "##CAGG": 6883,
      "V560": 6884,
      "H11": 6885,
      "PMC": 6886,
      "identity": 6887,
      "tract": 6888,
      "Gener": 6889,
      "Up": 6890,
      "duration": 6891,
      "##back": 6892,
      "##Cl2": 6893,
      "pSer": 6894,
      "cytosol": 6895,
      "diminished": 6896,
      "cotransfected": 6897,
      "##RCC": 6898,
      "##eck": 6899,
      "laboratory": 6900,
      "##RSS2": 6901,
      "CHEK2": 6902,
      "Zh": 6903,
      "mol": 6904,
      "pA": 6905,
      "##101": 6906,
      "predictor": 6907,
      "PDGFRα": 6908,
      "##tility": 6909,
      "wash": 6910,
      "##fered": 6911,
      "improved": 6912,
      "arising": 6913,
      "supports": 6914,
      "healthy": 6915,
      "neoplastic": 6916,
      "silencing": 6917,
      "Six": 6918,
      "##7P": 6919,
      "##UC": 6920,
      "face": 6921,
      "protocols": 6922,
      "preferentially": 6923,
      "clar": 6924,
      "solvent": 6925,
      "Secondary": 6926,
      "##ulose": 6927,
      "GAL4": 6928,
      "08": 6929,
      "oligomerization": 6930,
      "widely": 6931,
      "confers": 6932,
      "formalin": 6933,
      "acts": 6934,
      "blocking": 6935,
      "+/+": 6936,
      "L1": 6937,
      "Twenty": 6938,
      "challen": 6939,
      "ther": 6940,
      "32P": 6941,
      "newly": 6942,
      "recip": 6943,
      "Triton": 6944,
      "curve": 6945,
      "performance": 6946,
      "growing": 6947,
      "##130": 6948,
      "IgG": 6949,
      "miR": 6950,
      "##121": 6951,
      "L3": 6952,
      "methionine": 6953,
      "##acrylamide": 6954,
      "Follow": 6955,
      "Lip": 6956,
      "middle": 6957,
      "Eco": 6958,
      "##lined": 6959,
      "reli": 6960,
      "##quisition": 6961,
      "BRAFV600E": 6962,
      "##MT3": 6963,
      "##actor": 6964,
      "Pharmac": 6965,
      "mesench": 6966,
      "##PA": 6967,
      "insert": 6968,
      "irradi": 6969,
      "units": 6970,
      "hete": 6971,
      "H1299": 6972,
      "##ering": 6973,
      "white": 6974,
      "histopath": 6975,
      "Tet": 6976,
      "V180": 6977,
      "probed": 6978,
      "reproduc": 6979,
      "TMPRSS2": 6980,
      "ABI": 6981,
      "Europe": 6982,
      "##lor": 6983,
      "perox": 6984,
      "destabilize": 6985,
      "Culture": 6986,
      "UC": 6987,
      "inline": 6988,
      "##off": 6989,
      "##reens": 6990,
      "##382": 6991,
      "environ": 6992,
      "discussed": 6993,
      "cutaneous": 6994,
      "plotted": 6995,
      "care": 6996,
      "##ypical": 6997,
      "allowing": 6998,
      "computational": 6999,
      "endothelial": 7000,
      "130": 7001,
      "dox": 7002,
      "##96M": 7003,
      "NTRK1": 7004,
      "PS": 7005,
      "strain": 7006,
      "distinguish": 7007,
      "variability": 7008,
      "Smads": 7009,
      "MO": 7010,
      "RR": 7011,
      "Ren": 7012,
      "##idin": 7013,
      "Corre": 7014,
      "mC": 7015,
      "microscopy": 7016,
      "##63922": 7017,
      "Har": 7018,
      "##ales": 7019,
      "aspec": 7020,
      "donor": 7021,
      "highlighted": 7022,
      "translational": 7023,
      "making": 7024,
      "Dat": 7025,
      "##X2": 7026,
      "residual": 7027,
      "##entif": 7028,
      "coverage": 7029,
      "counts": 7030,
      "posterior": 7031,
      "repression": 7032,
      "progenitors": 7033,
      "D816V": 7034,
      "nilotinib": 7035,
      "##ict": 7036,
      "CSF": 7037,
      "DNMT3": 7038,
      "Primary": 7039,
      "collagen": 7040,
      "La": 7041,
      "merlin": 7042,
      "screens": 7043,
      "processed": 7044,
      "##illin": 7045,
      "HEAT": 7046,
      "accompan": 7047,
      "06463922": 7048,
      "ion": 7049,
      "##2K": 7050,
      "##412": 7051,
      "##GAT": 7052,
      "baseline": 7053,
      "July": 7054,
      "##amin": 7055,
      "mild": 7056,
      "##rig": 7057,
      "##ogram": 7058,
      "bon": 7059,
      "oper": 7060,
      "requ": 7061,
      "viral": 7062,
      "dysreg": 7063,
      "A14": 7064,
      "conventional": 7065,
      "V599": 7066,
      "103": 7067,
      "Normal": 7068,
      "ranging": 7069,
      "##informatic": 7070,
      "Missense": 7071,
      "Top": 7072,
      "##terisk": 7073,
      "genetics": 7074,
      "Concl": 7075,
      "spleen": 7076,
      "United": 7077,
      "##Seq": 7078,
      "FAC": 7079,
      "decreas": 7080,
      "cd": 7081,
      "##fold": 7082,
      "##pt": 7083,
      "##ynonymous": 7084,
      "##36A": 7085,
      "artif": 7086,
      "SCLC": 7087,
      "##9C": 7088,
      "shif": 7089,
      "glioma": 7090,
      "oxygen": 7091,
      "E17K": 7092,
      "chimeric": 7093,
      "##HI": 7094,
      "##urk": 7095,
      "energy": 7096,
      "Altern": 7097,
      "prac": 7098,
      "glycer": 7099,
      "Selec": 7100,
      "limits": 7101,
      "salt": 7102,
      "SET": 7103,
      "Vol": 7104,
      "107": 7105,
      "##arkably": 7106,
      "understood": 7107,
      "tables": 7108,
      "PEST": 7109,
      "PTPN11": 7110,
      "node": 7111,
      "arm": 7112,
      "polar": 7113,
      "CTNNB1": 7114,
      "resus": 7115,
      "MB": 7116,
      "##ilent": 7117,
      "collection": 7118,
      "dataset": 7119,
      "PtdIns": 7120,
      "platinum": 7121,
      "NSCLCs": 7122,
      "ectopic": 7123,
      "biomark": 7124,
      "confidence": 7125,
      "neighbor": 7126,
      "##asts": 7127,
      "ens": 7128,
      "extension": 7129,
      "G13": 7130,
      "eas": 7131,
      "##9E": 7132,
      "polyacrylamide": 7133,
      "pul": 7134,
      "Nucle": 7135,
      "ni": 7136,
      "proto": 7137,
      "manif": 7138,
      "##onstitu": 7139,
      "breakpoint": 7140,
      "System": 7141,
      "youn": 7142,
      "##fatinib": 7143,
      "##allelic": 7144,
      "diluted": 7145,
      "Student": 7146,
      "N5": 7147,
      "##5S": 7148,
      "##olds": 7149,
      "##βR": 7150,
      "knockout": 7151,
      "smoking": 7152,
      "Tiss": 7153,
      "##wt": 7154,
      "typical": 7155,
      "Hy": 7156,
      ".(": 7157,
      "Pr": 7158,
      "Red": 7159,
      "downregulation": 7160,
      "Phosphorylation": 7161,
      "##termin": 7162,
      "phosphorylate": 7163,
      "VEGFR": 7164,
      "AK": 7165,
      "hair": 7166,
      "lesion": 7167,
      "##ibrium": 7168,
      "RTKs": 7169,
      "feedback": 7170,
      "##umines": 7171,
      "MutLα": 7172,
      "accompanied": 7173,
      "ATRX": 7174,
      "precipitated": 7175,
      "MG": 7176,
      "immunoprecipitates": 7177,
      "##zation": 7178,
      "subcloned": 7179,
      "##ids": 7180,
      "ARI": 7181,
      "glutamine": 7182,
      "##Asn": 7183,
      "##istration": 7184,
      "acquisition": 7185,
      "##768": 7186,
      "platelet": 7187,
      "abolished": 7188,
      "V1736A": 7189,
      "prolonged": 7190,
      "##comit": 7191,
      "circ": 7192,
      "##athione": 7193,
      "V654A": 7194,
      "angiogenesis": 7195,
      "##berg": 7196,
      "subtle": 7197,
      "commun": 7198,
      "invari": 7199,
      "Stat": 7200,
      "encode": 7201,
      "conditional": 7202,
      "GT": 7203,
      "miRNA": 7204,
      "fractions": 7205,
      "##Ser": 7206,
      "groove": 7207,
      "surgical": 7208,
      "##CLE": 7209,
      "inserted": 7210,
      "Mc": 7211,
      "rise": 7212,
      "##02": 7213,
      "digested": 7214,
      "positively": 7215,
      "A1708E": 7216,
      "qualit": 7217,
      "RBD": 7218,
      "##CAAG": 7219,
      "conservative": 7220,
      "overlap": 7221,
      "meta": 7222,
      "synonymous": 7223,
      "dock": 7224,
      "RNAi": 7225,
      "##alse": 7226,
      "unde": 7227,
      "##160": 7228,
      "surve": 7229,
      "Asian": 7230,
      "refs": 7231,
      "##expected": 7232,
      "subgroups": 7233,
      "evolutionary": 7234,
      "HNP": 7235,
      "leucine": 7236,
      "(>": 7237,
      "##ulates": 7238,
      "regarding": 7239,
      "##uzumab": 7240,
      "##bil": 7241,
      "describe": 7242,
      "proband": 7243,
      "Following": 7244,
      "belie": 7245,
      "atoms": 7246,
      "varying": 7247,
      "P4": 7248,
      "##S1": 7249,
      "interven": 7250,
      "′,": 7251,
      "##5H": 7252,
      "requirement": 7253,
      "chromatography": 7254,
      "py": 7255,
      "annot": 7256,
      "##me3": 7257,
      "Dec": 7258,
      "M14": 7259,
      "##First": 7260,
      "cardi": 7261,
      "EGFRvIII": 7262,
      "effort": 7263,
      "former": 7264,
      "##ubi": 7265,
      "HSC": 7266,
      "shorter": 7267,
      "##Ch": 7268,
      "attem": 7269,
      "element": 7270,
      "CBF": 7271,
      "Bas": 7272,
      "scanning": 7273,
      "OnlineFirst": 7274,
      "ARID1": 7275,
      "HNPCC": 7276,
      "oral": 7277,
      "leukemic": 7278,
      "prone": 7279,
      "Medicine": 7280,
      "CP": 7281,
      "##cr": 7282,
      "##ls": 7283,
      "originally": 7284,
      "Response": 7285,
      "what": 7286,
      "mitochond": 7287,
      "MPN": 7288,
      "BIM": 7289,
      "arch": 7290,
      "demonstrates": 7291,
      "acetylation": 7292,
      "RBM": 7293,
      "Wang": 7294,
      "##ics": 7295,
      "immunohistochemical": 7296,
      "V7": 7297,
      "##inucleotide": 7298,
      "explore": 7299,
      "Immunohist": 7300,
      "motility": 7301,
      "consists": 7302,
      "favorable": 7303,
      "premature": 7304,
      "##itrate": 7305,
      "place": 7306,
      "Frequ": 7307,
      "GM": 7308,
      "chosen": 7309,
      "CreERT2": 7310,
      "CAT": 7311,
      "mach": 7312,
      "##ubiquitin": 7313,
      "coactiv": 7314,
      "occup": 7315,
      "objective": 7316,
      "genetically": 7317,
      "800": 7318,
      "##299": 7319,
      "mitotic": 7320,
      "##6E": 7321,
      "##flex": 7322,
      "##elling": 7323,
      "JNK": 7324,
      "lacks": 7325,
      "myeloproliferative": 7326,
      "receiving": 7327,
      "2b": 7328,
      "viable": 7329,
      "##tase": 7330,
      "cloning": 7331,
      "##family": 7332,
      "overlapping": 7333,
      "Multi": 7334,
      "const": 7335,
      "mono": 7336,
      "##riad": 7337,
      "##mediately": 7338,
      "idea": 7339,
      "surrounding": 7340,
      "antitumor": 7341,
      "pretre": 7342,
      "MCF7": 7343,
      "Oncogenic": 7344,
      "controlled": 7345,
      "puromycin": 7346,
      "HDAC": 7347,
      "Nor": 7348,
      "##iC": 7349,
      "##ply": 7350,
      "conclude": 7351,
      "##planted": 7352,
      "immortal": 7353,
      "##ayer": 7354,
      "##going": 7355,
      "precurs": 7356,
      ".[": 7357,
      "na": 7358,
      "##fectamine": 7359,
      "Aff": 7360,
      "Chem": 7361,
      "##tioned": 7362,
      "##tidine": 7363,
      "details": 7364,
      "Be": 7365,
      "prevalent": 7366,
      "resuspended": 7367,
      "##tice": 7368,
      "passenger": 7369,
      "H3K4": 7370,
      "##etric": 7371,
      "R611": 7372,
      "Kn": 7373,
      "Spec": 7374,
      "##ERK": 7375,
      "##cellulose": 7376,
      "101": 7377,
      "Ampl": 7378,
      "injection": 7379,
      "##inophil": 7380,
      "Mel": 7381,
      "ca": 7382,
      "why": 7383,
      "Variant": 7384,
      "Cyclin": 7385,
      "G46": 7386,
      "successfully": 7387,
      "mesenchymal": 7388,
      "Ma": 7389,
      "false": 7390,
      "her": 7391,
      "##CB": 7392,
      "microscope": 7393,
      "UK": 7394,
      "##ink": 7395,
      "##omat": 7396,
      "throughput": 7397,
      "instead": 7398,
      "cytogenetic": 7399,
      "Germline": 7400,
      "mesylate": 7401,
      "maximum": 7402,
      "KI": 7403,
      "ster": 7404,
      "##771": 7405,
      "oppos": 7406,
      "delay": 7407,
      "gov": 7408,
      "popup": 7409,
      "spectra": 7410,
      "Mac": 7411,
      "TT": 7412,
      "mill": 7413,
      "FAT1": 7414,
      "glutathione": 7415,
      "recorded": 7416,
      "Jan": 7417,
      "##ara": 7418,
      "epitheli": 7419,
      "subject": 7420,
      "Ther": 7421,
      "checkpoint": 7422,
      "cen": 7423,
      "pL": 7424,
      "##omorph": 7425,
      "catalysis": 7426,
      "cytot": 7427,
      "assign": 7428,
      "##CCC": 7429,
      "R683": 7430,
      "B2": 7431,
      "SS": 7432,
      "reach": 7433,
      "dependence": 7434,
      "##kk2": 7435,
      "skipp": 7436,
      "abundance": 7437,
      "Bar": 7438,
      "##pin": 7439,
      "##agents": 7440,
      "turnover": 7441,
      "ETV1": 7442,
      "parad": 7443,
      "optimal": 7444,
      "inform": 7445,
      "##ATION": 7446,
      "potently": 7447,
      "centrifugation": 7448,
      "transactiv": 7449,
      "promoted": 7450,
      "Signific": 7451,
      "mediating": 7452,
      "synthesized": 7453,
      "Cle": 7454,
      "ten": 7455,
      "##ining": 7456,
      "##ential": 7457,
      "##iction": 7458,
      "sustained": 7459,
      "Grant": 7460,
      "##DI": 7461,
      "analogous": 7462,
      "specimen": 7463,
      "body": 7464,
      "list": 7465,
      "predicting": 7466,
      "multif": 7467,
      "irre": 7468,
      "always": 7469,
      "##rosis": 7470,
      "##27FS": 7471,
      "Blo": 7472,
      "##ECs": 7473,
      "dynamics": 7474,
      "PTPρ": 7475,
      "##itory": 7476,
      "##ashion": 7477,
      "yielded": 7478,
      "Antibod": 7479,
      "UbcH5": 7480,
      "Page": 7481,
      "depleted": 7482,
      "##E2": 7483,
      "Error": 7484,
      "iSH2": 7485,
      "160": 7486,
      "mostly": 7487,
      "supplemental": 7488,
      "Mice": 7489,
      "row": 7490,
      "##isons": 7491,
      "##tention": 7492,
      "siRNAs": 7493,
      "females": 7494,
      "C6": 7495,
      "fashion": 7496,
      "inclusion": 7497,
      "286": 7498,
      "retros": 7499,
      "EB": 7500,
      "109": 7501,
      "died": 7502,
      "reconstitu": 7503,
      "M1": 7504,
      "Toler": 7505,
      "##pted": 7506,
      "##CAF1": 7507,
      "123": 7508,
      "carboxy": 7509,
      "conversion": 7510,
      "whom": 7511,
      "##duction": 7512,
      "Lipo": 7513,
      "code": 7514,
      "ABC": 7515,
      "pooled": 7516,
      "supernatant": 7517,
      "Hu": 7518,
      "AKT2": 7519,
      "1G": 7520,
      "Y53": 7521,
      "##ewise": 7522,
      "risks": 7523,
      "Cdc": 7524,
      ")/": 7525,
      ")–": 7526,
      "Lik": 7527,
      "heterol": 7528,
      "translated": 7529,
      "simple": 7530,
      "synthetic": 7531,
      "equilibrium": 7532,
      "concer": 7533,
      "mechanistic": 7534,
      "##ovirus": 7535,
      "diffuse": 7536,
      "greatly": 7537,
      "Hence": 7538,
      "##eletal": 7539,
      "##seud": 7540,
      "belong": 7541,
      "spanning": 7542,
      "##uff": 7543,
      "accoun": 7544,
      "##ametinib": 7545,
      "MKK4": 7546,
      "Family": 7547,
      "##tg": 7548,
      "##ufficient": 7549,
      "##iter": 7550,
      "##rot": 7551,
      "2015": 7552,
      "Eng": 7553,
      "upregulated": 7554,
      "CUL": 7555,
      "animal": 7556,
      "D2": 7557,
      "GNA": 7558,
      "##113": 7559,
      "systemic": 7560,
      "lymphoid": 7561,
      "Mon": 7562,
      "precise": 7563,
      "+,": 7564,
      "Proliferation": 7565,
      "Agilent": 7566,
      "Em": 7567,
      "concomit": 7568,
      "##308": 7569,
      "Assays": 7570,
      "heterodimerization": 7571,
      "Dan": 7572,
      "PLX": 7573,
      "diversity": 7574,
      "##ximab": 7575,
      "Inhibition": 7576,
      "Chen": 7577,
      "gift": 7578,
      "ortholog": 7579,
      "HCA": 7580,
      "N8": 7581,
      "##ermin": 7582,
      "121": 7583,
      "##anese": 7584,
      "arrows": 7585,
      "column": 7586,
      "##vitinib": 7587,
      "lethal": 7588,
      "bacterial": 7589,
      "##27FSrc": 7590,
      "center": 7591,
      "nitro": 7592,
      "expand": 7593,
      "PM": 7594,
      "+/−": 7595,
      "F1174L": 7596,
      "FCS": 7597,
      "##ACT": 7598,
      "interfer": 7599,
      "NT": 7600,
      "afatinib": 7601,
      "mature": 7602,
      "##S2": 7603,
      "promin": 7604,
      "maximal": 7605,
      "BIC": 7606,
      "associate": 7607,
      "110": 7608,
      "oligonucleotide": 7609,
      "CIC": 7610,
      "##ked": 7611,
      "FBW7": 7612,
      "##ime": 7613,
      "exonic": 7614,
      "Colon": 7615,
      "deregulated": 7616,
      "Specifically": 7617,
      "extremely": 7618,
      "Aα": 7619,
      "C0": 7620,
      "R8": 7621,
      "##8G": 7622,
      "sensiti": 7623,
      "validate": 7624,
      "##arcomas": 7625,
      "Ro": 7626,
      "oste": 7627,
      "##ann": 7628,
      "##ested": 7629,
      "##CTION": 7630,
      "remod": 7631,
      "carrier": 7632,
      "BAF": 7633,
      "Her": 7634,
      "Math": 7635,
      "Sa": 7636,
      "TF": 7637,
      "NF2": 7638,
      "Slide": 7639,
      "peroxidase": 7640,
      "inlineView": 7641,
      "K12": 7642,
      "immediately": 7643,
      "enhances": 7644,
      "helicase": 7645,
      "5b": 7646,
      "RH": 7647,
      "tight": 7648,
      "##wal": 7649,
      "Residu": 7650,
      "FM": 7651,
      "##esides": 7652,
      "silent": 7653,
      "##ield": 7654,
      "##1003": 7655,
      "CTC": 7656,
      "SSC": 7657,
      "Y12": 7658,
      "##cat": 7659,
      "170": 7660,
      "rarely": 7661,
      "rig": 7662,
      "chaper": 7663,
      "avoid": 7664,
      "lymphocytes": 7665,
      "µM": 7666,
      "hapl": 7667,
      "##transferase": 7668,
      "##8T": 7669,
      "constitutional": 7670,
      "##ansion": 7671,
      "ABL1": 7672,
      "Bam": 7673,
      "Ret": 7674,
      "unch": 7675,
      "anaplastic": 7676,
      "RHO": 7677,
      "##GTT": 7678,
      "##RT": 7679,
      "toxic": 7680,
      "##ured": 7681,
      "consistently": 7682,
      "world": 7683,
      "vascular": 7684,
      "unst": 7685,
      "drivers": 7686,
      "promising": 7687,
      "CLL": 7688,
      "orientation": 7689,
      "Rheb": 7690,
      "hML": 7691,
      "##dup": 7692,
      "exists": 7693,
      "##bec": 7694,
      "##tile": 7695,
      "behavior": 7696,
      "counseling": 7697,
      "##orb": 7698,
      "Studies": 7699,
      "pseud": 7700,
      "##3C": 7701,
      "S22": 7702,
      "removal": 7703,
      "ethnic": 7704,
      "immunofluorescence": 7705,
      "fibroblast": 7706,
      ".).": 7707,
      "##ches": 7708,
      "##eding": 7709,
      "unlike": 7710,
      "##yond": 7711,
      "beyond": 7712,
      "##cept": 7713,
      "Hh": 7714,
      "cytokines": 7715,
      "##p53": 7716,
      "gray": 7717,
      "EWSR1": 7718,
      "adverse": 7719,
      "##ipore": 7720,
      "continued": 7721,
      "Hes": 7722,
      "WPD": 7723,
      "##4G": 7724,
      "Appro": 7725,
      "Material": 7726,
      "Hsp": 7727,
      "##phase": 7728,
      "management": 7729,
      "carboxyl": 7730,
      "destabilized": 7731,
      "Y527FSrc": 7732,
      "Millipore": 7733,
      "Melan": 7734,
      "bur": 7735,
      "reached": 7736,
      "1991": 7737,
      "##icial": 7738,
      "transfectants": 7739,
      "MI": 7740,
      "Mat": 7741,
      "fed": 7742,
      "graph": 7743,
      "##1L": 7744,
      "oncopro": 7745,
      "##ometric": 7746,
      "(.": 7747,
      "G3": 7748,
      "TEL": 7749,
      "bioinformatic": 7750,
      "Renilla": 7751,
      "xL": 7752,
      "##UCTION": 7753,
      "observe": 7754,
      "##angi": 7755,
      "Myriad": 7756,
      "appearance": 7757,
      "concurrent": 7758,
      "coexpress": 7759,
      "DA": 7760,
      "hMS": 7761,
      "depri": 7762,
      "categories": 7763,
      "Tissue": 7764,
      "cold": 7765,
      "TRiC": 7766,
      "##ODUCTION": 7767,
      "##tivariate": 7768,
      "##olitinib": 7769,
      "TGFBR": 7770,
      "nonsynonymous": 7771,
      "distance": 7772,
      "##uxolitinib": 7773,
      "damaging": 7774,
      "Deletion": 7775,
      "depends": 7776,
      "NH2": 7777,
      "duc": 7778,
      "1640": 7779,
      "##ynch": 7780,
      "pRB": 7781,
      "TrkA": 7782,
      "mA": 7783,
      "##Ras": 7784,
      "##CTTT": 7785,
      "HER3": 7786,
      "Chrom": 7787,
      "PKC412": 7788,
      "PTPRD": 7789,
      "heterologous": 7790,
      "DC": 7791,
      "tools": 7792,
      "interference": 7793,
      "bridge": 7794,
      "ongoing": 7795,
      "MUT": 7796,
      "phot": 7797,
      "inactivate": 7798,
      "Domain": 7799,
      "##Es": 7800,
      "##ilities": 7801,
      "##sets": 7802,
      "##ARCH": 7803,
      "loaded": 7804,
      "Zhang": 7805,
      "##p2": 7806,
      "leukaemia": 7807,
      "##aden": 7808,
      "schem": 7809,
      "See": 7810,
      "AB": 7811,
      "Core": 7812,
      "##nd": 7813,
      "##hern": 7814,
      "divided": 7815,
      "Relative": 7816,
      "##icillin": 7817,
      "##agenic": 7818,
      "Mb": 7819,
      "##tribution": 7820,
      "lar": 7821,
      "p19": 7822,
      "##con": 7823,
      "depicted": 7824,
      "accession": 7825,
      "GDC": 7826,
      "SOX9": 7827,
      "MIM": 7828,
      "au": 7829,
      "##VE": 7830,
      "##urg": 7831,
      "##yrin": 7832,
      "##tomycin": 7833,
      "expansion": 7834,
      "spectrom": 7835,
      "spontaneous": 7836,
      "##9G": 7837,
      "soluble": 7838,
      "##cium": 7839,
      "slides": 7840,
      "R130": 7841,
      "Ct": 7842,
      "##osidase": 7843,
      "##TRODUCTION": 7844,
      "extract": 7845,
      "Ben": 7846,
      "Targe": 7847,
      "examples": 7848,
      "INTRODUCTION": 7849,
      "G418": 7850,
      "µg": 7851,
      "endonucle": 7852,
      "Alternatively": 7853,
      "cryp": 7854,
      "##osal": 7855,
      "##icians": 7856,
      "CGH": 7857,
      "Gu": 7858,
      "Copy": 7859,
      "select": 7860,
      "Resistance": 7861,
      "##onyl": 7862,
      "pathology": 7863,
      "Suppor": 7864,
      "issue": 7865,
      "diag": 7866,
      "##aren": 7867,
      "MgCl2": 7868,
      "lymphoblastic": 7869,
      "hMLH1": 7870,
      "##1R": 7871,
      "interval": 7872,
      "##timately": 7873,
      "Control": 7874,
      "Cyc": 7875,
      "bul": 7876,
      "ure": 7877,
      "##alanine": 7878,
      "compart": 7879,
      "childhood": 7880,
      "preparation": 7881,
      "Y10": 7882,
      "fresh": 7883,
      "symp": 7884,
      "TGFBR2": 7885,
      "A1": 7886,
      "##uximab": 7887,
      "##bre": 7888,
      "##olip": 7889,
      "##activity": 7890,
      "synerg": 7891,
      "PKB": 7892,
      "Powerpoint": 7893,
      "LCH": 7894,
      "##ED": 7895,
      "##72": 7896,
      "databases": 7897,
      "qualitative": 7898,
      "ATG": 7899,
      "##utamide": 7900,
      "##troph": 7901,
      "##drogen": 7902,
      "##747": 7903,
      "give": 7904,
      "ank": 7905,
      "##osarcoma": 7906,
      "Genetics": 7907,
      "Can": 7908,
      "##O4": 7909,
      "##wh": 7910,
      "Nov": 7911,
      "metabolism": 7912,
      "OC": 7913,
      "mock": 7914,
      "185": 7915,
      "histologic": 7916,
      "Asp92": 7917,
      "oncogenesis": 7918,
      "essentially": 7919,
      "##ries": 7920,
      "standardized": 7921,
      "biotin": 7922,
      "resection": 7923,
      "spind": 7924,
      "cdk": 7925,
      "125": 7926,
      "apparently": 7927,
      "draw": 7928,
      "harbour": 7929,
      "CRL": 7930,
      "Rat": 7931,
      "##osine": 7932,
      "##oxyl": 7933,
      "##rand": 7934,
      "meg": 7935,
      "elucidate": 7936,
      "##etuximab": 7937,
      "changed": 7938,
      "BCL2": 7939,
      "KMT2D": 7940,
      "%–": 7941,
      "##ctive": 7942,
      "##Ala": 7943,
      "##acZ": 7944,
      "prop": 7945,
      "atypical": 7946,
      "##ukary": 7947,
      "SMAR": 7948,
      "Effect": 7949,
      "SF": 7950,
      "##PS": 7951,
      "##tron": 7952,
      "##stract": 7953,
      "hence": 7954,
      "##mal": 7955,
      "Unli": 7956,
      "randomly": 7957,
      "Accordingly": 7958,
      "##771ins": 7959,
      "##eratin": 7960,
      "termed": 7961,
      "FACS": 7962,
      "Hep": 7963,
      "mer": 7964,
      "##cher": 7965,
      "##orn": 7966,
      "##static": 7967,
      "NTRK3": 7968,
      "lentiviral": 7969,
      "skipping": 7970,
      "++": 7971,
      "gains": 7972,
      "similarity": 7973,
      "linking": 7974,
      "##Red": 7975,
      "##otypes": 7976,
      "##astuzumab": 7977,
      "cataly": 7978,
      "home": 7979,
      "##5L": 7980,
      "input": 7981,
      "spliced": 7982,
      "integration": 7983,
      "##OT": 7984,
      "##ocellular": 7985,
      "dramatically": 7986,
      "L1196M": 7987,
      "##9R": 7988,
      "withd": 7989,
      "modulate": 7990,
      "heterot": 7991,
      "H3122": 7992,
      "##lobulin": 7993,
      "1p": 7994,
      "GA": 7995,
      "##leuk": 7996,
      "##CAAT": 7997,
      "procedure": 7998,
      "princi": 7999,
      "##istant": 8000,
      "sheet": 8001,
      "proximal": 8002,
      "CAG": 8003,
      "OV": 8004,
      "Summ": 8005,
      "Vector": 8006,
      "calcium": 8007,
      "##LSL": 8008,
      "oligonucleotides": 8009,
      "Micro": 8010,
      "RNase": 8011,
      "Dul": 8012,
      "Y2": 8013,
      "signatures": 8014,
      "eukary": 8015,
      "distributed": 8016,
      "SHP": 8017,
      "##4C": 8018,
      "Super": 8019,
      "recommended": 8020,
      "R1699Q": 8021,
      "docking": 8022,
      "##ette": 8023,
      "distal": 8024,
      "Ovarian": 8025,
      "##ps": 8026,
      "##abase": 8027,
      "variables": 8028,
      "speculate": 8029,
      "otherwise": 8030,
      "abrogate": 8031,
      "incorporation": 8032,
      "ankyrin": 8033,
      "round": 8034,
      "autosomal": 8035,
      "Exam": 8036,
      "create": 8037,
      "maintaining": 8038,
      "NUP": 8039,
      "transplantation": 8040,
      "machin": 8041,
      "##domain": 8042,
      "##ffered": 8043,
      "phenylalanine": 8044,
      "Aurora": 8045,
      "##isation": 8046,
      "existence": 8047,
      "attribu": 8048,
      "Whole": 8049,
      "Experiments": 8050,
      "IFN": 8051,
      "proximity": 8052,
      "##1B": 8053,
      "##hyde": 8054,
      "##KO": 8055,
      "##eratinib": 8056,
      "##kinase": 8057,
      "Thir": 8058,
      "##icin": 8059,
      "leukemias": 8060,
      "Cos": 8061,
      "##where": 8062,
      "Pim1": 8063,
      "##ae": 8064,
      "##eta": 8065,
      "GRD": 8066,
      "encompassing": 8067,
      "just": 8068,
      "incom": 8069,
      "##oxia": 8070,
      "suppressors": 8071,
      "##immuno": 8072,
      "##rosc": 8073,
      "destabilizing": 8074,
      "category": 8075,
      "entry": 8076,
      "astrocyt": 8077,
      "exce": 8078,
      "##dehyde": 8079,
      "emph": 8080,
      "alignments": 8081,
      "starting": 8082,
      "minimum": 8083,
      "galactose": 8084,
      "European": 8085,
      "##becco": 8086,
      "##2B": 8087,
      "XL": 8088,
      "insensitive": 8089,
      "V560D": 8090,
      "Dulbecco": 8091,
      "posttrans": 8092,
      "comprised": 8093,
      "Ho": 8094,
      "OF": 8095,
      "##dm": 8096,
      "##xl": 8097,
      "comparisons": 8098,
      "433": 8099,
      "vast": 8100,
      "##E6": 8101,
      "##61G": 8102,
      "muscle": 8103,
      "eluted": 8104,
      "Hes1": 8105,
      "##ker": 8106,
      "considerable": 8107,
      "trigger": 8108,
      "##actorial": 8109,
      "aspects": 8110,
      "machinery": 8111,
      "Memor": 8112,
      "##wing": 8113,
      "##348": 8114,
      "ranged": 8115,
      "mil": 8116,
      "##7H": 8117,
      "resembl": 8118,
      "calf": 8119,
      "qPCR": 8120,
      "immunoblotted": 8121,
      "TN": 8122,
      "##746": 8123,
      "1E": 8124,
      "Die": 8125,
      "##CATT": 8126,
      "DOD": 8127,
      "##Ca": 8128,
      "##etrix": 8129,
      "purification": 8130,
      "##omerase": 8131,
      "trigg": 8132,
      "hBRCA1": 8133,
      "##ip1": 8134,
      "##132": 8135,
      "Memorial": 8136,
      "L7": 8137,
      "##ratinib": 8138,
      "##H3": 8139,
      "stranded": 8140,
      "homodimer": 8141,
      "##OG": 8142,
      "press": 8143,
      "##atif": 8144,
      "folded": 8145,
      "locations": 8146,
      "CD8": 8147,
      "homot": 8148,
      "stabilized": 8149,
      "Lipofectamine": 8150,
      "D92": 8151,
      "##eting": 8152,
      "##ymetrix": 8153,
      "##insC": 8154,
      "HC": 8155,
      "##4R": 8156,
      "monitor": 8157,
      "mobility": 8158,
      "withdra": 8159,
      "F12": 8160,
      "hematologic": 8161,
      "breaks": 8162,
      "elucid": 8163,
      "burden": 8164,
      "Pf": 8165,
      "pE": 8166,
      "##sRed": 8167,
      "brom": 8168,
      "##GR": 8169,
      "180": 8170,
      "simultaneously": 8171,
      "IM": 8172,
      "subsets": 8173,
      "lacked": 8174,
      "strands": 8175,
      "Summary": 8176,
      "##κB": 8177,
      "aligned": 8178,
      "serous": 8179,
      "disrupting": 8180,
      "ruxolitinib": 8181,
      "##~~": 8182,
      "##tection": 8183,
      "enrolled": 8184,
      "E6": 8185,
      "bin": 8186,
      "##rant": 8187,
      "##omycin": 8188,
      "acidic": 8189,
      "CD34": 8190,
      "Committee": 8191,
      "reading": 8192,
      "##iscovery": 8193,
      "intestinal": 8194,
      "numbering": 8195,
      "Under": 8196,
      "Construc": 8197,
      "pRb": 8198,
      "subcut": 8199,
      "##Change": 8200,
      "incomplete": 8201,
      "agon": 8202,
      "TGFB": 8203,
      "I26A": 8204,
      "Mor": 8205,
      "kary": 8206,
      "##pg": 8207,
      "triple": 8208,
      "goat": 8209,
      "acting": 8210,
      "BRD": 8211,
      "diver": 8212,
      "##557": 8213,
      "utilized": 8214,
      "L75": 8215,
      "##NCER": 8216,
      "pancreas": 8217,
      "complementary": 8218,
      "Pten": 8219,
      "Rap": 8220,
      "##abe": 8221,
      "steps": 8222,
      "washing": 8223,
      "R3": 8224,
      "unexpected": 8225,
      "##illed": 8226,
      "6C": 8227,
      "##usive": 8228,
      "##ols": 8229,
      "4a": 8230,
      "Lo": 8231,
      "NY": 8232,
      "bil": 8233,
      "##ateral": 8234,
      "2159": 8235,
      "driving": 8236,
      "nitrogen": 8237,
      "consisted": 8238,
      "8290": 8239,
      "routine": 8240,
      "Likewise": 8241,
      "Sce": 8242,
      "##3V": 8243,
      "concomitant": 8244,
      "Case": 8245,
      "##lands": 8246,
      "##006": 8247,
      "trametinib": 8248,
      "contributing": 8249,
      "Increased": 8250,
      "algorithms": 8251,
      "Affymetrix": 8252,
      "S8": 8253,
      "##GFP": 8254,
      "move": 8255,
      "Zn2": 8256,
      "unstable": 8257,
      "##ln": 8258,
      "##allmark": 8259,
      "accom": 8260,
      "remission": 8261,
      "quite": 8262,
      "2α": 8263,
      "nt": 8264,
      "U2OS": 8265,
      "L861Q": 8266,
      "##omorphic": 8267,
      "-/": 8268,
      "L140": 8269,
      "imaging": 8270,
      "unphosphorylated": 8271,
      "heterodimers": 8272,
      "morphological": 8273,
      "replacement": 8274,
      "endonuclease": 8275,
      "gave": 8276,
      "experienced": 8277,
      "discrep": 8278,
      "nih": 8279,
      "Do": 8280,
      "##A3": 8281,
      "##EARCH": 8282,
      "##iesis": 8283,
      "##andscape": 8284,
      "Individu": 8285,
      "mastocytosis": 8286,
      "Taq": 8287,
      "Slo": 8288,
      "p73": 8289,
      "##opically": 8290,
      "))": 8291,
      "immunog": 8292,
      "Pe": 8293,
      "hallmark": 8294,
      "Proteins": 8295,
      "counterpar": 8296,
      "cetuximab": 8297,
      "comparative": 8298,
      "FGFR4": 8299,
      "junctions": 8300,
      "PV": 8301,
      "##discovery": 8302,
      "cancerdiscovery": 8303,
      "Review": 8304,
      "RESEARCH": 8305,
      "Jak": 8306,
      "##api": 8307,
      "##oxy": 8308,
      "Compared": 8309,
      "equally": 8310,
      "H4": 8311,
      "T13": 8312,
      "##FL": 8313,
      "immunost": 8314,
      "##faces": 8315,
      "##beit": 8316,
      "##ploins": 8317,
      "35S": 8318,
      "illustrated": 8319,
      "miss": 8320,
      "##ders": 8321,
      "Detail": 8322,
      "q22": 8323,
      "stren": 8324,
      "R1699W": 8325,
      "prominent": 8326,
      "BI": 8327,
      "asym": 8328,
      "##portun": 8329,
      "##64P": 8330,
      "highlight": 8331,
      "responders": 8332,
      "coiled": 8333,
      "EMS": 8334,
      "analog": 8335,
      "##istribu": 8336,
      "substituted": 8337,
      "restore": 8338,
      "EX": 8339,
      "##ford": 8340,
      "(#": 8341,
      "##ned": 8342,
      "breakpoints": 8343,
      "##rit": 8344,
      "viewer": 8345,
      "spots": 8346,
      "metabolic": 8347,
      "steric": 8348,
      "Mouse": 8349,
      "away": 8350,
      "##pm": 8351,
      "founder": 8352,
      "1990": 8353,
      "guanine": 8354,
      "Mass": 8355,
      "##ERI": 8356,
      "microd": 8357,
      "S9": 8358,
      "bal": 8359,
      "retention": 8360,
      "ARTI": 8361,
      "##istinguish": 8362,
      "streptomycin": 8363,
      "Antibodies": 8364,
      "Approximately": 8365,
      "Rep": 8366,
      "##bad": 8367,
      "Proced": 8368,
      "disrupts": 8369,
      "streng": 8370,
      "DTT": 8371,
      "SBC": 8372,
      "005": 8373,
      "##iques": 8374,
      "emergence": 8375,
      "Bcr": 8376,
      "albeit": 8377,
      "##olute": 8378,
      "transcribed": 8379,
      "classifications": 8380,
      "fewer": 8381,
      "penicillin": 8382,
      "Graph": 8383,
      "##gg": 8384,
      "opportun": 8385,
      "Institutional": 8386,
      "emerged": 8387,
      "Ol": 8388,
      "R33": 8389,
      "biologic": 8390,
      "explored": 8391,
      "Gli": 8392,
      "##orafenib": 8393,
      "##ada": 8394,
      "proteasomal": 8395,
      "Procedures": 8396,
      "Ket": 8397,
      "##ets": 8398,
      "varied": 8399,
      "Small": 8400,
      "instance": 8401,
      "predispose": 8402,
      "##ocalization": 8403,
      "Soft": 8404,
      "##5Q": 8405,
      "phosphatases": 8406,
      "E2F": 8407,
      "S24": 8408,
      "deep": 8409,
      "##undred": 8410,
      "A76": 8411,
      "Pd": 8412,
      "##ption": 8413,
      "##titative": 8414,
      "determination": 8415,
      "deregulation": 8416,
      "EcoRI": 8417,
      "GL": 8418,
      "I11": 8419,
      "export": 8420,
      "shared": 8421,
      "estimates": 8422,
      "Carls": 8423,
      "Supporting": 8424,
      "Carlsbad": 8425,
      "##6R": 8426,
      "##CAA": 8427,
      "##157": 8428,
      "exhibits": 8429,
      "stabilizing": 8430,
      "programs": 8431,
      "##istinguishable": 8432,
      "HB": 8433,
      "Lynch": 8434,
      "rules": 8435,
      "closed": 8436,
      "##crimin": 8437,
      "Kettering": 8438,
      "H19": 8439,
      "TOR": 8440,
      "sex": 8441,
      "ATPase": 8442,
      "Constitu": 8443,
      "techniques": 8444,
      "reasons": 8445,
      "galactosidase": 8446,
      "spindle": 8447,
      "Luciferase": 8448,
      "##criptional": 8449,
      "ends": 8450,
      "filtration": 8451,
      "opposite": 8452,
      "5a": 8453,
      "SY": 8454,
      "displaying": 8455,
      "hundred": 8456,
      "##ria": 8457,
      "LM": 8458,
      "##hab": 8459,
      "Unlike": 8460,
      "spread": 8461,
      "##ucas": 8462,
      "##amer": 8463,
      "##aki": 8464,
      "Remarkably": 8465,
      "largest": 8466,
      "##isphosphate": 8467,
      "throm": 8468,
      "##ips": 8469,
      "split": 8470,
      "fedratinib": 8471,
      "TM": 8472,
      "##Asp": 8473,
      "DsRed": 8474,
      "granul": 8475,
      "##utions": 8476,
      "Intern": 8477,
      "spectrometry": 8478,
      "##brevi": 8479,
      "WI": 8480,
      "institutional": 8481,
      "γ1": 8482,
      "recognizes": 8483,
      "logistic": 8484,
      "R249S": 8485,
      "_EGFR": 8486,
      "##cul": 8487,
      "GEF": 8488,
      "R50": 8489,
      "##ging": 8490,
      "##560": 8491,
      "##itable": 8492,
      "genotyping": 8493,
      "BMP": 8494,
      "Sf": 8495,
      "rescu": 8496,
      "subm": 8497,
      "colored": 8498,
      "regardless": 8499,
      "ABD": 8500,
      "##D8": 8501,
      "##wide": 8502,
      "intra": 8503,
      "G719S": 8504,
      "remove": 8505,
      "##pharose": 8506,
      "MCL": 8507,
      "Swit": 8508,
      "##4B": 8509,
      "##attribution": 8510,
      "##CATG": 8511,
      "methylated": 8512,
      "CREB": 8513,
      "recruited": 8514,
      "glycerol": 8515,
      "##uminescence": 8516,
      "G16": 8517,
      "OCT": 8518,
      "MDA": 8519,
      "eosinophil": 8520,
      "Southern": 8521,
      "AMP": 8522,
      "##growth": 8523,
      "##aded": 8524,
      "direc": 8525,
      "emerging": 8526,
      "GATA3": 8527,
      "million": 8528,
      "##GAAG": 8529,
      "adjus": 8530,
      "ARTICLE": 8531,
      "SARA": 8532,
      "Y1003": 8533,
      "crystallographic": 8534,
      "pERK": 8535,
      "indistinguishable": 8536,
      "##FPE": 8537,
      "PolyP": 8538,
      "Number": 8539,
      "Sloan": 8540,
      "RB1": 8541,
      "SNF": 8542,
      "##5R": 8543,
      "##QEA": 8544,
      "##urin": 8545,
      "aug": 8546,
      "rule": 8547,
      "​(": 8548,
      "##ote": 8549,
      "##hr": 8550,
      "altering": 8551,
      "##6H": 8552,
      "##GTG": 8553,
      "##ero": 8554,
      "prev": 8555,
      "linkage": 8556,
      "_EGFR_": 8557,
      "Current": 8558,
      "Cross": 8559,
      "DE": 8560,
      "Mutational": 8561,
      "Abstract": 8562,
      "pleural": 8563,
      "recommendations": 8564,
      "administration": 8565,
      "##entific": 8566,
      "##ley": 8567,
      "*,": 8568,
      "H93": 8569,
      "HMG": 8570,
      "##GL": 8571,
      "##iled": 8572,
      "experience": 8573,
      "PAX": 8574,
      "diagram": 8575,
      "symptom": 8576,
      "SEM": 8577,
      "fat": 8578,
      "segreg": 8579,
      "QI": 8580,
      "pic": 8581,
      "##orti": 8582,
      "##ource": 8583,
      "R273H": 8584,
      "infiltr": 8585,
      "##mobil": 8586,
      "suppresses": 8587,
      "stronger": 8588,
      "NMR": 8589,
      "Database": 8590,
      "Mad": 8591,
      "determining": 8592,
      "downregulated": 8593,
      "own": 8594,
      "Collectively": 8595,
      "NAD": 8596,
      "##agle": 8597,
      "Caucas": 8598,
      "practice": 8599,
      "Hel": 8600,
      "##1S": 8601,
      "##ool": 8602,
      "##ks": 8603,
      "##ERY": 8604,
      "amplify": 8605,
      "serves": 8606,
      "##tism": 8607,
      "revers": 8608,
      "serial": 8609,
      "##770_": 8610,
      "irreversible": 8611,
      "rescued": 8612,
      "Dic": 8613,
      "discrimin": 8614,
      "challenge": 8615,
      "Caucasian": 8616,
      "##70I": 8617,
      "evolutionarily": 8618,
      "RHOA": 8619,
      "immunoglobulin": 8620,
      "##istribution": 8621,
      "hypoxia": 8622,
      "rationale": 8623,
      "remodeling": 8624,
      "##XL": 8625,
      "##herent": 8626,
      "laten": 8627,
      "E545K": 8628,
      "SMARCA": 8629,
      "##oring": 8630,
      "##astic": 8631,
      "##rioid": 8632,
      "comprising": 8633,
      "absolute": 8634,
      "Sensitivity": 8635,
      "##Pd": 8636,
      "##540": 8637,
      "extensively": 8638,
      "FFPE": 8639,
      "anne": 8640,
      "##itone": 8641,
      "##534": 8642,
      "GBMs": 8643,
      "ROC": 8644,
      "flank": 8645,
      "iii": 8646,
      "SSCP": 8647,
      "5D": 8648,
      "D10": 8649,
      "haploins": 8650,
      "trastuzumab": 8651,
      "denaturing": 8652,
      "communication": 8653,
      "EL": 8654,
      "##2Y": 8655,
      "haemat": 8656,
      "##13G": 8657,
      "##ullin": 8658,
      "IIIb": 8659,
      "GAPDH": 8660,
      "L2": 8661,
      "##oradi": 8662,
      "##18T": 8663,
      "displays": 8664,
      "DISCOV": 8665,
      "Pathology": 8666,
      "sulfate": 8667,
      "DISCOVERY": 8668,
      "ÃŸ": 8669,
      "resected": 8670,
      "dephosphorylation": 8671,
      "Biochemical": 8672,
      "packing": 8673,
      "anticip": 8674,
      "Subs": 8675,
      "cytosolic": 8676,
      "##habd": 8677,
      "Mutagenesis": 8678,
      "reduces": 8679,
      "solely": 8680,
      "Upon": 8681,
      "dim": 8682,
      "##TGG": 8683,
      "##OF": 8684,
      "weaken": 8685,
      "mucosal": 8686,
      "Dise": 8687,
      "Ile": 8688,
      "Puc": 8689,
      "landscape": 8690,
      "##istered": 8691,
      "##amb": 8692,
      "surv": 8693,
      "erythro": 8694,
      "Down": 8695,
      "##ca": 8696,
      "##lets": 8697,
      "##amil": 8698,
      "##pectively": 8699,
      "hepatocellular": 8700,
      "TGFBR1": 8701,
      "##pped": 8702,
      "bases": 8703,
      "##odend": 8704,
      "autism": 8705,
      "neratinib": 8706,
      "genomes": 8707,
      "##114": 8708,
      "catalytically": 8709,
      "invariant": 8710,
      "R611Q": 8711,
      "SceI": 8712,
      "transgene": 8713,
      "stratif": 8714,
      "53BP1": 8715,
      "untrans": 8716,
      "manifest": 8717,
      "Pos": 8718,
      "##Bank": 8719,
      "##uvant": 8720,
      "2E": 8721,
      "Green": 8722,
      "##5N": 8723,
      "##urally": 8724,
      "suff": 8725,
      "##ordant": 8726,
      "Effects": 8727,
      "##oxylin": 8728,
      "-(": 8729,
      "ray": 8730,
      "##aved": 8731,
      "##VP": 8732,
      "intriguing": 8733,
      "glycos": 8734,
      "mentioned": 8735,
      "Collection": 8736,
      "##598F": 8737,
      "compromised": 8738,
      "##arib": 8739,
      "dishes": 8740,
      "histidine": 8741,
      "clinicopath": 8742,
      "owing": 8743,
      "H16": 8744,
      "##soph": 8745,
      "BLI": 8746,
      "##apiens": 8747,
      "--": 8748,
      "Through": 8749,
      "(∼": 8750,
      "City": 8751,
      "Km": 8752,
      "mTORC2": 8753,
      "Japanese": 8754,
      "H1": 8755,
      "##eness": 8756,
      "arrays": 8757,
      "##380": 8758,
      "simulations": 8759,
      "PTCH1": 8760,
      "constant": 8761,
      "States": 8762,
      "Phase": 8763,
      "steady": 8764,
      "reflects": 8765,
      "##tect": 8766,
      "##cycline": 8767,
      "Immunoblotting": 8768,
      "antisense": 8769,
      "fluoride": 8770,
      "ensure": 8771,
      "Tnf": 8772,
      "##ono": 8773,
      "##acing": 8774,
      "##vering": 8775,
      "adren": 8776,
      "proven": 8777,
      "attributed": 8778,
      "##limin": 8779,
      "##ano": 8780,
      "dovitinib": 8781,
      "Grantham": 8782,
      "##leukin": 8783,
      "preventing": 8784,
      "multifactorial": 8785,
      "T16": 8786,
      "transcriptome": 8787,
      "CNS": 8788,
      "HT": 8789,
      "urot": 8790,
      "##ev": 8791,
      "##764": 8792,
      "##prisingly": 8793,
      "Purif": 8794,
      "P16": 8795,
      "’-": 8796,
      "##hel": 8797,
      "dehy": 8798,
      "102": 8799,
      "bias": 8800,
      "/).": 8801,
      "5382": 8802,
      "C11": 8803,
      "Ewing": 8804,
      "##GTGG": 8805,
      "worse": 8806,
      "R4": 8807,
      "indels": 8808,
      "##uclease": 8809,
      "blasts": 8810,
      "dysplasia": 8811,
      "highlights": 8812,
      "Frequency": 8813,
      "During": 8814,
      "##ecu": 8815,
      "considering": 8816,
      "R132H": 8817,
      "##ped": 8818,
      "##itude": 8819,
      "##plicated": 8820,
      "suspected": 8821,
      "Character": 8822,
      "availability": 8823,
      "emphas": 8824,
      "Hi": 8825,
      "blast": 8826,
      "##opoiesis": 8827,
      "CO2": 8828,
      "attenuated": 8829,
      "PolyPhen": 8830,
      "E13": 8831,
      "sapiens": 8832,
      "##tiveness": 8833,
      "module": 8834,
      "##ocarcinoma": 8835,
      "libraries": 8836,
      "U87": 8837,
      "##zol": 8838,
      "##IG": 8839,
      "##sewhere": 8840,
      "Atl": 8841,
      "##ERIAL": 8842,
      "symptoms": 8843,
      "7A": 8844,
      "migr": 8845,
      "ECD": 8846,
      "##liminary": 8847,
      "Eagle": 8848,
      "heat": 8849,
      "tens": 8850,
      "##after": 8851,
      "##mp": 8852,
      "acin": 8853,
      "##odys": 8854,
      "Consequently": 8855,
      "naturally": 8856,
      "paren": 8857,
      "##olab": 8858,
      "##monary": 8859,
      "Surprisingly": 8860,
      "file": 8861,
      "##DC": 8862,
      "##plified": 8863,
      "Clontech": 8864,
      "cytotoxic": 8865,
      "BLIMP": 8866,
      "Py": 8867,
      "##ometer": 8868,
      "hypers": 8869,
      "moderately": 8870,
      "cryptic": 8871,
      "L34": 8872,
      "sum": 8873,
      "##BT": 8874,
      "##p1": 8875,
      "diame": 8876,
      "physical": 8877,
      "ACV": 8878,
      "3E": 8879,
      "treating": 8880,
      "output": 8881,
      "multivariate": 8882,
      "0094": 8883,
      "Mann": 8884,
      "recurrently": 8885,
      "Mean": 8886,
      "activators": 8887,
      "##rs": 8888,
      "simply": 8889,
      "Homo": 8890,
      "N822": 8891,
      "##ortium": 8892,
      "TOP": 8893,
      "V14": 8894,
      "##F1174": 8895,
      "##3_": 8896,
      "ALKF1174": 8897,
      "Genes": 8898,
      "002": 8899,
      "eventually": 8900,
      "namely": 8901,
      "raised": 8902,
      "withdrawal": 8903,
      "##2m": 8904,
      "##HD": 8905,
      "##ina": 8906,
      "##oses": 8907,
      "assembl": 8908,
      "restored": 8909,
      "MATERIAL": 8910,
      "hypermut": 8911,
      "accepted": 8912,
      "worldwide": 8913,
      "##rist": 8914,
      "##asy": 8915,
      "phosphos": 8916,
      "Recom": 8917,
      "BrdU": 8918,
      "112": 8919,
      "##ibly": 8920,
      "neural": 8921,
      "HEP": 8922,
      "Drug": 8923,
      "111": 8924,
      "interleukin": 8925,
      "diverg": 8926,
      "MR": 8927,
      "##OBER": 8928,
      "##MUT": 8929,
      "doi": 8930,
      "calculate": 8931,
      "Median": 8932,
      "OCTOBER": 8933,
      "5mC": 8934,
      "string": 8935,
      "##ouis": 8936,
      "SNU": 8937,
      ".”": 8938,
      "DHT": 8939,
      "##ading": 8940,
      "identifi": 8941,
      "melanocytes": 8942,
      "Anim": 8943,
      "3H": 8944,
      "past": 8945,
      "##tinin": 8946,
      "prospective": 8947,
      "Mechan": 8948,
      "##Cre": 8949,
      "follic": 8950,
      "meeting": 8951,
      "##ervical": 8952,
      "SCP": 8953,
      "proteolytic": 8954,
      "(+)": 8955,
      "S10": 8956,
      "dinucleotide": 8957,
      "##2E": 8958,
      "Web": 8959,
      "package": 8960,
      "informative": 8961,
      "CycK": 8962,
      "thromb": 8963,
      "latency": 8964,
      "maps": 8965,
      "##elled": 8966,
      "CAAX": 8967,
      "Transcriptional": 8968,
      "addressed": 8969,
      "Elf3Δ": 8970,
      "***": 8971,
      "6D": 8972,
      "##1I": 8973,
      "##right": 8974,
      "##7C": 8975,
      "accounts": 8976,
      "nitrocellulose": 8977,
      "mAb": 8978,
      "Age": 8979,
      "France": 8980,
      "rs": 8981,
      "virt": 8982,
      "saf": 8983,
      "##PT": 8984,
      "##rie": 8985,
      "centrifuged": 8986,
      "Fran": 8987,
      "##adish": 8988,
      "doxy": 8989,
      "##rise": 8990,
      "11q": 8991,
      "myeloma": 8992,
      "severely": 8993,
      "M1689": 8994,
      "DAP": 8995,
      "D59": 8996,
      "GAPs": 8997,
      "duplications": 8998,
      "Evalu": 8999,
      "..": 9000,
      "Soci": 9001,
      "##herry": 9002,
      "consecu": 9003,
      "FLI1": 9004,
      "##ethylated": 9005,
      "A7": 9006,
      "East": 9007,
      "##cre": 9008,
      "insufficient": 9009,
      "pressure": 9010,
      "A375": 9011,
      "Kd": 9012,
      "exclusion": 9013,
      "H17": 9014,
      "Sep": 9015,
      "Wap": 9016,
      "nut": 9017,
      "##5V": 9018,
      "phosphorylates": 9019,
      "GenBank": 9020,
      "##ferenti": 9021,
      "destabilization": 9022,
      "Access": 9023,
      "correctly": 9024,
      "orange": 9025,
      "rein": 9026,
      "240": 9027,
      "approval": 9028,
      "pharmacological": 9029,
      "MUTATION": 9030,
      "Mo": 9031,
      "NLS": 9032,
      "##cler": 9033,
      "adjusted": 9034,
      "prevents": 9035,
      "C65": 9036,
      "hg": 9037,
      "underlined": 9038,
      "CMV": 9039,
      "Therap": 9040,
      "##optotic": 9041,
      "119": 9042,
      "##enop": 9043,
      "inability": 9044,
      "exo": 9045,
      "##elected": 9046,
      "##597": 9047,
      "##1853": 9048,
      "electron": 9049,
      "IKK": 9050,
      "T17": 9051,
      "edu": 9052,
      "supplementary": 9053,
      "Characteristic": 9054,
      "M1689R": 9055,
      "K4": 9056,
      "SV": 9057,
      "S34": 9058,
      "##B3": 9059,
      "reagents": 9060,
      "genotypes": 9061,
      "distant": 9062,
      "Jak2": 9063,
      "Mll": 9064,
      "replicates": 9065,
      "weakly": 9066,
      "Subsequently": 9067,
      "BamHI": 9068,
      "A6": 9069,
      "CN": 9070,
      "Cryst": 9071,
      "computed": 9072,
      "##26113": 9073,
      "verify": 9074,
      "AP26113": 9075,
      "TRK": 9076,
      "Mich": 9077,
      "Primer": 9078,
      "rot": 9079,
      "infer": 9080,
      "existing": 9081,
      "phenomen": 9082,
      "crystals": 9083,
      "L1407P": 9084,
      "Line": 9085,
      "hear": 9086,
      "##A2": 9087,
      "reducing": 9088,
      "measurement": 9089,
      "Detection": 9090,
      "Overe": 9091,
      "##SNP": 9092,
      "Lysates": 9093,
      "Tolerated": 9094,
      "χ2": 9095,
      "##11T": 9096,
      "##oughly": 9097,
      "endometrioid": 9098,
      "ESR1": 9099,
      "reliable": 9100,
      "nd": 9101,
      "duplicate": 9102,
      "KDM5C": 9103,
      "rigid": 9104,
      "N6": 9105,
      "##sem": 9106,
      "transfections": 9107,
      "##olet": 9108,
      "##641": 9109,
      "profound": 9110,
      "uncovered": 9111,
      "accelerated": 9112,
      "precursor": 9113,
      "pseudo": 9114,
      "heterotrimer": 9115,
      "HEPES": 9116,
      "Tau": 9117,
      "intram": 9118,
      "sphe": 9119,
      "initiating": 9120,
      "doxycycline": 9121,
      "ge": 9122,
      "##8V": 9123,
      "las": 9124,
      "##eradish": 9125,
      "##ullo": 9126,
      "monomers": 9127,
      "##orseradish": 9128,
      "Louis": 9129,
      "sense": 9130,
      "##ΔPd": 9131,
      "hypothes": 9132,
      "Rad51": 9133,
      "natural": 9134,
      "##ΔPdx": 9135,
      "DH": 9136,
      "##bes": 9137,
      "disulf": 9138,
      "##aparib": 9139,
      "##erring": 9140,
      "oligodend": 9141,
      "##244": 9142,
      "macroph": 9143,
      "MATERIALS": 9144,
      "barc": 9145,
      "##mM": 9146,
      "proved": 9147,
      "presentation": 9148,
      "epithelium": 9149,
      "picture": 9150,
      "CY": 9151,
      "Dam": 9152,
      "Tsc": 9153,
      "##50K": 9154,
      "ultimately": 9155,
      "neurons": 9156,
      "Correlation": 9157,
      "OHT": 9158,
      "sn": 9159,
      "Neg": 9160,
      "Survival": 9161,
      "coexpressed": 9162,
      "Lu": 9163,
      "depth": 9164,
      "##rogli": 9165,
      "decreases": 9166,
      "esoph": 9167,
      "##T1": 9168,
      "##in1": 9169,
      "shap": 9170,
      "pAKT": 9171,
      "mitochondrial": 9172,
      "Multiple": 9173,
      "offer": 9174,
      "catalog": 9175,
      "Hein": 9176,
      "T670I": 9177,
      "acetyl": 9178,
      "Cent": 9179,
      "Systems": 9180,
      "##His": 9181,
      "responded": 9182,
      "selectivity": 9183,
      "##complex": 9184,
      "immortalized": 9185,
      "FIP1": 9186,
      "L4": 9187,
      "mail": 9188,
      "##acch": 9189,
      "lesser": 9190,
      "kindly": 9191,
      "5382insC": 9192,
      "C3": 9193,
      "HGS": 9194,
      "NCT": 9195,
      "##igible": 9196,
      "biallelic": 9197,
      "ASP": 9198,
      "##apit": 9199,
      "##34R": 9200,
      "myelodys": 9201,
      "Hetero": 9202,
      "conclusions": 9203,
      "Pathogenic": 9204,
      "interfering": 9205,
      "Atlas": 9206,
      "##isms": 9207,
      "Within": 9208,
      "extend": 9209,
      "lethality": 9210,
      "Conclusions": 9211,
      "Ge": 9212,
      "severity": 9213,
      "##ADD": 9214,
      "Inhibitor": 9215,
      "Fbx": 9216,
      "##terisks": 9217,
      "RHEB": 9218,
      "E70": 9219,
      "##9F": 9220,
      "##bon": 9221,
      "effectiveness": 9222,
      "##ribut": 9223,
      "easily": 9224,
      "Thirty": 9225,
      "1c": 9226,
      "NB": 9227,
      "enabl": 9228,
      "163": 9229,
      "adenomas": 9230,
      "elsewhere": 9231,
      "Quik": 9232,
      "designated": 9233,
      "secretase": 9234,
      "Quantitative": 9235,
      "kinetics": 9236,
      "Bro": 9237,
      "cass": 9238,
      "tree": 9239,
      "##UMA": 9240,
      "WTB": 9241,
      "ATCC": 9242,
      "Study": 9243,
      "participate": 9244,
      "A146": 9245,
      "Sol": 9246,
      "Single": 9247,
      "Where": 9248,
      "cos": 9249,
      "##ocitrate": 9250,
      "##izer": 9251,
      "Prism": 9252,
      "pretreatment": 9253,
      "Society": 9254,
      "Far": 9255,
      "marg": 9256,
      "chlor": 9257,
      "perm": 9258,
      "boxes": 9259,
      "SMARCA4": 9260,
      "G30": 9261,
      "ligation": 9262,
      "bron": 9263,
      "powerful": 9264,
      "elongin": 9265,
      "SLC": 9266,
      "cc": 9267,
      "cervical": 9268,
      "##FQEA": 9269,
      "##__": 9270,
      "##endence": 9271,
      "exonuclease": 9272,
      "generating": 9273,
      "becomes": 9274,
      "young": 9275,
      "Ste": 9276,
      "##Arg": 9277,
      "##etri": 9278,
[...]
